{"added_tokens":[{"content":"<unk>","id":0,"lstrip":false,"normalized":false,"rstrip":false,"single_word":false,"special":true}],"decoder":{"add_prefix_space":true,"trim_offsets":true,"type":"ByteLevel","use_regex":true},"model":{"byte_fallback":false,"continuing_subword_prefix":null,"dropout":null,"end_of_word_suffix":null,"fuse_unk":false,"ignore_merges":false,"merges":[["h","e"],["\u0120","t"],["\u0120","a"],["\u0120","s"],["\u0120","w"],["n","d"],["\u0120t","he"],["e","d"],["\u0120a","nd"],["\u0120","b"],["\u0120t","o"],["i","n"],["\u0120","h"],["r","e"],["\u0120w","a"],["\u0120","f"],["o","u"],["i","t"],["\u0120","l"],["\u0120","c"],["e","r"],["\u0120","d"],["\u0120","he"],["\u0120","m"],["\u0120","p"],["\u0120wa","s"],["\u0120","T"],["o","m"],["o","n"],["a","y"],["a","r"],["i","s"],["in","g"],["\u0120","g"],["i","l"],["e","n"],["i","d"],["a","t"],["\u0120T","he"],["\u0120","n"],["\u0120h","a"],["\u0120","S"],["\u0120s","a"],["a","n"],["o","r"],["i","m"],["l","l"],["\u0120","it"],["\u0120t","h"],["\u0120","o"],["\u0120","H"],["l","e"],["e","t"],["\u0120H","e"],["e","s"],["\u0120S","he"],["\u0120he","r"],["i","r"],["o","t"],["v","er"],["c","k"],["\u0120The","y"],["\u0120","in"],["o","w"],["\u0120","e"],["u","t"],["o","o"],["\u0120","y"],["l","d"],["\u0120","u"],["\u0120sa","id"],["\u0120","r"],["\u0120","I"],["i","g"],["\u0120b","e"],["\u0120","\""],["\u0120s","t"],["k","e"],["\u0120s","he"],["it","h"],["v","e"],["c","e"],["\u0120w","ith"],["p","p"],["\u0120s","o"],["k","ed"],["a","m"],["il","y"],["\u0120y","ou"],["\u0120p","l"],["r","i"],["a","d"],["\u0120","on"],["\u0120o","f"],["ver","y"],["\u0120h","is"],["n","t"],["O","n"],["L","ily"],["\u0120w","e"],["\u0120th","at"],["\u0120d","ay"],["\u0120pl","ay"],["\u0120u","p"],["T","he"],["e","l"],["\u0120ha","d"],["s","t"],["\u0120","B"],["\u0120the","y"],["\u0120l","i"],["\u0120f","or"],["c","h"],["u","n"],["en","t"],["'","s"],["ou","ld"],["\u0120s","h"],["m","y"],["ou","t"],["\u0120wa","nt"],["it","t"],["he","r"],["\u0120ha","pp"],["\u0120s","m"],["om","e"],["e","nd"],["\u0120m","om"],["\u0120","is"],["l","y"],["\u0120","Lily"],["\u0120d","o"],["a","ck"],["a","ll"],["s","e"],["\u0120n","ot"],["ou","nd"],["\u0120w","h"],["\u0120","very"],["\u0120I","t"],["itt","le"],["h","t"],["\u0120n","e"],["\u0120","k"],["\u0120l","ittle"],["\u0120t","im"],["u","g"],[".","\""],["a","l"],["r","y"],["ri","end"],["\u0120tim","e"],["\u0120b","ig"],["\u0120f","riend"],["\u0120","re"],["\u0120","M"],["\u0120the","re"],["\u0120s","e"],["\u0120l","oo"],["\u0120happ","y"],["\u0120sa","w"],["\u0120a","n"],["\u0120b","ut"],["t","er"],["a","ke"],["\u0120we","re"],["\u0120a","s"],["\u0120b","o"],["'","t"],["\u0120a","re"],["r","a"],["id","e"],["!","\""],["o","re"],["\u0120g","o"],["\u0120h","im"],["ay","s"],["On","e"],["\u0120the","m"],["\u0120to","o"],["e","c"],["\u0120","A"],["\u0120s","p"],["ir","l"],["\u0120g","irl"],["\u0120sm","il"],["On","ce"],["il","l"],["\u0120a","t"],["\u0120B","en"],["v","ed"],["\u0120the","ir"],["\u0120","out"],["ar","d"],["f","u"],["\u0120want","ed"],["\u0120","j"],["\u0120l","o"],["\u0120","J"],["a","in"],["\u0120ha","ve"],["i","nd"],["\u0120e","x"],["u","r"],["\u0120c","an"],["\u0120up","on"],["i","c"],["he","n"],["\u0120T","im"],["h","ing"],["\u0120c","ould"],["r","ound"],["fu","l"],["\u0120d","id"],["ig","ht"],["\u0120friend","s"],["u","m"],["on","e"],["ar","t"],["\u0120b","ack"],["he","d"],["\u0120w","ent"],["r","om"],["\u0120li","ke"],["a","re"],["?","\""],["\u0120a","ll"],["Y","ou"],["\u0120s","ays"],["oo","d"],["\u0120c","l"],["\u0120l","e"],["\u0120n","o"],["\u0120k","n"],["am","e"],["\u0120f","un"],["\u0120smil","ed"],["\u0120he","l"],["\u0120se","e"],["i","ck"],["om","et"],["\u0120f","e"],["\u0120T","om"],["\u0120m","e"],["\u0120loo","ked"],["on","g"],["\u00e2","\u0122"],[",","\""],["\u0120m","an"],["o","p"],["ar","k"],["\u0120hel","p"],["\u0120b","r"],["\u0120s","ome"],["i","ce"],["u","re"],["\u0120bo","y"],["a","s"],["ou","g"],["s","ide"],["el","t"],["\u0120a","l"],["\u0120f","elt"],["\u0120a","round"],["\u0120s","omet"],["w","ay"],["\u0120","W"],["\u0120w","ould"],["d","d"],["ad","e"],["\u0120as","ked"],["\u0120f","a"],["\u0120Tim","my"],["\u0120to","y"],["\u0120st","art"],["\u0120a","g"],["\u0120","One"],["\u0120a","way"],["am","ed"],["g","et"],["\u0120s","c"],["\u0120r","o"],["\u0120somet","hing"],["ing","s"],["ar","a"],["\u0120","You"],["\u0120lo","ved"],["\u0120r","an"],["\u0120w","or"],["\u0120wh","at"],["\u0120m","ake"],["\u0120loo","k"],["\u0120c","h"],["\u0120c","ar"],["it","ed"],["ow","n"],["a","g"],["b","le"],["\u0120n","amed"],["\u0120","L"],["\u0120m","ade"],["e","p"],["\u0120b","l"],["\u0120h","ug"],["re","e"],["\u0120f","l"],["\u0120ex","c"],["a","k"],["t","her"],["\u0120c","o"],["oo","k"],["\u0120o","ther"],["\u0120start","ed"],["get","her"],["\u0120f","rom"],["e","ll"],["ou","d"],["\u0120b","ir"],["\u0120ag","ain"],["ar","ed"],["\u0120p","ut"],["\u0120w","hen"],["\u0120","E"],["u","ck"],["h","at"],["q","u"],["\u0120m","u"],["\u0120ne","w"],["a","ug"],["\u0120play","ing"],["n","n"],["\u0120the","n"],["\u0120wh","o"],["\u0120to","gether"],["\u0120f","ound"],["es","t"],["\u0120bir","d"],["\u0120h","ome"],["a","ch"],["r","o"],["\u0120g","ood"],["\u0120fe","el"],["\u0120m","y"],["\u0120e","very"],["\u0120wa","l"],["\u0120sa","d"],["\u0120B","ut"],["ou","s"],["\u0120g","et"],["i","f"],["\u0120exc","ited"],["\u0120d","ec"],["\u0120","v"],["\u0120p","ark"],["nn","a"],["p","l"],["s","s"],["\u0120th","an"],["The","y"],["pp","ed"],["\u0120you","r"],["it","e"],["\u0120li","ked"],["oug","ht"],["\u0120c","are"],["\u0120th","ings"],["ri","ed"],["\u0120dec","id"],["ou","r"],["\u0120p","r"],["\u0120decid","ed"],["\u0120do","g"],["all","y"],["ec","i"],["\u0120a","b"],["nd","er"],["a","ve"],["\u0120","D"],["\u0120t","r"],["u","e"],["\u0120g","ot"],["u","st"],["ou","se"],["\u0120d","ad"],["i","e"],["\u0120d","own"],["\u0120M","om"],["u","dd"],["\u0120ab","out"],["eci","al"],["\u0120t","ake"],["\u0120sp","ecial"],["u","s"],["\u0120f","ind"],["\u0120too","k"],["\u0120b","all"],["\u0120o","ld"],["\u0120g","ra"],["\u0120on","e"],["er","s"],["\u0120h","o"],["ll","y"],["re","t"],["i","a"],["is","t"],["\u0120sc","ared"],["\u0120S","ara"],["or","ry"],["a","p"],["\u0120s","k"],["\u0120m","ore"],["is","e"],["en","ed"],["\u0120in","t"],["n","y"],["\u0120","ke"],["\u0120be","c"],["\u0120s","w"],["\u0120out","side"],["g","ed"],["\u0120kn","ow"],["b","b"],["w","ays"],["\u0120th","ought"],["\u0120r","un"],["c","hed"],["\u0120c","ame"],["\u0120st","r"],["\u0120toy","s"],["n","ed"],["\u0120al","ways"],["an","k"],["udd","en"],["\u0120l","ot"],["\u0120","F"],["\u0120l","aug"],["\u0120p","e"],["\u0120p","o"],["a","nd"],["\u0120s","orry"],["\u0120m","o"],["an","t"],["\u0120le","ar"],["udden","ly"],["\u0120w","ill"],["in","k"],["\u0120wa","ter"],["B","ut"],["i","ve"],["es","s"],["\u0120t","w"],["\u0120th","is"],["f","ter"],["\u0120kn","e"],["\u0120","qu"],["\u0120t","ree"],["\u0120ex","pl"],["\u0120mu","ch"],["\u0120wa","t"],["\u0120A","nna"],["re","at"],["\u0120e","ach"],["\u0120did","n"],["\u0120ne","ver"],["o","on"],["\u0120an","y"],["\u0120E","very"],["a","ce"],["g","e"],["\u0120s","un"],["\u0120J","ack"],["\u0120o","p"],["\u0120sm","all"],["\u0120int","o"],["v","ent"],["he","re"],["\u0120f","o"],["\u0120cl","o"],["\u0120s","l"],["f","e"],["\u0120","or"],["\u0120h","ow"],["\u0120A","nd"],["\u0120","en"],["m","a"],["v","es"],["\u0120S","am"],["\u0120M","ia"],["\u0120ro","om"],["\u0120a","d"],["in","e"],["\u0120sh","ow"],["\u0120bo","x"],["\u0120could","n"],["\u0120wal","k"],["a","st"],["v","ing"],["\u0120to","ld"],["\u0120c","at"],["ar","s"],["is","h"],["\u0120n","ice"],["\u0120hug","ged"],["a","x"],["p","t"],["\u0120W","e"],["\u0120in","side"],["\u0120man","y"],["\u0120kne","w"],["et","ter"],["\u0120pr","oud"],["ot","her"],["\u0120h","ouse"],["\u0120l","ong"],["\u0120p","u"],["\u0120p","ick"],["\u0120g","ave"],["M","om"],["d","y"],["\u0120d","on"],["\u0120o","ver"],["um","p"],["a","u"],["\u0120ha","nd"],["\u0120J","o"],["T","om"],["e","m"],["\u0120","if"],["\u0120he","ard"],["\u0120p","ret"],["\u0120e","at"],["ad","y"],["\u0120do","ll"],["b","y"],["ot","h"],["at","e"],["\u0120mom","my"],["v","en"],["\u0120than","ked"],["\u0120t","e"],["\u0120u","nt"],["\u0120be","ar"],["\u0120c","om"],["i","on"],["\u0120s","ay"],["\u0120b","est"],["\u0120j","ust"],["a","ble"],["\u0120ne","ed"],["\u00e2\u0122","\u013e"],["\u0120unt","il"],["\u0120g","ard"],["\u0120of","f"],["\u0120gard","en"],["\u0120t","ried"],["\u0120care","ful"],["'","m"],["\u00e2\u0122","\u013f"],["c","y"],["\u0120c","all"],["\u0120fl","ow"],["il","d"],["ur","t"],["\u0120sk","y"],["\u0120u","s"],["\u0120r","a"],["um","my"],["oug","h"],["\u0120w","o"],["\u0120d","re"],["ur","p"],["B","en"],["\u0120sh","in"],["\u0120fa","st"],["\u0120","\u00e2\u0122\u013e"],["\u0120t","ry"],["a","ut"],["\u0120c","he"],["or","t"],["\u0120tr","uck"],["n","ing"],["s","el"],["\u0120b","etter"],["\u0120g","l"],["im","al"],["\u0120an","imal"],["o","y"],["\u0120c","u"],["\u0120wa","y"],["\u0120be","aut"],["au","se"],["a","se"],["g","ry"],["\u0120ad","vent"],["b","er"],["r","m"],["\u0120","C"],["h","n"],["o","ck"],["\u0120b","ook"],["\u0120play","ed"],["o","b"],["i","ful"],["i","z"],["\u0120r","ed"],["\u0120beaut","iful"],["\u0120lear","ned"],["o","lly"],["\u0120st","ay"],["\u00e2\u0122","\u013b"],["\u0120bec","ause"],["t","y"],["\u0120l","ist"],["il","e"],["\u0120so","on"],["\u0120advent","ure"],["\u0120The","n"],["T","h"],["Y","es"],["\u0120H","er"],["\u0120sh","are"],["\u0120k","ind"],["\u0120M","ax"],["\u0120clo","s"],["I","t"],["a","c"],["\u0120b","u"],["\u0120it","s"],["\u0120j","ump"],["N","o"],["\u0120","G"],["an","e"],["\u0120call","ed"],["L","et"],["a","il"],["\u0120s","urp"],["\u0120lo","ve"],["\u0120laug","hed"],["\u0120surp","r"],["\u0120st","ill"],["b","e"],["g","er"],["\u0120s","n"],["oo","l"],["\u0120shin","y"],["sel","f"],["\u0120f","i"],["\u0120c","ome"],["\u0120g","r"],["\u0120n","ow"],["\u0120tw","o"],["he","s"],["\u0120l","oud"],["le","w"],["\u0120e","y"],["\u0120h","ard"],["\u0120re","m"],["H","e"],["\u0120c","le"],["il","a"],["\u0120e","ven"],["\u0120wal","ked"],["f","ore"],["\u0120b","y"],["\u0120b","ra"],["\u0120h","urt"],["\u0120f","am"],["\u0120l","et"],["\u0120g","round"],["\u0120S","o"],["\u0120u","nder"],["op","le"],["dd","ed"],["\u0120b","ed"],["\u0120b","oth"],["\u0120c","ry"],["\u0120ha","s"],["\u0120sh","ould"],["\u0120bo","at"],["\u0120ke","pt"],["\u0120w","ind"],["\u0120b","ug"],["ec","t"],["\u0120co","l"],["\u0120pe","ople"],["f","t"],["l","ed"],["\u0120f","ly"],["S","ara"],["\u0120w","r"],["\u0120smil","e"],["\u0120str","ong"],["\u0120lot","s"],["W","hen"],["u","cy"],["\u0120","im"],["\u0120to","w"],["\u0120f","r"],["\u0120be","fore"],["ic","ed"],["\u0120expl","ore"],["\u0120animal","s"],["\u0120ey","es"],["T","hat"],["\u0120c","r"],["ar","y"],["i","p"],["t","hing"],["\u0120st","or"],["\u0120no","dded"],["i","es"],["x","t"],["\u0120e","nd"],["ak","es"],["\u0120op","ened"],["im","my"],["\u0120e","ver"],["as","h"],["W","hat"],["is","ed"],["\u0120o","w"],["ig","h"],["\u0120not","iced"],["\u0120wo","nder"],["\u0120fam","ily"],["c","t"],["s","o"],["\u0120wa","it"],["\u0120f","lew"],["ay","be"],["\u0120an","gry"],["\u0120go","ing"],["\u0120feel","ing"],["\u0120every","one"],["aug","ht"],["\u0120bra","ve"],["e","et"],["\u0120a","ma"],["\u0120b","ad"],["\u0120f","ore"],["\u0120d","e"],["le","s"],["\u0120no","ise"],["\u0120al","so"],["\u0120F","rom"],["\u0120wat","ch"],["\u0120ama","z"],["k","ay"],["\u0120f","in"],["is","hed"],["\u0120H","is"],["\u0120pl","ace"],["\u0120c","on"],["im","b"],["\u0120bl","ue"],["\u0120qu","ick"],["\u0120d","an"],["il","ly"],["\u0120th","r"],["\u0120li","ved"],["ra","w"],["\u0120cl","imb"],["\u0120ch","ild"],["ak","ing"],["\u0120v","o"],["\u0120p","ain"],["\u0120th","ink"],["\u0120ne","xt"],["\u0120walk","ing"],["\u0120f","ish"],["le","ep"],["\u0120r","u"],["\u0120do","or"],["\u0120as","k"],["\u0120le","a"],["bb","it"],["\u0120wat","ched"],["\u0120m","ag"],["\u0120wor","k"],["\u0120ball","oon"],["\u0120col","or"],["A","nna"],["S","uddenly"],["i","ous"],["j","oy"],["k","es"],["\u0120s","u"],["\u0120g","reat"],["\u0120n","ame"],["ll","ow"],["\u0120st","o"],["\u0120me","an"],["\u0120a","fter"],["\u0120d","is"],["\u0120g","re"],["\u0120g","ive"],["\u0120W","hen"],["\u0120ho","le"],["\u0120t","re"],["\u0120t","ur"],["\u0120d","el"],["us","h"],["\u0120quick","ly"],["d","ay"],["\u0120","our"],["\u0120S","uddenly"],["\u0120se","en"],["\u0120bl","ock"],["\u0120flow","ers"],["\u0120","ide"],["\u0120he","ad"],["ir","ed"],["\u0120sh","out"],["\u0120fa","ce"],["\u0120fo","llow"],["\u0120pick","ed"],["\u0120ra","bbit"],["\u0120list","en"],["\u0120d","if"],["ir","st"],["pp","y"],["\u0120do","es"],["\u0120re","al"],["\u0120cu","ri"],["\u0120clos","er"],["\u0120rem","em"],["\u0120vo","ice"],["g","an"],["\u0120f","ar"],["\u0120p","ic"],["\u0120sa","fe"],["\u0120wh","ile"],["\u0120ke","ep"],["\u0120en","joy"],["\u0120sw","eet"],["\u0120fore","st"],["\u0120ide","a"],["\u0120","N"],["\u0120y","ell"],["\u0120look","ing"],["\u0120cle","an"],["p","ort"],["s","h"],["t","ing"],["\u0120w","here"],["\u0120wa","rm"],["\u0120u","n"],["\u0120se","es"],["\u0120br","o"],["bb","ed"],["by","e"],["S","o"],["t","ed"],["\u0120t","ired"],["\u0120a","r"],["\u0120he","re"],["\u0120g","ame"],["\u0120y","e"],["\u0120u","se"],["\u0120st","ick"],["\u0120B","ob"],["\u0120L","ila"],["\u0120D","ad"],["\u0120Mom","my"],["\u0120pret","ty"],["Th","ank"],["\u0120t","ell"],["is","y"],["an","ge"],["\u0120M","olly"],["\u0120car","s"],["\u0120hand","s"],["\u0120mag","ic"],["\u0120sto","pped"],["\u0120curi","ous"],["i","ed"],["is","s"],["\u0120th","ree"],["le","ase"],["\u0120wor","ld"],["ag","e"],["n","er"],["\u0120f","u"],["\u0120be","h"],["\u0120ne","ar"],["\u0120pu","ll"],["\u0120dre","ss"],["\u0120remem","ber"],["t","h"],["\u0120b","it"],["\u0120p","en"],["\u0120li","kes"],["\u0120Jo","hn"],["S","he"],["f","f"],["n","g"],["\u0120s","qu"],["at","h"],["\u0120fa","v"],["\u0120L","ucy"],["\u0120good","bye"],["fe","re"],["L","ook"],["a","isy"],["\u0120t","al"],["\u0120a","pp"],["\u0120f","irst"],["\u0120l","ady"],["er","ed"],["\u0120d","ark"],["as","s"],["\u0120sl","ide"],["\u0120pret","end"],["\u0120dif","fere"],["\u0120","P"],["\u0120be","l"],["\u0120be","en"],["\u0120happ","ened"],["\u0120re","ady"],["\u0120br","other"],["\u0120co","ld"],["c","o"],["t","ure"],["\u0120s","leep"],["\u0120m","ouse"],["el","y"],["\u0120look","s"],["\u0120pic","ture"],["\u0120differe","nt"],["J","o"],["\u0120to","u"],["re","am"],["\u0120T","h"],["\u0120n","ight"],["\u0120but","ter"],["\u0120ro","ck"],["\u0120bec","ame"],["\u0120op","en"],["\u0120Jo","e"],["\u0120gl","ad"],["\u0120shout","ed"],["m","ore"],["\u0120s","ure"],["\u0120h","op"],["\u0120m","or"],["\u0120S","ue"],["\u0120r","ain"],["\u0120be","gan"],["st","er"],["\u0120any","more"],["\u0120Every","one"],["W","e"],["i","ent"],["\u0120wh","y"],["\u0120re","l"],["\u0120br","ight"],["\u0120gra","ss"],["\u0120pu","ppy"],["iz","ed"],["\u0120s","ing"],["\u0120m","on"],["\u0120g","i"],["at","her"],["\u0120o","kay"],["\u0120A","s"],["\u0120L","et"],["\u0120fl","o"],["\u0120a","c"],["\u0120s","ound"],["ou","nt"],["\u0120d","ri"],["\u0120y","ummy"],["fu","lly"],["\u0120Sara","h"],["\u0120thr","ough"],["\u0120yell","ow"],["\u0120","ice"],["\u0120b","ow"],["\u0120f","ill"],["\u0120f","ood"],["\u0120r","ight"],["\u0120st","op"],["\u0120re","pl"],["\u0120j","o"],["\u0120gra","bbed"],["a","ched"],["w","here"],["re","n"],["\u0120at","e"],["\u0120fi","x"],["\u0120gre","en"],["\u0120fav","or"],["H","er"],["\u0120a","m"],["\u0120be","ing"],["\u0120sl","ow"],["\u0120C","an"],["\u0120jump","ed"],["\u0120child","ren"],["\u0120lea","ves"],["C","an"],["H","ell"],["\u0120","-"],["\u0120b","a"],["\u0120m","um"],["\u0120for","g"],["\u0120k","id"],["\u0120than","k"],["\u0120run","ning"],["\u0120show","ed"],["\u0120surpr","ise"],["\u0120block","s"],["\u0120beh","ind"],["\u0120favor","ite"],["Hell","o"],["'","re"],["\u0120wa","ved"],["it","c"],["nt","s"],["\u0120J","ane"],["\u0120fe","ll"],["\u0120care","fully"],["\u0120pr","in"],["ed","dy"],["\u0120he","ar"],["im","es"],["\u0120some","one"],["ro","om"],["\u0120D","aisy"],["Mom","my"],["\u0120con","t"],["\u0120s","ig"],["\u0120m","ess"],["\u0120p","re"],["\u0120ha","ving"],["ri","es"],["\u0120lear","n"],["\u0120under","st"],["!","\u00e2\u0122\u013f"],["D","on"],["J","ack"],["W","ow"],["\u0120b","re"],["\u0120h","at"],["\u0120l","ight"],["\u0120T","hat"],["\u0120sh","o"],["\u0120sm","ell"],["\u0120smil","es"],["\u0120D","o"],["\u0120N","ow"],["\u0120repl","ied"],["\u0120t","ast"],["\u0120h","or"],["\u0120l","ess"],["\u0120th","ing"],["\u0120re","ached"],["\u0120j","u"],["\u0120help","ed"],["\u0120te","ac"],["\u0120flow","er"],["\u0120fu","ll"],["\u0120tal","k"],["\u0120butter","f"],["\u0120kid","s"],["\u0120","ve"],["\u0120c","ake"],["\u0120c","ook"],["\u0120e","l"],["\u0120on","ly"],["\u0120laug","h"],["\u0120mo","ve"],["\u0120wonder","ful"],["Jo","hn"],["\u0120h","id"],["\u0120h","igh"],["\u0120d","r"],["on","s"],["\u0120re","ad"],["\u0120wor","ry"],["\u0120cat","ch"],["\u0120wr","ong"],["\u0120de","ep"],["\u0120ye","ars"],["\u0120teac","her"],["u","ed"],["\u0120t","ra"],["\u0120a","ir"],["\u0120w","ished"],["\u0120to","p"],["\u0120p","art"],["\u0120p","are"],["\u0120r","i"],["\u0120so","ft"],["\u0120we","ar"],["\u0120k","ite"],["\u0120big","ger"],["ard","s"],["\u0120im","port"],["\u0120pare","nts"],["\u0120import","ant"],["A","fter"],["h","y"],["k","en"],["\u0120t","ail"],["\u0120b","ag"],["\u0120f","ight"],["\u0120f","ro"],["\u0120d","ro"],["\u0120p","er"],["\u0120A","fter"],["\u0120ho","ld"],["\u0120com","ing"],["\u0120surpr","ised"],["\u0120stor","y"],["\u0120del","ic"],["\u0120fill","ed"],["\u0120c","ool"],["\u0120m","ight"],["\u0120m","akes"],["en","s"],["\u0120The","re"],["\u0120st","e"],["\u0120st","ore"],["\u0120gra","nd"],["ap","e"],["\u0120any","thing"],["c","ret"],["z","y"],["\u0120t","all"],["\u0120d","raw"],["\u0120p","lease"],["\u0120pl","an"],["\u0120want","s"],["\u0120friend","ly"],["\u0120se","cret"],["\u0120bird","s"],["\u0120us","ed"],["\u0120bro","ken"],["\u0120tou","ch"],["\u0120butterf","ly"],["\u0120el","se"],["in","ed"],["\u0120h","ill"],["re","ed"],["\u0120g","one"],["\u0120sa","il"],["\u0120re","ally"],["\u0120br","an"],["\u0120fi","re"],["\u0120tre","es"],[".","\u00e2\u0122\u013f"],["p","s"],["\u0120","R"],["\u0120a","rm"],["\u0120w","ood"],["\u0120c","ried"],["\u0120c","reat"],["\u0120d","one"],["\u0120m","ar"],["or","ing"],["\u0120him","self"],["\u0120str","ange"],["\u0120dre","am"],["\u0120real","ized"],["\u0120bre","ak"],["\u0120","z"],["\u0120s","at"],["\u0120s","ong"],["\u0120b","uck"],["\u0120wa","ll"],["at","ed"],["\u0120ha","ir"],["ir","t"],["The","n"],["\u0120happ","ily"],["\u0120re","st"],["\u0120an","other"],["\u0120every","thing"],["\u0120v","is"],["\u0120fin","ally"],["\u0120enjoy","ed"],["\u0120magic","al"],["\u0120cont","in"],["\u0120less","on"],["\u0120ju","ice"],["g","s"],["g","le"],["o","l"],["\u0120t","able"],["\u0120m","at"],["ow","s"],["\u0120I","n"],["pp","ing"],["am","es"],["\u0120se","ar"],["\u0120sp","l"],["\u0120J","en"],["\u0120J","ill"],["\u0120see","m"],["\u0120sw","im"],["\u0120ow","n"],["\u0120ar","ri"],["\u0120mon","ster"],["\u0120contin","ued"],["\"","."],["M","aybe"],["T","im"],["a","ir"],["d","s"],["u","l"],["u","ally"],["in","s"],["ou","p"],["\u0120d","in"],["\u0120m","et"],["\u0120m","aking"],["at","er"],["\u0120y","es"],["\u0120wh","ite"],["\u0120fun","ny"],["\u0120Tom","my"],["\u0120po","nd"],["\u0120amaz","ed"],["\u0120amaz","ing"],["\u0120tur","n"],["\u0120follow","ed"],["\u0120remember","ed"],["\u0120underst","and"],["\u0120per","f"],["O","K"],["\u0120h","un"],["\u0120p","et"],["\u0120be","e"],["\u0120fa","ir"],["\u0120bl","ack"],["\u0120hor","se"],["F","rom"],["T","immy"],["u","ff"],["\u0120a","ble"],["\u0120li","on"],["\u0120k","itc"],["\u0120bl","ank"],["\u0120clo","se"],["Th","is"],["\u0120kitc","hen"],["a","w"],["d","er"],["\u0120he","ld"],["\u0120p","ap"],["\u0120her","self"],["\u0120sp","oon"],["\u0120ro","ll"],["\u0120wor","ked"],["\u0120E","m"],["\u0120get","ting"],["\u0120climb","ed"],["\u0120think","s"],["\u0120slow","ly"],["\u0120sho","es"],["\u0120arri","ved"],["\u0120blank","et"],["s","p"],["\u0120c","ut"],["\u0120c","ount"],["\u0120m","ine"],["\u0120p","at"],["\u0120p","ink"],["\u0120T","o"],["\u0120M","aybe"],["\u0120A","ll"],["\u0120sp","ot"],["\u0120book","s"],["\u0120color","s"],["\u0120far","m"],["\u0120mor","ning"],["\u0120delic","ious"],["\u0120bran","ch"],["\u0120buck","et"],["\u0120vis","it"],["S","am"],["b","or"],["e","ared"],["\u0120s","et"],["\u0120w","et"],["\u0120l","on"],["\u0120S","p"],["\u0120lo","st"],["as","ure"],["\u0120ag","reed"],["\u0120stay","ed"],["\u0120G","ra"],["\u0120picture","s"],["\u0120flo","or"],["\u0120ste","pped"],["H","is"],["O","h"],["i","et"],["l","c"],["\u0120t","ri"],["\u0120t","ight"],["\u0120b","us"],["\u0120l","and"],["\u0120p","us"],["\u0120g","ent"],["\u0120sa","nd"],["ot","t"],["\u0120j","oy"],["\u0120al","one"],["\u0120W","hat"],["\u0120ho","pped"],["\u0120mo","st"],["\u0120qu","iet"],["vent","ually"],["\u0120en","ough"],["\u0120fast","er"],["\u0120ask","s"],["\u0120pull","ed"],["\u0120sig","n"],["A","t"],["a","pped"],["c","ed"],["i","re"],["m","ent"],["\u0120f","all"],["\u0120f","ree"],["\u0120m","other"],["\u0120p","ro"],["\u0120B","e"],["ic","y"],["\u0120fe","w"],["\u0120br","ought"],["\u0120Dad","dy"],["\u0120ba","by"],["\u0120forg","ot"],["\u0120din","ner"],["\u0120lon","ely"],["'","ll"],["a","v"],["i","ke"],["l","ight"],["r","ow"],["\u0120b","ath"],["in","ally"],["\u0120h","ide"],["\u0120k","itt"],["\u0120cl","oud"],["ro","ss"],["\u0120feel","s"],["\u0120run","s"],["\u0120po","in"],["\u0120list","ened"],["\u0120adventure","s"],["\u0120pain","t"],["\u0120Th","is"],["m","e"],["p","h"],["\u0120t","eddy"],["\u0120s","ide"],["re","l"],["\u0120d","uck"],["is","es"],["\u0120n","ap"],["\u0120n","aught"],["\u0120mom","ent"],["ur","ry"],["\u0120fl","ash"],["our","s"],["\u0120long","er"],["\u0120com","p"],["\u0120try","ing"],["\u0120gr","ow"],["\u0120fly","ing"],["\u0120part","y"],["b","o"],["e","ver"],["\u0120s","ch"],["\u0120s","illy"],["\u0120w","on"],["is","ter"],["\u0120sm","o"],["ra","g"],["\u0120sp","ark"],["ain","ed"],["as","k"],["\u0120somet","imes"],["\u0120sw","ing"],["\u0120sn","ack"],["\u0120dan","ger"],["\u0120perf","ect"],["\u0120pap","er"],["\u0120Sp","ot"],["\u0120sch","ool"],["H","i"],["L","ila"],["b","s"],["b","ble"],["o","s"],["\u0120t","akes"],["\u0120s","it"],["\u0120wa","ited"],["\u0120c","and"],["\u0120c","raw"],["\u0120p","ass"],["\u0120was","n"],["\u0120g","em"],["\u0120sa","me"],["ot","hes"],["\u0120pl","ant"],["un","ch"],["\u0120Ben","ny"],["\u0120cl","othes"],["\u0120ch","ick"],["\u0120need","ed"],["\u0120bu","ild"],["\u0120tow","ards"],["ct","or"],["\u0120fin","ished"],["\u0120fro","g"],["L","ucy"],["M","olly"],["h","o"],["l","f"],["y","ard"],["\u0120s","ister"],["\u0120b","ott"],["\u0120c","ast"],["\u0120p","rom"],["le","ph"],["\u0120we","lc"],["\u0120ne","igh"],["\u0120back","yard"],["op","e"],["\u0120doll","s"],["\u0120hun","gry"],["\u0120kitt","y"],["\u0120naught","y"],["\u0120flash","light"],["S","ure"],["e","e"],["u","it"],["ar","ing"],["\u0120sa","ck"],["or","m"],["or","ed"],["\u0120at","t"],["\u0120br","own"],["\u0120ch","o"],["\u0120other","s"],["\u0120expl","oring"],["\u0120stor","ies"],["\u0120color","ful"],["\u0120dis","co"],["\u0120dri","ver"],["\u0120seem","ed"],["uff","y"],["A","s"],["i","ch"],["p","er"],["s","ent"],["\u0120c","aught"],["\u0120m","out"],["\u0120m","ail"],["\u0120p","ow"],["\u0120p","ers"],["\u0120g","u"],["\u0120th","re"],["ver","ed"],["\u0120e","m"],["am","p"],["ad","ow"],["\u0120sm","art"],["\u0120do","ing"],["\u0120J","immy"],["ur","se"],["\u0120cl","apped"],["\u0120every","where"],["\u0120fo","x"],["\u0120cry","ing"],["\u0120bug","s"],["\u0120tow","er"],["\u0120pen","ny"],["\u0120pre","sent"],["\u0120mout","h"],["e","en"],["s","et"],["\u0120","es"],["\u0120b","un"],["\u0120l","ake"],["\u0120d","es"],["\u0120m","in"],["\u0120p","ath"],["\u0120r","ace"],["\u0120sh","ared"],["\u0120j","ar"],["\u0120sc","ary"],["\u0120hug","s"],["ie","ved"],["ap","es"],["\u0120F","r"],["\u0120che","ered"],["ock","ed"],["\u0120bu","y"],["\u0120wind","ow"],["\u0120fr","uit"],["\u0120cr","ay"],["\u0120wonder","ed"],["\u0120su","ch"],["\u0120tre","asure"],["\u0120tur","ned"],["\u0120hop","ed"],["\u0120ac","ross"],["\u0120wood","s"],["\u0120danger","ous"],["\u0120thre","w"],["\u0120bun","ny"],["D","o"],["c","ess"],["o","om"],["z","e"],["\u0120b","ar"],["\u0120b","en"],["\u0120b","ush"],["\u0120h","ot"],["\u0120wa","r"],["\u0120c","ir"],["\u0120he","av"],["\u0120p","ack"],["at","ion"],["\u0120st","ars"],["\u0120you","ng"],["\u0120for","k"],["\u0120sh","r"],["\u0120sh","apes"],["um","b"],["\u0120no","ises"],["\u0120fo","ld"],["\u0120cu","p"],["\u0120sn","ow"],["\u0120jo","in"],["\u0120cook","ies"],["\u0120cast","le"],["\u0120cir","c"],["M","ummy"],["O","kay"],["f","ort"],["\u0120to","day"],["\u0120d","i"],["id","ge"],["at","s"],["ir","rel"],["\u0120e","leph"],["\u0120happ","en"],["\u0120k","iss"],["\u0120j","e"],["\u0120lo","ck"],["\u0120le","ave"],["\u0120me","et"],["\u0120wor","ried"],["\u0120mu","s"],["\u0120po","l"],["\u0120com","es"],["\u0120truck","s"],["\u0120clos","ed"],["\u0120squ","irrel"],["\u0120bel","ong"],["\u0120gi","ves"],["\u0120dr","ink"],["\u0120dro","ve"],["\u0120sear","ch"],["\u0120turn","s"],["\u0120prom","ised"],["\u0120welc","ome"],["\u0120eleph","ant"],["W","hy"],["l","ing"],["s","ed"],["u","p"],["\u0120s","oup"],["\u0120l","etter"],["id","er"],["\u0120S","ally"],["an","g"],["le","ss"],["ck","et"],["\u0120in","st"],["\u0120st","re"],["\u0120pl","ac"],["\u0120B","illy"],["\u0120go","es"],["as","ed"],["\u0120po","cket"],["\u0120expl","ained"],["\u0120wo","ke"],["\u0120C","ome"],["iz","e"],["\u0120wr","ite"],["\u0120Th","ank"],["\u0120rel","ieved"],["\u0120ri","ver"],["?","\u00e2\u0122\u013f"],["d","e"],["e","y"],["\u0120t","reat"],["\u0120f","ig"],["\u0120c","ra"],["\u0120c","omet"],["\u0120c","ave"],["\u0120d","ir"],["\u0120d","ry"],["\u0120d","rag"],["\u0120he","art"],["\u0120p","ra"],["il","k"],["\u0120r","id"],["\u0120be","ach"],["ke","y"],["ce","pt"],["\u0120go","at"],["\u0120sp","e"],["\u0120smil","ing"],["\u0120co","ll"],["\u0120E","lly"],["\u0120mu","st"],["ss","ed"],["\u0120tw","ins"],["\u0120And","y"],["ate","ful"],["ion","s"],["\u0120mor","al"],["\u0120arm","s"],["\u0120pat","ient"],["\u0120smo","oth"],["\u0120pers","on"],["\u0120cray","ons"],["\u0120ben","ch"],["\u0120heav","y"],["\u0120dir","ty"],["M","ia"],["a","le"],["a","pp"],["b","r"],["e","k"],["\u0120s","uddenly"],["\u0120b","ite"],["it","ing"],["\u0120l","unch"],["\u0120c","our"],["\u0120m","ilk"],["\u0120p","i"],["\u0120S","ome"],["im","p"],["ll","o"],["ir","r"],["ot","s"],["\u0120y","ard"],["\u0120do","ctor"],["fu","sed"],["\u0120lo","ves"],["one","y"],["\u0120le","ft"],["\u0120dad","dy"],["\u0120F","l"],["\u0120pe","ace"],["\u0120sun","sh"],["\u0120gr","ateful"],["\u0120dis","app"],["\u0120prin","cess"],["\u0120spl","ash"],["\u0120Em","ma"],["\u0120Gra","nd"],["\u0120gent","le"],["\u0120cour","se"],["\u0120sunsh","ine"],["J","immy"],["f","ish"],["l","i"],["s","w"],["s","y"],["\u0120t","aking"],["ou","n"],["\u0120l","uck"],["\u0120c","or"],["\u0120he","ars"],["\u0120m","ill"],["\u0120m","iss"],["\u0120p","urse"],["\u0120g","ather"],["ll","a"],["et","er"],["\u0120e","ventually"],["\u0120r","ide"],["\u0120on","es"],["\u0120li","ving"],["\u0120sh","ook"],["ug","g"],["\u0120re","sp"],["\u0120se","a"],["\u0120an","sw"],["\u0120me","adow"],["\u0120wor","ds"],["\u0120L","e"],["ep","end"],["\u0120put","s"],["ie","ve"],["\u0120im","p"],["\u0120im","ag"],["\u0120cr","ack"],["\u0120bro","ke"],["\u0120cloud","s"],["\u0120neigh","bor"],["m","or"],["p","e"],["t","o"],["\u0120","3"],["\u0120w","in"],["\u0120w","ra"],["\u0120h","ar"],["\u0120h","ours"],["\u0120c","ush"],["\u0120T","V"],["\u0120be","ll"],["\u0120st","one"],["\u0120with","out"],["\u0120pl","ane"],["\u0120up","set"],["\u0120sh","op"],["\u0120sh","irt"],["\u0120wh","ich"],["\u0120M","ary"],["\u0120j","ob"],["omet","imes"],["\u0120help","ing"],["\u0120br","ing"],["\u0120L","ittle"],["\u0120qu","een"],["\u0120eat","ing"],["He","y"],["\u0120ye","ar"],["th","day"],["\u0120rock","s"],["\u0120creat","ure"],["\u0120mat","ch"],["\u0120mus","ic"],["\u0120fig","ure"],["A","nd"],["F","inally"],["O","f"],["c","ape"],["o","c"],["\u0120b","oun"],["\u0120wa","nder"],["\u0120f","ing"],["\u0120he","llo"],["\u0120m","ad"],["\u0120p","h"],["\u0120e","ar"],["\u0120on","to"],["ent","s"],["itt","ing"],["\u0120k","ick"],["\u0120but","t"],["\u0120sp","ider"],["\u0120no","se"],["\u0120al","ong"],["ble","m"],["\u0120gra","b"],["\u0120mo","ved"],["\u0120tw","ist"],["\u0120kne","e"],["\u0120fo","ot"],["\u0120che","st"],["\u0120strong","er"],["\u0120ow","l"],["\u0120app","le"],["\u0120app","eared"],["\u0120sleep","y"],["\u0120sing","ing"],["\u0120sound","s"],["\u0120dro","pped"],["\u0120hold","ing"],["\u0120grand","ma"],["\u0120In","side"],["\u0120pus","hed"],["'","d"],["M","ax"],["c","ing"],["c","ream"],["d","le"],["e","ad"],["i","pped"],["n","ey"],["o","g"],["\u0120t","in"],["\u0120s","itting"],["\u0120h","ig"],["\u0120f","it"],["\u0120f","an"],["\u0120c","ard"],["\u0120c","ream"],["er","y"],["\u0120m","irr"],["\u0120p","ill"],["\u0120p","udd"],["\u0120g","ig"],["\u0120g","ara"],["en","ce"],["\u0120S","ometimes"],["\u0120sa","f"],["\u0120st","uck"],["\u0120st","and"],["\u0120so","l"],["am","a"],["\u0120for","get"],["un","k"],["\u0120not","hing"],["\u0120loo","ps"],["\u0120A","my"],["\u0120sp","r"],["\u0120le","m"],["\u0120see","k"],["\u0120ch","ain"],["\u0120co","zy"],["\u0120bir","thday"],["\u0120my","ster"],["\u0120v","i"],["\u0120laug","hing"],["Tom","my"],["\u0120hop","e"],["\u0120tast","ed"],["\u0120mar","ble"],["\u0120roll","ed"],["\u0120pro","blem"],["\u0120pow","er"],["\u0120drag","on"],["\u0120mirr","or"],["\u0120gara","ge"],["D","ad"],["c","hes"],["t","ur"],["\u0120t","ape"],["\u0120b","one"],["\u0120b","ike"],["\u0120h","it"],["it","ch"],["\u0120l","ate"],["\u0120m","ummy"],["\u0120p","ir"],["\u0120p","urp"],["\u0120n","et"],["an","ce"],["oo","f"],["\u0120re","tur"],["ec","es"],["\u0120exc","iting"],["\u0120co","in"],["\u0120ad","m"],["\u0120che","w"],["\u0120cle","ver"],["\u0120watch","ing"],["\u0120dan","ce"],["\u0120pain","ter"],["\u0120del","ight"],["th","y"],["\u0120squ","ash"],["\u0120bel","ieve"],["\u0120fair","y"],["\u0120cut","e"],["\u0120min","ut"],["fort","able"],["\u0120plac","es"],["\u0120coll","ect"],["\u0120pi","eces"],["\u0120resp","ect"],["\u0120tin","y"],["\u0120hig","her"],["\u0120purp","le"],["M","y"],["c","es"],["i","pp"],["m","ing"],["\u0120w","itch"],["\u0120b","reat"],["\u0120l","ater"],["\u0120m","ind"],["\u0120m","ark"],["\u0120g","ho"],["\u0120The","ir"],["an","ny"],["\u0120r","ope"],["el","s"],["st","ing"],["\u0120li","ft"],["\u0120wh","is"],["\u0120re","ach"],["\u0120M","ummy"],["\u0120sp","ent"],["\u0120fe","et"],["\u0120help","ful"],["\u0120sc","re"],["\u0120bl","ow"],["\u0120who","le"],["\u0120sk","ip"],["\u0120ke","y"],["\u0120sun","ny"],["\u0120or","ange"],["\u0120show","ing"],["\u0120shin","ing"],["\u0120gl","ow"],["\u0120ac","c"],["\u0120ba","ld"],["\u0120song","s"],["\u0120To","gether"],["\u0120spot","ted"],["\u0120bus","y"],["\u0120sand","w"],["\u0120chick","ens"],["\u0120stre","et"],["\u0120pra","ct"],["\u0120luck","y"],["\u0120lem","on"],["\u0120vi","ol"],["\u0120gho","st"],["C","ome"],["L","ater"],["a","b"],["c","ient"],["g","round"],["i","x"],["i","er"],["m","er"],["z","or"],["\u0120a","v"],["\u0120a","dd"],["\u0120w","ings"],["\u0120wa","g"],["\u0120c","e"],["er","t"],["\u0120was","h"],["on","es"],["\u0120g","um"],["\u0120g","as"],["\u0120ha","ng"],["an","ut"],["\u0120o","b"],["\u0120H","ow"],["es","e"],["un","e"],["\u0120ne","ck"],["\u0120re","pe"],["\u0120an","g"],["\u0120an","cient"],["\u0120as","leep"],["\u0120sp","in"],["\u0120J","ake"],["\u0120no","ds"],["\u0120start","s"],["\u0120ro","b"],["\u0120tr","ou"],["ie","ld"],["\u0120sk","in"],["\u0120sw","ings"],["\u0120pe","bble"],["\u0120pe","anut"],["\u0120mo","d"],["\u0120ra","zor"],["\u0120rem","ind"],["\u0120cr","own"],["\u0120ow","ner"],["\u0120con","fused"],["\u0120stick","s"],["\u0120pretend","ed"],["\u0120rel","ax"],["ount","ain"],["\u0120smell","y"],["\u0120tast","e"],["\u0120might","y"],["air","s"],["\u0120farm","er"],["\u0120Fr","ank"],["\u0120shr","imp"],["\u0120inst","ead"],["\u0120spe","ed"],["\u0120gather","ed"],["\u0120Le","o"],["\u0120viol","in"],["B","e"],["B","ob"],["E","very"],["G","ood"],["b","ar"],["e","re"],["h","ile"],["n","am"],["o","ve"],["p","a"],["p","ill"],["r","ated"],["u","ll"],["w","ard"],["y","e"],["z","z"],["\u0120t","id"],["\u0120f","ur"],["\u0120f","urry"],["it","y"],["\u0120l","it"],["\u0120l","ad"],["er","pill"],["\u0120p","il"],["\u0120p","ig"],["\u0120p","our"],["\u0120p","ool"],["\u0120g","ames"],["id","ent"],["\u0120S","oon"],["or","d"],["\u0120th","ough"],["\u0120in","c"],["\u0120e","g"],["\u0120r","ound"],["\u0120st","ood"],["\u0120we","ll"],["\u0120li","fe"],["un","gle"],["\u0120sh","y"],["\u0120sh","ore"],["\u0120se","ed"],["\u0120j","ungle"],["\u0120kn","ocked"],["as","ing"],["\u0120W","ith"],["ag","er"],["\u0120mu","le"],["\u0120v","al"],["ia","ble"],["\u0120int","ere"],["\u0120any","one"],["\u0120or","nam"],["\u0120cat","erpill"],["\u0120te","ach"],["\u0120che","ese"],["\u0120G","o"],["\u0120tow","n"],["\u0120fr","own"],["\u0120fr","idge"],["\u0120cr","ane"],["\u0120stor","m"],["\u0120de","ad"],["\u0120blue","ber"],["\u0120ru","de"],["\u0120tell","s"],["\u0120fu","el"],["\u0120tou","ched"],["\u0120rain","b"],["\u0120rel","iable"],["\u0120mon","key"],["\u0120gi","ant"],["\u0120bow","l"],["\u0120forg","ive"],["\u0120sear","ched"],["\u0120tri","p"],["\u0120em","bar"],["\u0120es","cape"],["\u0120Fl","uffy"],["\u0120disapp","eared"],["\u0120pir","ate"],["\u0120tid","y"],["\u0120lad","der"],["\u0120ornam","ents"],["\u0120caterpill","ar"],["\u0120embar","ra"],["S","t"],["S","ue"],["S","orry"],["l","a"],["m","an"],["u","ce"],["\u0120","ig"],["\u0120s","ick"],["\u0120s","our"],["\u0120w","he"],["\u0120w","ish"],["\u0120b","lew"],["\u0120f","ield"],["\u0120c","ou"],["\u0120c","al"],["\u0120d","ist"],["\u0120he","al"],["\u0120p","ie"],["an","ger"],["ck","ed"],["\u0120in","v"],["\u0120e","ager"],["\u0120y","ach"],["\u0120r","ing"],["\u0120be","et"],["\u0120st","u"],["\u0120st","ar"],["\u0120day","s"],["\u0120play","ground"],["\u0120not","e"],["\u0120sp","o"],["\u0120j","et"],["\u0120j","our"],["\u0120br","ush"],["\u0120would","n"],["get","able"],["\u0120car","r"],["\u0120hug","e"],["\u0120exc","ite"],["\u0120co","vered"],["\u0120get","s"],["\u0120bec","ome"],["\u0120Every","where"],["\u0120sl","id"],["\u0120che","er"],["\u0120G","ary"],["\u0120love","ly"],["\u0120wait","ing"],["\u0120gre","w"],["\u0120near","by"],["\u0120dri","ve"],["\u0120ve","il"],["\u0120ve","getable"],["\u0120wear","ing"],["\u0120fight","ing"],["\u0120mat","ter"],["\u0120swim","ming"],["ul","t"],["ul","ar"],["\u0120poin","ted"],["\u0120spark","ly"],["\u0120cand","y"],["\u0120bott","le"],["\u0120des","k"],["\u0120Grand","ma"],["\u0120answ","er"],["\u0120myster","ious"],["\u0120scre","amed"],["\u0120ang","el"],["\u0120rob","ot"],["\u0120yach","t"],["\u0120jour","ney"],["\u0120excite","ment"],["\u0120vegetable","s"],["M","e"],["N","ow"],["W","here"],["c","il"],["g","u"],["n","ot"],["u","al"],["\u0120","ent"],["\u0120t","un"],["\u0120t","ick"],["\u0120t","ie"],["\u0120t","urt"],["\u0120t","aught"],["\u0120a","f"],["\u0120a","p"],["\u0120s","ur"],["\u0120w","ide"],["\u0120w","ise"],["\u0120w","ip"],["\u0120b","ored"],["re","ad"],["\u0120l","ine"],["\u0120c","her"],["\u0120c","ries"],["er","ry"],["\u0120p","in"],["\u0120p","ast"],["on","t"],["ar","l"],["ar","p"],["\u0120g","if"],["le","br"],["et","h"],["\u0120e","as"],["\u0120r","oof"],["\u0120st","ret"],["\u0120we","ather"],["\u0120li","ve"],["\u0120sh","arp"],["\u0120sp","read"],["\u0120lo","g"],["\u0120J","ames"],["ur","ed"],["\u0120can","not"],["\u0120le","gs"],["\u0120fe","ather"],["as","er"],["\u0120ro","ad"],["\u0120ro","se"],["\u0120car","ry"],["\u0120v","ine"],["\u0120tr","ust"],["ust","rated"],["us","hed"],["\u0120ho","pping"],["\u0120str","anger"],["\u0120po","le"],["and","y"],["\u0120mo","ving"],["\u0120small","er"],["\u0120pick","s"],["\u0120te","a"],["\u0120te","eth"],["\u0120com","fortable"],["\u0120bu","bble"],["\u0120gr","oup"],["\u0120hurt","s"],["\u0120fr","ont"],["\u0120dan","ced"],["\u0120thr","ow"],["\u0120lea","f"],["\u0120pen","cil"],["\u0120bright","ly"],["\u0120prin","ce"],["\u0120Jen","ny"],["\u0120met","al"],["\u0120snack","s"],["\u0120di","ary"],["\u0120cor","ner"],["epend","able"],["\u0120har","bor"],["\u0120acc","ident"],["\u0120ce","lebr"],["\u0120intere","sting"],["\u0120rainb","ow"],["\u0120embarra","ssed"],["\u0120cal","m"],["\u0120pie","ce"],["\u0120beet","le"],["\u0120turt","le"],["I","n"],["a","by"],["b","all"],["b","way"],["g","ly"],["h","ic"],["l","ate"],["n","ess"],["o","ld"],["p","ed"],["\u0120","O"],["\u0120s","er"],["\u0120s","el"],["\u0120w","is"],["\u0120w","ore"],["\u0120the","se"],["ed","ient"],["\u0120b","oring"],["\u0120h","on"],["\u0120h","ook"],["\u0120h","ipp"],["\u0120c","urt"],["\u0120m","oney"],["\u0120p","ar"],["\u0120p","ile"],["an","ic"],["le","t"],["ot","e"],["\u0120st","ir"],["\u0120st","amp"],["\u0120st","ones"],["ke","ep"],["\u0120we","ak"],["\u0120play","ful"],["ra","id"],["\u0120sp","icy"],["\u0120J","ust"],["ic","op"],["\u0120le","op"],["\u0120le","ak"],["\u0120hel","icop"],["\u0120fa","ces"],["\u0120str","ing"],["\u0120F","inally"],["\u0120mo","on"],["\u0120en","g"],["\u0120say","ing"],["ac","he"],["\u0120col","our"],["\u0120wr","ote"],["\u0120fr","ustrated"],["\u0120fore","ver"],["\u0120dan","cing"],["\u0120ru","ined"],["\u0120balloon","s"],["\u0120su","bway"],["\u0120un","i"],["\u0120pen","gu"],["co","late"],["\u0120fix","ed"],["\u0120ve","hic"],["\u0120hid","ing"],["\u0120tra","in"],["\u0120Gra","ce"],["\u0120craw","l"],["\u0120chick","en"],["\u0120bott","om"],["\u0120cho","colate"],["\u0120shop","keep"],["\u0120fan","cy"],["\u0120pudd","le"],["\u0120stand","ing"],["\u0120retur","ned"],["St","op"],["\u0120af","raid"],["\u0120sel","fish"],["\u0120hipp","o"],["\u0120curt","ain"],["\u0120leop","ard"],["\u0120helicop","ter"],["\u0120shopkeep","er"],["A","my"],["H","el"],["J","ust"],["J","ane"],["S","oon"],["T","o"],["g","y"],["t","i"],["\u0120","er"],["\u0120","On"],["in","ation"],["er","ous"],["\u0120d","est"],["\u0120p","ot"],["\u0120p","op"],["\u0120g","en"],["\u0120S","n"],["\u0120S","andy"],["or","s"],["\u0120th","in"],["ir","d"],["\u0120u","r"],["\u0120be","ars"],["ad","i"],["ent","ion"],["itt","er"],["\u0120A","nn"],["ill","age"],["\u0120J","im"],["?\"","."],["\u0120cl","ass"],["\u0120W","hy"],["\u0120sc","ream"],["\u0120co","at"],["\u0120mu","sh"],["\u0120v","ide"],["\u0120v","illage"],["\u0120pr","ot"],["\u0120tr","ade"],["ink","y"],["\u0120or","gan"],["\u0120pu","zz"],["ump","y"],["\u0120jump","ing"],["Sara","h"],["\u0120tow","el"],["\u0120su","itc"],["\u0120enjoy","ing"],["\u0120stick","ers"],["\u0120ac","cept"],["\u0120sound","ed"],["\u0120cook","ie"],["\u0120spl","as"],["\u0120land","ed"],["\u0120gent","ly"],["\u0120free","z"],["\u0120bath","room"],["bo","x"],["\u0120pass","port"],["\u0120att","ic"],["\u0120disco","ver"],["\u0120belong","ed"],["\u0120minut","es"],["\u0120mark","et"],["\u0120lemon","ade"],["\u0120pil","ot"],["\u0120tun","a"],["\u0120accident","ally"],["ache","l"],["Hel","p"],["\u0120gen","erous"],["\u0120mush","room"],["F","r"],["H","ow"],["J","ill"],["P","lease"],["c","c"],["e","b"],["f","ast"],["h","ie"],["i","ant"],["i","pping"],["t","en"],["u","b"],["u","ss"],["\u0120","'"],["\u0120","K"],["\u0120","No"],["\u0120a","w"],["\u0120w","ild"],["nd","ry"],["\u0120b","ought"],["\u0120b","and"],["\u0120b","itter"],["\u0120to","mor"],["\u0120l","au"],["\u0120l","amp"],["\u0120d","irt"],["\u0120m","id"],["\u0120m","ach"],["\u0120m","ask"],["\u0120p","ush"],["at","ure"],["\u0120n","est"],["\u0120sa","ng"],["an","ged"],["et","s"],["\u0120in","f"],["\u0120e","ars"],["\u0120y","aw"],["\u0120r","ushed"],["The","re"],["\u0120B","l"],["\u0120li","p"],["ch","anic"],["al","ous"],["\u0120M","um"],["ill","iant"],["\u0120ex","am"],["\u0120can","e"],["ic","hes"],["um","ber"],["\u0120cl","ap"],["\u0120cl","oth"],["\u0120le","g"],["\u0120me","chanic"],["op","hie"],["\u0120br","illiant"],["\u0120when","ever"],["\u0120E","lla"],["\u0120tr","ue"],["ie","f"],["\u0120sw","am"],["\u0120need","s"],["sel","ves"],["\u0120gl","ass"],["\u0120hard","er"],["He","re"],["\u0120bed","room"],["aught","er"],["\u0120pain","ted"],["\u0120ru","bb"],["\u0120ru","bbed"],["\u0120ask","ing"],["\u0120When","ever"],["\u0120sleep","ing"],["\u0120flo","at"],["\u0120thank","ful"],["\u0120underst","ood"],["\u0120sail","ed"],["\u0120break","fast"],["ol","og"],["\u0120poin","ting"],["\u0120duck","s"],["bo","ard"],["\u0120fruit","s"],["\u0120circ","les"],["\u0120je","alous"],["\u0120search","ing"],["\u0120treat","s"],["\u0120cra","b"],["\u0120peace","ful"],["\u0120wra","pped"],["\u0120cush","ion"],["\u0120fing","er"],["\u0120ph","one"],["\u0120foot","ball"],["\u0120gig","g"],["\u0120adm","ire"],["\u0120breat","h"],["\u0120sandw","iches"],["\u0120trou","ble"],["\u0120remind","ed"],["\u0120stu","dy"],["\u0120spo","ke"],["\u0120eng","ine"],["\u0120er","aser"],["\u0120prot","ect"],["\u0120suitc","ase"],["\u0120tomor","row"],["\u0120lau","ndry"],["\u0120mid","dle"],["L","ittle"],["S","ally"],["c","le"],["c","ope"],["h","arl"],["l","and"],["m","b"],["n","ic"],["p","eci"],["r","s"],["u","able"],["he","ad"],["\u0120a","ct"],["\u0120a","head"],["\u0120s","ings"],["\u0120s","ort"],["\u0120b","ake"],["\u0120b","ask"],["\u0120to","ast"],["in","es"],["in","ce"],["in","ess"],["in","oc"],["\u0120f","ake"],["\u0120f","ence"],["er","v"],["\u0120d","iz"],["\u0120d","aughter"],["\u0120m","ist"],["\u0120m","ama"],["\u0120p","a"],["ar","ge"],["\u0120g","ate"],["en","ry"],["\u0120th","umb"],["\u0120o","ce"],["oo","p"],["\u0120u","gly"],["\u0120I","s"],["\u0120be","es"],["\u0120st","ep"],["\u0120so","ld"],["\u0120we","ek"],["\u0120sh","ine"],["\u0120mom","s"],["\u0120tim","es"],["al","s"],["al","ed"],["\u0120re","c"],["\u0120M","y"],["\u0120as","h"],["\u0120j","ack"],["\u0120ex","t"],["\u0120le","ad"],["\u0120no","sy"],["\u0120kn","if"],["\u0120fe","ar"],["\u0120ch","ased"],["\u0120car","ried"],["\u0120fl","ut"],["\u0120fl","ag"],["\u0120fl","uffy"],["qu","e"],["\u0120your","s"],["\u0120tr","unk"],["us","ual"],["\u0120know","ing"],["\u0120mo","le"],["\u0120mo","der"],["\u0120expl","ored"],["\u0120en","v"],["\u0120show","s"],["\u0120te","ars"],["\u0120wo","lf"],["\u0120G","ive"],["\u0120gr","umpy"],["\u0120boat","s"],["\u0120fin","ish"],["\u0120lea","ving"],["\u0120pic","nic"],["\u0120un","usual"],["\u0120ar","row"],["\u0120tal","ked"],["\u0120bel","t"],["\u0120rock","et"],["\u0120gi","ving"],["\u0120jo","g"],["\u0120prin","t"],["\u0120sig","hed"],["\u0120mess","y"],["\u0120talk","ing"],["\u0120dr","ank"],["\u0120air","port"],["\u0120sail","or"],["\u0120pus","hing"],["\u0120craw","led"],["\u0120es","peci"],["\u0120pack","age"],["umb","led"],["\u0120circ","le"],["\u0120pol","ite"],["\u0120letter","s"],["ugg","led"],["\u0120wander","ed"],["\u0120butt","on"],["\u0120saf","ely"],["\u0120neck","l"],["\u0120repe","ats"],["\u0120val","uable"],["\u0120ig","n"],["\u0120ap","olog"],["\u0120par","ade"],["\u0120uni","que"],["\u0120pengu","in"],["\u0120freez","er"],["\u0120inf","ant"],["harl","ie"],["\u0120diz","zy"],["\u0120oce","an"],["\u0120knif","e"],["\u0120moder","n"],["\u0120especi","ally"],["M","um"],["a","f"],["c","age"],["d","ge"],["e","xt"],["f","ic"],["g","ing"],["g","est"],["i","ers"],["k","in"],["n","ger"],["p","ack"],["y","ing"],["z","ag"],["\u0120","OK"],["\u0120t","ent"],["\u0120t","ak"],["\u0120t","ied"],["\u0120t","ries"],["\u0120t","ask"],["\u0120s","ight"],["ed","i"],["\u0120b","or"],["\u0120h","ous"],["\u0120wa","ke"],["\u0120l","ast"],["\u0120l","arge"],["\u0120c","el"],["\u0120c","one"],["\u0120m","aybe"],["\u0120m","ix"],["\u0120p","ed"],["\u0120p","le"],["\u0120p","ale"],["il","t"],["il","ty"],["en","se"],["en","ise"],["at","ely"],["\u0120n","erv"],["\u0120ha","nger"],["\u0120S","ophie"],["\u0120sa","ve"],["\u0120sa","ving"],["an","o"],["an","gle"],["ver","s"],["ck","s"],["ow","y"],["\u0120e","art"],["\u0120r","ug"],["\u0120r","ake"],["\u0120r","are"],["\u0120r","ice"],["ig","zag"],["\u0120st","ream"],["\u0120st","umbled"],["\u0120pl","ate"],["ri","or"],["\u0120on","ce"],["st","airs"],["\u0120sh","ake"],["\u0120is","land"],["ug","ar"],["al","k"],["\u0120big","gest"],["\u0120se","at"],["\u0120bo","ss"],["\u0120go","al"],["\u0120sp","end"],["\u0120sp","ill"],["\u0120j","ell"],["\u0120ex","per"],["ic","er"],["\u0120le","ash"],["\u0120no","d"],["\u0120hel","m"],["\u0120me","ant"],["\u0120me","mor"],["\u0120br","idge"],["\u0120W","hile"],["\u0120sc","r"],["\u0120wor","d"],["\u0120ch","air"],["\u0120ch","asing"],["ag","es"],["\u0120E","ven"],["\u0120mu","d"],["\u0120bird","cage"],["\u0120dec","ide"],["\u0120your","self"],["\u0120D","on"],["\u0120find","ing"],["\u0120sk","ipped"],["\u0120box","es"],["pt","y"],["\u0120dre","w"],["\u0120cu","be"],["\u0120kind","s"],["\u0120bu","ilt"],["\u0120fam","ous"],["\u0120ru","bs"],["\u0120mag","n"],["\u0120dif","fic"],["\u0120use","ful"],["\u0120P","olly"],["\u0120P","lease"],["Jo","e"],["\u0120Joe","y"],["\u0120light","s"],["\u0120sho","ot"],["\u0120smell","ed"],["\u0120tast","y"],["\u0120laugh","s"],["\u0120dr","op"],["\u0120read","ing"],["\u0120tra","p"],["\u0120ri","ch"],["\u0120bag","s"],["\u0120delic","ate"],["\u0120grand","pa"],["\u0120R","achel"],["\u0120creat","ive"],["\u0120z","oo"],["\u0120wall","s"],["\u0120hun","g"],["\u0120blanket","s"],["\u0120To","day"],["\u0120tri","angle"],["\u0120tight","ly"],["\u0120pro","v"],["\u0120Be","ep"],["\u0120gu","ilty"],["\u0120em","pty"],["\u0120war","rior"],["\u0120pack","ed"],["\u0120happen","ing"],["\u0120cush","ions"],["oc","ad"],["\u0120boun","ce"],["\u0120butt","ons"],["\u0120av","ocad"],["\u0120ob","edient"],["\u0120blueber","ries"],["\u0120cou","ch"],["\u0120cher","ry"],["\u0120feather","s"],["\u0120bubble","s"],["\u0120wis","hes"],["\u0120vehic","le"],["\u0120bask","et"],["\u0120sold","iers"],["\u0120rec","ord"],["\u0120ext","ra"],["\u0120neckl","ace"],["\u0120tak","en"],["\u0120hous","es"],["\u0120cel","ery"],["\u0120nerv","ous"],["\u0120eart","h"],["\u0120jell","y"],["\u0120diffic","ult"],["G","ive"],["I","f"],["a","e"],["b","aby"],["d","ed"],["d","en"],["e","ked"],["g","n"],["g","ust"],["h","inoc"],["n","ie"],["p","ar"],["p","ered"],["t","ti"],["v","as"],["\u0120","ed"],["\u0120","ind"],["he","tti"],["\u0120t","ank"],["\u0120s","ugar"],["\u0120b","al"],["\u0120b","ur"],["\u0120to","ug"],["in","al"],["in","nie"],["\u0120h","ay"],["\u0120h","urry"],["\u0120l","a"],["\u0120l","ed"],["\u0120l","ying"],["\u0120c","ards"],["er","a"],["er","os"],["\u0120d","ig"],["\u0120d","ull"],["\u0120m","ountain"],["\u0120p","ump"],["\u0120T","r"],["\u0120T","ed"],["\u0120T","eddy"],["ay","ak"],["ar","i"],["at","ter"],["\u0120it","ch"],["\u0120r","hinoc"],["ig","inal"],["\u0120st","ack"],["\u0120she","l"],["ve","l"],["\u0120of","ten"],["\u0120we","ird"],["The","se"],["\u0120B","inky"],["\u0120sh","one"],["\u0120sh","ocked"],["\u0120happ","ens"],["\u0120do","ve"],["\u0120k","ayak"],["\u0120re","co"],["\u0120se","par"],["!\"","."],["\u0120A","re"],["\u0120sp","ag"],["\u0120J","une"],["\u0120can","vas"],["um","mer"],["\u0120cl","um"],["\u0120W","here"],["\u0120sc","ar"],["\u0120ch","ase"],["\u0120E","nd"],["ro","y"],["\u0120excited","ly"],["\u0120v","est"],["our","ite"],["\u0120dog","s"],["\u0120find","s"],["\u0120old","er"],["\u0120pe","eked"],["\u0120po","or"],["\u0120tw","ig"],["\u0120qu","est"],["\u0120or","iginal"],["\u0120walk","s"],["\u0120nice","ly"],["\u0120call","ing"],["\u0120us","ing"],["\u0120de","er"],["\u0120dis","gust"],["\u0120follow","s"],["\u0120un","l"],["\u0120fav","ourite"],["\u0120open","s"],["\u0120dri","ving"],["\u0120pre","p"],["\u0120hid","den"],["\u0120tra","sh"],["\u0120ri","bb"],["\u0120grand","baby"],["\u0120tall","er"],["\u0120mar","ried"],["\u0120hair","y"],["ol","a"],["\u0120perf","orm"],["\u0120Em","ily"],["\u0120count","ed"],["\u0120set","t"],["\u0120bus","hes"],["\u0120plant","s"],["\u0120cho","se"],["\u0120disco","vered"],["\u0120treasure","s"],["\u0120bar","ked"],["\u0120meet","ing"],["\u0120imag","ined"],["\u0120fing","ers"],["\u0120ph","ot"],["\u0120twist","ed"],["\u0120sol","ve"],["\u0120power","ful"],["\u0120delight","ed"],["\u0120whis","per"],["\u0120whis","pered"],["ab","el"],["\u0120wag","on"],["\u0120mod","el"],["\u0120eg","gs"],["la","ire"],["\u0120heal","thy"],["\u0120slid","es"],["\u0120cheer","ful"],["\u0120gif","t"],["\u0120celebr","ate"],["\u0120ser","ious"],["\u0120colour","ful"],["\u0120curtain","s"],["\u0120dest","roy"],["\u0120Sn","owy"],["\u0120vide","o"],["\u0120puzz","le"],["\u0120splas","hed"],["uss","el"],["\u0120gigg","led"],["\u0120sort","s"],["\u0120env","ious"],["\u0120magn","et"],["\u0120jelly","fish"],["\u0120toug","h"],["\u0120rhinoc","eros"],["\u0120reco","gn"],["\u0120spag","hetti"],["\"",","],["W","ell"],["W","ho"],["a","pping"],["g","ular"],["h","ood"],["i","ver"],["i","ence"],["l","u"],["l","id"],["m","m"],["o","e"],["t","or"],["z","ed"],["\u0120","\u00e2\u0122"],["\u0120","icy"],["\u0120s","ir"],["\u0120s","ink"],["\u0120s","ummer"],["\u0120w","om"],["ed","ic"],["\u0120b","ent"],["\u0120b","ark"],["in","ked"],["\u0120h","um"],["re","ady"],["re","sh"],["\u0120f","is"],["\u0120f","our"],["\u0120f","ountain"],["\u0120f","resh"],["it","al"],["it","ive"],["\u0120l","id"],["\u0120l","aw"],["\u0120c","art"],["\u0120c","op"],["\u0120c","ase"],["er","i"],["er","ly"],["\u0120d","ust"],["\u0120d","eter"],["\u0120d","ependable"],["\u0120m","ot"],["\u0120m","edic"],["\u0120p","aw"],["\u0120n","ature"],["\u0120n","umber"],["\u0120sa","l"],["\u0120sa","uce"],["an","s"],["ll","s"],["\u0120th","ick"],["\u0120o","ven"],["\u0120o","ct"],["\u0120o","bs"],["\u0120r","adi"],["ig","ent"],["ig","hed"],["\u0120be","ep"],["\u0120st","able"],["am","ber"],["\u0120pl","ast"],["\u0120we","ight"],["\u0120we","ighed"],["The","ir"],["\u0120B","r"],["\u0120for","ward"],["\u0120sh","ort"],["\u0120wh","ist"],["\u0120re","ve"],["\u0120re","gular"],["\u0120them","selves"],["\u0120lo","se"],["\u0120le","an"],["\u0120me","asure"],["ong","o"],["op","us"],["op","hy"],["\u0120al","ready"],["\u0120fa","ctor"],["\u0120ag","ree"],["\u0120sc","are"],["\u0120ch","ange"],["\u0120ch","anged"],["\u0120ch","amber"],["\u0120L","ul"],["\u0120bl","inked"],["ell","igent"],["\u0120E","ventually"],["est","ed"],["\u0120ab","ove"],["\u0120D","anny"],["\u0120D","enise"],["\u0120tr","ophy"],["us","ie"],["\u0120gra","ce"],["\u0120ho","sp"],["\u0120ho","lid"],["\u0120sk","irt"],["\u0120int","elligent"],["\u0120lear","ning"],["\u0120qu","it"],["\u0120en","orm"],["au","l"],["\u0120Jo","y"],["\u0120need","le"],["Ben","ny"],["\u0120way","s"],["\u0120clos","et"],["\u0120jump","s"],["\u0120G","r"],["\u0120sn","ee"],["\u0120sn","uggled"],["\u0120gr","own"],["\u0120now","here"],["\u0120loud","ly"],["\u0120ey","e"],["\u0120de","af"],["\u0120ru","b"],["\u0120su","pp"],["\u0120tur","key"],["\u0120sweet","ie"],["\u0120ar","g"],["\u0120stick","er"],["\u0120squ","are"],["\u0120flo","ated"],["\u0120stop","s"],["\u0120jo","ined"],["\u0120ju","icy"],["\u0120plan","es"],["\u0120R","ussel"],["\u0120break","s"],["\u0120z","ip"],["\u0120z","eb"],["\u0120count","ing"],["\u0120fall","s"],["\u0120Be","ar"],["\u0120comp","ut"],["\u0120smo","ke"],["\u0120cand","le"],["\u0120build","ing"],["\u0120neigh","b"],["\u0120disco","very"],["\u0120gu","ard"],["\u0120bar","n"],["\u0120war","ned"],["\u0120kiss","ed"],["\u0120pol","ish"],["\u0120cra","sh"],["\u0120rid","ing"],["\u0120imp","re"],["\u0120imp","ro"],["og","a"],["\u0120gig","gle"],["\u0120spr","ay"],["\u0120chew","ed"],["\u0120gas","ped"],["\u0120mod","est"],["ye","ar"],["\u0120inc","lu"],["\u0120whe","el"],["\u0120carr","ots"],["\u0120past","ry"],["\u0120hon","est"],["\u0120yaw","ned"],["\u0120Bl","oom"],["\u0120Is","abel"],["\u0120jack","et"],["\u0120bor","row"],["\u0120boss","y"],["\u0120shoot","ing"],["\u0120ed","ge"],["\u0120la","zy"],["\u0120pump","kin"],["\u0120clum","sy"],["\u0120scar","f"],["\u0120twig","s"],["\u0120phot","o"],["\u0120wom","an"],["\u0120deter","m"],["\u0120medic","ine"],["\u0120oct","opus"],["\u0120radi","o"],["\u0120plast","ic"],["\u0120factor","y"],["\u0120Lul","u"],["\u0120hosp","ital"],["\u0120holid","ay"],["\u0120enorm","ous"],["\u0120zeb","ra"],["O","w"],["Y","uck"],["Z","igzag"],["a","ppy"],["a","ze"],["b","ers"],["b","led"],["c","cept"],["c","ense"],["h","ip"],["k","ing"],["l","b"],["m","unk"],["o","in"],["o","ppy"],["s","es"],["u","es"],["w","ards"],["y","er"],["he","art"],["\u0120t","er"],["\u0120t","en"],["\u0120t","ug"],["\u0120a","dded"],["\u0120s","il"],["\u0120s","ize"],["\u0120b","ump"],["\u0120b","ase"],["in","ing"],["\u0120h","oney"],["\u0120h","oop"],["\u0120wa","ist"],["\u0120wa","ves"],["\u0120f","il"],["\u0120f","ine"],["\u0120f","ool"],["\u0120l","ay"],["\u0120l","ow"],["\u0120d","ug"],["\u0120he","dge"],["\u0120m","ay"],["\u0120m","is"],["\u0120m","ug"],["\u0120m","ention"],["\u0120p","it"],["\u0120n","ail"],["im","ed"],["\u0120it","self"],["\u0120H","enry"],["et","e"],["ck","y"],["\u0120e","ld"],["\u0120y","et"],["\u0120y","oga"],["\u0120I","f"],["\u0120be","g"],["\u0120be","ak"],["\u0120st","uff"],["ke","let"],["\u0120so","ck"],["\u0120we","al"],["\u0120B","ongo"],["\u0120li","cense"],["ch","ing"],["un","es"],["\u0120sh","ark"],["\u0120sh","akes"],["\u0120sh","aring"],["\u0120k","ing"],["\u0120re","f"],["\u0120re","s"],["\u0120re","ce"],["\u0120re","qu"],["\u0120re","ac"],["\u0120M","an"],["\u0120M","eri"],["\u0120A","l"],["\u0120A","li"],["\u0120A","ccept"],["\u0120sp","it"],["\u0120sp","ade"],["ill","ie"],["\u0120ex","p"],["ur","ous"],["\u0120fe","ed"],["\u0120man","ag"],["\u0120help","s"],["\u0120al","ert"],["\u0120wor","ries"],["\u0120ch","oo"],["\u0120ch","ip"],["\u0120ch","alk"],["\u0120bl","oom"],["\u0120fl","ame"],["\u0120fl","our"],["\u0120fl","ies"],["\u0120again","st"],["\u0120sad","ly"],["\u0120v","an"],["\u0120v","ie"],["\u0120v","ase"],["\u0120pr","unes"],["\u0120tr","ay"],["\u0120gra","bs"],["ap","a"],["\u0120know","s"],["\u0120F","urry"],["\u0120po","pped"],["\u0120tw","eet"],["\u0120expl","ain"],["oon","s"],["\u0120sl","ipped"],["\u0120or","d"],["\u0120pick","ing"],["\u0120che","ck"],["\u0120gl","ue"],["\u0120gl","ove"],["\u0120advent","urous"],["\u0120C","laire"],["iz","es"],["\u0120bu","lb"],["ail","able"],["\u0120wind","ows"],["\u0120thr","ows"],["\u0120work","ing"],["\u0120head","s"],["\u0120does","n"],["\u0120real","ised"],["\u0120remem","bers"],["\u0120sweet","heart"],["\u0120yell","ed"],["\u0120un","ite"],["\u0120P","eter"],["\u0120brother","s"],["\u0120gi","ven"],["\u0120bow","s"],["\u0120jo","ke"],["\u0120thank","s"],["\u0120cont","ent"],["\u0120smell","s"],["\u0120draw","ings"],["\u0120plan","et"],["\u0120bran","ches"],["\u0120count","er"],["\u0120sand","box"],["\u0120poin","t"],["bo","dy"],["\u0120cand","les"],["\u0120craw","ling"],["\u0120gem","s"],["\u0120pow","der"],["\u0120des","ig"],["\u0120je","w"],["\u0120je","ep"],["\u0120Fl","oppy"],["\u0120cor","n"],["epend","ent"],["\u0120imag","ination"],["\u0120har","m"],["\u0120boun","cy"],["\u0120kick","ed"],["\u0120collect","ing"],["\u0120lift","ed"],["\u0120glow","ing"],["\u0120pract","ice"],["\u0120pract","iced"],["\u0120av","ailable"],["\u0120eg","g"],["\u0120inv","ited"],["\u0120carr","ot"],["\u0120ent","ered"],["\u0120eas","y"],["\u0120pop","ular"],["\u0120mach","ine"],["\u0120rubb","ing"],["\u0120flut","e"],["\u0120ple","ased"],["\u0120helm","et"],["\u0120prov","ide"],["\u0120avocad","o"],["\u0120ind","ependent"],["\u0120disgust","ing"],["\u0120\u00e2\u0122","\u0135"],["\u0120law","yer"],["\u0120obs","er"],["\u0120Gr","anny"],["\u0120determ","ined"],["oin","ted"],["\u0120sil","ver"],["\u0120eld","erly"],["kelet","on"],["\u0120Accept","or"],["\u0120manag","ed"],["\u0120chip","munk"],["\u0120vie","w"],["D","aisy"],["E","m"],["J","im"],["M","ary"],["M","mm"],["P","eter"],["S","h"],["W","hile"],["a","ur"],["c","ise"],["e","a"],["e","ar"],["f","a"],["h","ive"],["j","ect"],["m","o"],["n","s"],["n","it"],["r","n"],["r","ise"],["t","ion"],["v","ice"],["w","eet"],["z","en"],["\u0120t","ummy"],["\u0120s","ent"],["\u0120s","end"],["\u0120s","ip"],["\u0120b","et"],["\u0120b","erry"],["\u0120to","rn"],["in","a"],["re","nder"],["re","lla"],["\u0120wa","gs"],["\u0120f","ather"],["\u0120f","rag"],["it","a"],["\u0120l","ily"],["\u0120c","ri"],["\u0120c","udd"],["\u0120c","ab"],["\u0120p","ay"],["\u0120p","an"],["\u0120p","ages"],["at","ch"],["at","ue"],["\u0120n","ames"],["\u0120n","orm"],["\u0120n","urse"],["\u0120ha","lf"],["\u0120S","usie"],["\u0120sa","ved"],["im","i"],["\u0120th","irst"],["\u0120th","ief"],["et","itive"],["ow","ed"],["\u0120e","qu"],["\u0120u","mb"],["\u0120be","am"],["\u0120st","raw"],["\u0120st","airs"],["\u0120st","atue"],["\u0120she","lf"],["\u0120so","ar"],["\u0120so","fa"],["ri","ble"],["ad","ows"],["\u0120we","igh"],["\u0120li","qu"],["\u0120li","ons"],["\u0120li","cked"],["\u0120for","th"],["\u0120sh","aking"],["ug","gle"],["riend","s"],["\u0120re","fused"],["\u0120M","ae"],["\u0120M","illie"],["\u0120M","imi"],["\u0120se","co"],["ore","s"],["ec","ause"],["\u0120J","erry"],["\u0120ex","er"],["ic","ia"],["\u0120cl","ay"],["\u0120cl","apping"],["\u0120help","less"],["\u0120some","where"],["\u0120boy","s"],["\u0120al","mo"],["\u0120W","ill"],["\u0120start","ing"],["\u0120sc","iss"],["\u0120ch","at"],["\u0120ch","ir"],["\u0120bl","ows"],["\u0120exc","la"],["\u0120co","ver"],["ook","ing"],["ro","d"],["\u0120my","self"],["\u0120D","ependable"],["\u0120ho","se"],["ist","en"],["\u0120int","rod"],["\u0120F","in"],["\u0120F","riends"],["\u0120any","where"],["\u0120sun","set"],["\u0120sun","rise"],["\u0120Jack","y"],["\u0120op","era"],["\u0120or","ang"],["\u0120en","er"],["\u0120ad","vice"],["\u0120te","les"],["\u0120ra","ft"],["\u0120ra","ced"],["\u0120cu","ps"],["\u0120C","harlie"],["\u0120gr","ay"],["\u0120loud","er"],["\u0120rem","ain"],["ect","ed"],["\u0120tow","ers"],["ip","ment"],["ct","ive"],["\u0120think","ing"],["\u0120su","per"],["\u0120sto","ve"],["\u0120ar","t"],["\u0120beh","ave"],["\u0120pull","s"],["ng","th"],["\u0120app","ro"],["\u0120pretend","ing"],["\u0120P","ete"],["\u0120P","apa"],["\u0120bel","ow"],["\u0120sig","ned"],["\u0120mess","age"],["\u0120bre","ad"],["\u0120fro","zen"],["\u0120hold","s"],["\u0120cool","er"],["\u0120dream","ing"],["\u0120z","oom"],["\u0120spl","it"],["\u0120bee","f"],["\u0120bee","hive"],["\u0120Em","my"],["\u0120land","s"],["\u0120quiet","ly"],["\u0120Be","cky"],["\u0120paint","ings"],["\u0120comp","etitive"],["os","ity"],["\u0120pass","ed"],["\u0120gu","ess"],["\u0120bar","rel"],["\u0120fold","ed"],["\u0120cup","board"],["\u0120lock","ed"],["up","id"],["\u0120stre","ngth"],["\u0120plac","ed"],["\u0120rid","dle"],["\u0120disapp","ointed"],["\u0120Grand","pa"],["\u0120answ","ered"],["\u0120crack","er"],["\u0120ear","ly"],["\u0120pill","ows"],["\u0120pudd","les"],["Dad","dy"],["\u0120minut","e"],["\u0120sandw","ich"],["ix","ie"],["\u0120ob","ject"],["\u0120repe","at"],["\u0120spin","ning"],["\u0120fur","nit"],["\u0120frown","ed"],["\u0120blueber","ry"],["\u0120whe","els"],["\u0120dist","ant"],["\u0120tick","et"],["\u0120wip","ed"],["\u0120stret","ch"],["\u0120stret","ched"],["\u0120stir","s"],["\u0120discover","ing"],["Fr","ank"],["\u0120exam","ine"],["\u0120mist","ake"],["\u0120fear","ful"],["\u0120mix","ed"],["\u0120memor","ies"],["\u0120Tr","ue"],["\u0120separ","ated"],["\u0120quest","ions"],["\u0120recogn","ized"],["tor","y"],["\u0120bark","s"],["\u0120hum","ble"],["\u0120cart","oons"],["\u0120mot","or"],["\u0120comput","er"],["\u0120neighb","our"],["\u0120impre","ssed"],["\u0120fool","ish"],["\u0120requ","est"],["\u0120obser","ve"],["\u0120frag","ile"],["\u0120cri","b"],["\u0120cab","in"],["\u0120norm","al"],["\u0120thirst","y"],["\u0120equ","ipment"],["\u0120umb","rella"],["\u0120straw","ber"],["\u0120liqu","id"],["\u0120seco","nd"],["\u0120almo","st"],["\u0120sciss","ors"],["\u0120excla","imed"],["\u0120orang","es"],["\u0120teles","cope"],["\u0120furnit","ure"],["'","."],["A","re"],["B","illy"],["B","ye"],["E","ventually"],["I","s"],["J","en"],["J","ames"],["O","u"],["U","n"],["Y","ay"],["a","cy"],["b","ug"],["f","s"],["f","it"],["l","p"],["l","v"],["l","er"],["l","oo"],["l","ies"],["m","mer"],["s","it"],["w","een"],["z","ard"],["\u0120","\u010a"],["\u0120","Zigzag"],["\u0120a","ch"],["\u0120a","nts"],["\u0120s","y"],["\u0120s","imp"],["\u0120s","ugg"],["\u0120s","ince"],["\u0120b","an"],["\u0120b","ree"],["\u0120b","icy"],["\u0120h","ut"],["\u0120h","ars"],["\u0120wa","nd"],["\u0120wa","ve"],["\u0120wa","ving"],["\u0120l","end"],["\u0120l","ines"],["\u0120c","ross"],["er","able"],["\u0120d","em"],["\u0120m","ic"],["\u0120m","ap"],["\u0120m","aze"],["\u0120p","ri"],["\u0120p","ad"],["om","ed"],["on","y"],["ing","er"],["\u0120g","un"],["id","ers"],["at","es"],["at","ched"],["at","ient"],["\u0120n","icer"],["\u0120ha","mmer"],["\u0120S","t"],["\u0120S","ee"],["or","a"],["or","ge"],["\u0120o","li"],["\u0120He","lp"],["\u0120her","b"],["ir","it"],["\u0120r","ough"],["\u0120be","ans"],["\u0120st","upid"],["\u0120his","tory"],["\u0120we","ep"],["\u0120play","s"],["\u0120up","stairs"],["\u0120had","n"],["\u0120li","zard"],["\u0120for","t"],["ch","or"],["un","ately"],["\u0120sh","ut"],["\u0120sh","ape"],["\u0120sh","adow"],["\u0120sh","adows"],["itt","ens"],["\u0120do","ves"],["\u0120M","rs"],["\u0120M","ittens"],["\u0120se","ll"],["\u0120an","chor"],["\u0120bo","dy"],["ra","ge"],["\u0120A","t"],["\u0120sp","un"],["\u0120sp","ong"],["\u0120sp","ace"],["\u0120j","ug"],["ind","a"],["ind","y"],["\u0120ex","it"],["ic","es"],["\u0120friends","hip"],["\u0120back","pack"],["\u0120cl","ick"],["\u0120no","dd"],["\u0120kn","own"],["\u00e2\u0122","\u0136"],["\u0120br","ings"],["as","ured"],["\u0120sc","atter"],["\u0120ro","ared"],["\u0120You","r"],["\u0120ch","ance"],["\u0120L","illy"],["\u0120L","ee"],["\u0120L","ola"],["\u0120L","acy"],["\u0120E","ach"],["\u0120mu","ff"],["\u0120feel","ings"],["\u0120every","day"],["if","orm"],["\u0120dec","or"],["\u0120v","room"],["pl","ay"],["\u0120decid","es"],["\u0120dog","gy"],["\u0120sk","ill"],["\u0120sk","ull"],["\u0120sk","ipping"],["\u0120pe","ek"],["\u0120lear","nt"],["\u0120tw","irl"],["\u0120qu","ite"],["\u0120clo","ck"],["\u0120clo","sel"],["\u0120proud","ly"],["\u0120hand","ed"],["\u0120hand","le"],["\u0120te","asing"],["\u0120off","er"],["\u0120off","ered"],["\u00e2\u0122\u013f","."],["\u0120ra","cc"],["\u0120dre","amed"],["\u0120fast","est"],["\u0120che","cked"],["\u0120gl","oom"],["\u0120beaut","y"],["\u0120kind","ness"],["\u0120bu","ry"],["\u0120bu","ried"],["\u0120G","ina"],["\u0120cle","ar"],["\u0120cry","st"],["\u0120should","er"],["\u0120fr","ame"],["\u0120cr","unch"],["ip","s"],["ct","ion"],["\u0120climb","ing"],["\u0120vo","lc"],["\u0120su","c"],["\u0120mean","s"],["\u0120dis","play"],["\u0120del","iver"],["\u0120curi","osity"],["\u0120N","ext"],["\u0120clean","ing"],["\u0120un","iform"],["\u0120squ","ee"],["\u0120app","ear"],["\u0120lady","bug"],["\u0120P","aul"],["\u0120hop","ing"],["\u0120Let","icia"],["\u0120butterf","lies"],["\u0120ve","lv"],["\u0120hid","er"],["\u0120tra","vel"],["\u0120fro","gs"],["ens","ive"],["\u0120draw","ing"],["\u0120fire","man"],["\u0120R","ed"],["\u0120creat","e"],["\u0120mar","ry"],["\u0120z","ipping"],["\u0120rest","ed"],["\u0120vis","ited"],["\u0120swim","s"],["\u0120din","os"],["\u0120pap","ers"],["\u0120pat","ch"],["\u0120pat","ter"],["\u0120grow","ing"],["\u0120swing","ing"],["\u0120att","ra"],["\u0120mail","man"],["\u0120mail","box"],["\u0120present","s"],["\u0120Fr","eddy"],["\u0120fold","er"],["\u0120pol","ice"],["\u0120belong","s"],["\u0120coll","ar"],["li","ver"],["\u0120miss","ed"],["\u0120imp","atient"],["\u0120crack","ers"],["\u0120match","ing"],["And","y"],["\u0120saf","er"],["\u0120sol","ved"],["\u0120seek","er"],["\u0120adm","ired"],["\u0120hang","ing"],["\u0120trou","bled"],["\u0120relax","ed"],["\u0120seed","s"],["\u0120cou","rage"],["\u0120ring","ing"],["\u0120sur","render"],["\u0120gif","ted"],["\u0120eas","ier"],["To","day"],["\u0120ur","ged"],["\u0120organ","ize"],["\u0120K","ate"],["\u0120ash","amed"],["\u0120ped","al"],["\u0120prep","are"],["\u0120ribb","ons"],["\u0120destroy","ed"],["\u0120fis","hing"],["\u0120sal","ad"],["\u0120Br","own"],["\u0120whist","le"],["\u0120reve","aled"],["\u0120grace","ful"],["\u0120ter","rible"],["\u0120mis","erable"],["\u0120weal","thy"],["\u0120reac","hes"],["\u0120exp","ensive"],["\u0120choo","se"],["\u0120jew","els"],["\u0120bet","ween"],["\u0120exer","cise"],["\u0120ener","gy"],["\u0120art","ist"],["Jen","ny"],["Ou","ch"],["\u0120simp","le"],["\u0120ban","an"],["\u0120bree","ze"],["\u0120hars","h"],["\u0120oli","ves"],["\u0120spong","e"],["\u0120nodd","ing"],["\u0120closel","y"],["\u0120racc","oon"],["\u0120gloom","y"],["\u0120volc","ano"],["\u0120velv","et"],["A","ll"],["B","ecause"],["C","harlie"],["E","lla"],["G","o"],["L","e"],["M","ama"],["N","ext"],["O","r"],["S","ee"],["Y","ea"],["a","id"],["a","ven"],["b","ur"],["c","er"],["c","om"],["c","ut"],["c","ast"],["c","les"],["c","ious"],["d","ad"]],"type":"BPE","unk_token":"<unk>","vocab":{"!":1,"!\"":429,"!\".":3101,"!\u00e2\u0122\u013f":1295,"\"":2,"\",":3192,"\".":1462,"#":3,"$":4,"%":5,"&":6,"'":7,"'.":3810,"'d":2042,"'ll":1595,"'m":813,"'re":1272,"'s":372,"'t":425,"(":8,")":9,"*":10,"+":11,",":12,",\"":504,"-":13,".":14,".\"":404,".\u00e2\u0122\u013f":1408,"/":15,"0":16,"1":17,"2":18,"3":19,"4":20,"5":21,"6":22,"7":23,"8":24,"9":25,":":26,";":27,"<":28,"<unk>":0,"=":29,">":30,"?":31,"?\"":482,"?\".":2604,"?\u00e2\u0122\u013f":1858,"@":32,"A":33,"After":1358,"All":4075,"Amy":2575,"And":2003,"Andy":4021,"Anna":1038,"Are":3811,"As":1714,"At":1577,"B":34,"Be":2244,"Because":4076,"Ben":828,"Benny":3299,"Billy":3812,"Bob":2245,"But":704,"Bye":3813,"C":35,"Can":1257,"Charlie":4077,"Come":2181,"D":36,"Dad":2095,"Daddy":3755,"Daisy":3578,"Do":1774,"Don":1296,"E":37,"Ella":4078,"Em":3579,"Eventually":3814,"Every":2246,"F":38,"Finally":2004,"Fr":2647,"Frank":3773,"From":1494,"G":39,"Give":3041,"Go":4079,"Good":2247,"H":40,"He":914,"Hel":2576,"Hell":1258,"Hello":1271,"Help":2644,"Her":1249,"Here":2712,"Hey":1995,"Hi":1651,"His":1553,"How":2648,"I":41,"If":3042,"In":2494,"Is":3815,"It":881,"J":42,"Jack":1297,"James":3817,"Jane":2578,"Jen":3816,"Jenny":4061,"Jill":2649,"Jim":3580,"Jimmy":1932,"Jo":1186,"Joe":2986,"John":1330,"Just":2577,"K":43,"L":44,"Later":2182,"Le":4080,"Let":890,"Lila":1652,"Lily":355,"Little":2757,"Look":1159,"Lucy":1677,"M":45,"Mama":4081,"Mary":3581,"Max":2043,"Maybe":1463,"Me":2404,"Mia":1896,"Mmm":3582,"Molly":1678,"Mom":774,"Mommy":1286,"Mum":2879,"Mummy":1801,"My":2135,"N":46,"Next":4082,"No":886,"Now":2405,"O":47,"OK":1487,"Of":2005,"Oh":1554,"Okay":1802,"On":354,"Once":443,"One":434,"Or":4083,"Ou":3818,"Ouch":4062,"Ow":3383,"P":48,"Peter":3583,"Please":2650,"Q":49,"R":50,"S":51,"Sally":2758,"Sam":1538,"Sara":945,"Sarah":2619,"See":4084,"Sh":3584,"She":1150,"So":1108,"Soon":2579,"Sorry":2332,"St":2330,"Stop":2567,"Suddenly":1039,"Sue":2331,"Sure":1696,"T":52,"Th":874,"Thank":1122,"That":960,"The":361,"Their":3257,"Then":1431,"There":2686,"These":3092,"They":615,"This":1502,"Tim":1464,"Timmy":1495,"To":2580,"Today":4035,"Tom":782,"Tommy":2085,"U":53,"Un":3819,"V":54,"W":55,"We":1208,"Well":3193,"What":975,"When":950,"Where":2406,"While":3585,"Who":3194,"Why":1832,"Wow":1298,"X":56,"Y":57,"Yay":3820,"Yea":4085,"Yes":875,"You":484,"Yuck":3384,"Z":58,"Zigzag":3385,"[":59,"\\":60,"]":61,"^":62,"_":63,"`":64,"a":65,"ab":2183,"abel":3164,"able":804,"aby":2495,"ac":882,"ace":724,"ach":595,"ache":2541,"ached":1242,"achel":2643,"ack":389,"acy":3821,"ad":348,"ade":526,"adi":2598,"adow":1728,"adows":3646,"ady":788,"ae":3043,"af":2880,"ag":553,"age":1137,"ager":2290,"ages":2964,"aid":4086,"ail":891,"ailable":3504,"ain":456,"ained":1641,"air":1465,"airs":2235,"aisy":1160,"ak":564,"ake":421,"akes":970,"aking":1020,"al":405,"ale":1897,"aled":2804,"alk":2943,"all":390,"ally":629,"alous":2690,"als":2803,"am":343,"ama":2070,"amber":3253,"ame":491,"amed":535,"ames":1451,"amp":1727,"an":300,"ance":2108,"and":695,"andy":2461,"ane":888,"ang":1840,"ange":1125,"anged":2680,"anger":2348,"angle":2924,"anic":2519,"ank":688,"anny":2146,"ano":2923,"ans":3242,"ant":698,"anut":2201,"ap":665,"apa":3487,"ape":1382,"apes":1756,"app":1898,"apped":1578,"apping":3195,"appy":3386,"ar":287,"ara":541,"ard":450,"ards":1354,"are":481,"ared":576,"arge":2788,"ari":3082,"aring":1699,"ark":507,"arl":2432,"arp":2433,"ars":756,"art":475,"ary":962,"as":514,"ase":848,"ased":1848,"aser":2450,"ash":974,"asing":2288,"ask":1642,"ass":1167,"ast":752,"asure":1546,"asured":3918,"at":294,"atch":3623,"atched":3866,"ate":792,"ated":1428,"ateful":1885,"ately":2917,"ater":1474,"ates":3865,"ath":1154,"ather":1219,"atient":3867,"ation":1786,"ats":1807,"atter":3083,"atue":3624,"ature":2677,"au":779,"aug":585,"aught":991,"aughter":2714,"aul":3296,"aur":3586,"ause":847,"aut":833,"av":1596,"ave":633,"aven":4087,"aw":1504,"ax":760,"ay":286,"ayak":3081,"aybe":986,"ays":433,"aze":3387,"b":66,"baby":3044,"ball":2496,"bar":2248,"bb":678,"bbed":1106,"bbit":1032,"bble":1654,"be":897,"ber":851,"bers":3388,"ble":554,"bled":3389,"blem":2023,"bo":1632,"board":2729,"body":3529,"bor":1539,"box":2632,"br":1899,"bs":1653,"bug":3822,"bur":4088,"bway":2497,"by":790,"bye":1107,"c":67,"cage":2881,"cape":2006,"cast":4092,"cc":2651,"ccept":3390,"ce":338,"ced":1579,"cense":3391,"cept":1875,"cer":4089,"ces":2136,"cess":1775,"ch":369,"chanic":2689,"ched":682,"ches":2096,"ching":3446,"chor":3888,"cient":2184,"cil":2407,"cing":2044,"cious":4094,"cise":3587,"ck":317,"cked":2349,"cket":1842,"cks":2926,"cky":3433,"cle":2759,"cles":4093,"co":1178,"colate":2552,"com":4090,"cope":2760,"cream":2045,"cret":1384,"ct":982,"ction":3969,"ctive":3707,"ctor":1674,"cut":4091,"cy":815,"d":68,"dad":4095,"day":1060,"dd":525,"dded":929,"de":1859,"ded":3045,"den":3046,"der":1505,"dge":2882,"dle":2046,"ds":1466,"dy":775,"e":69,"ea":3588,"ead":2047,"ear":3589,"eared":1540,"eb":2652,"ec":437,"ecause":3661,"eces":2111,"eci":630,"ecial":646,"ect":939,"ected":3704,"ed":264,"eddy":1280,"edi":2900,"edic":3212,"edient":2510,"ee":1697,"een":1742,"eet":993,"ek":1900,"eked":3047,"el":362,"ell":572,"elligent":3280,"els":2148,"elt":517,"ely":1182,"em":783,"en":292,"ence":2064,"end":383,"ened":669,"enise":2916,"enry":2790,"ens":1377,"ense":2915,"ensive":3991,"ent":371,"ention":2599,"ents":2016,"ep":558,"epend":1960,"ependable":2483,"ependent":3539,"er":277,"era":3072,"erable":3853,"ere":2249,"ered":1165,"eri":3230,"erly":3231,"eros":3073,"erous":2586,"erpill":2266,"erry":2428,"ers":656,"ert":2195,"erv":2782,"ery":2058,"es":311,"ese":2204,"ess":706,"est":592,"ested":3282,"et":309,"ete":3432,"eter":1947,"eth":2436,"etitive":3634,"ets":2681,"etter":766,"ever":1633,"ext":2883,"ey":1860,"f":70,"fa":3590,"fast":2653,"fe":736,"fere":1158,"ff":1151,"fic":2884,"fish":1933,"fit":3824,"fore":919,"fort":1803,"fortable":2127,"fs":3823,"ft":942,"fter":709,"fu":451,"ful":469,"fully":1229,"fused":1915,"g":71,"gan":1084,"ge":725,"ged":676,"ger":898,"gest":2886,"get":536,"getable":2365,"gether":570,"ging":2885,"gle":1444,"gly":2498,"gn":3048,"ground":2185,"gry":849,"gs":1443,"gu":2408,"gular":3196,"gust":3049,"gy":2581,"h":72,"harl":2761,"harlie":2873,"hat":581,"he":257,"head":2768,"heart":3402,"hed":477,"hen":464,"her":379,"here":732,"hes":908,"hetti":3058,"hic":2499,"hie":2654,"hile":2250,"hing":466,"hinoc":3050,"hip":3392,"hive":3591,"hn":854,"ho":1679,"hood":3197,"ht":398,"hy":1359,"i":73,"ia":660,"iable":2293,"iant":2655,"ic":463,"ice":511,"iced":956,"icer":2952,"ices":3910,"ich":1715,"iches":2695,"icia":3664,"ick":496,"icop":2531,"icy":1587,"id":293,"ide":428,"ident":2272,"ider":1838,"iders":3864,"idge":1806,"ie":641,"ied":1132,"ief":2706,"ield":2217,"ience":3199,"ient":1209,"ier":2187,"iers":2887,"ies":967,"iet":1555,"ieve":1962,"ieved":1755,"if":606,"iform":3931,"iful":859,"ig":330,"igent":3249,"igh":978,"ighed":3250,"ight":471,"iginal":3086,"igzag":2933,"ike":1597,"il":291,"ila":916,"ild":818,"ile":870,"ilk":1871,"ill":444,"illage":2602,"illiant":2692,"illie":3464,"illy":1014,"ilt":2913,"ilty":2914,"ily":344,"im":302,"imal":841,"imb":1010,"imed":3429,"imes":1282,"imi":3631,"immy":972,"imp":1909,"in":268,"ina":3609,"inal":3064,"inally":1601,"ination":2585,"ince":2777,"ind":458,"inda":3907,"indy":3908,"ine":747,"ined":1399,"ines":2776,"iness":2778,"ing":289,"inger":3862,"ings":540,"ining":3411,"ink":702,"inked":3215,"inky":2614,"innie":3065,"inoc":2779,"ins":1469,"ion":800,"ions":1886,"ious":1040,"ip":963,"ipment":3706,"ipp":2137,"ipped":2048,"ipping":2656,"ips":3968,"ir":314,"ird":2595,"ire":1580,"ired":1068,"irit":3877,"irl":440,"irr":1911,"irrel":1808,"irst":1076,"irt":1430,"is":288,"ise":668,"ised":976,"ises":1619,"ish":757,"ished":1006,"iss":1133,"ist":661,"isten":3684,"ister":1637,"isy":1124,"it":274,"ita":3615,"ital":3223,"itc":1274,"itch":2102,"ite":618,"ited":551,"ith":336,"iting":1903,"itive":3224,"itt":378,"ittens":3894,"itter":2600,"itting":2017,"ittle":397,"ity":2263,"ive":705,"iver":3198,"ix":2186,"ixie":3758,"iz":860,"ize":1853,"ized":1215,"izes":3502,"j":74,"ject":3592,"joy":1041,"k":75,"kay":1004,"ke":334,"ked":342,"keep":2525,"kelet":3441,"keleton":3573,"ken":1360,"kes":1042,"key":1874,"kin":2888,"king":3393,"l":76,"la":2333,"laire":3168,"land":2762,"late":2500,"lb":3394,"lc":1556,"ld":325,"le":308,"lease":1135,"lebr":2435,"led":943,"leep":1027,"leph":1686,"ler":3827,"les":998,"less":1841,"let":2520,"lew":910,"lf":1680,"li":1934,"lid":3201,"lies":3829,"light":1598,"ling":1833,"liver":4016,"ll":303,"lla":1946,"llo":1910,"llow":1046,"lls":3243,"lly":658,"loo":3828,"lp":3825,"lu":3200,"lv":3826,"ly":386,"m":77,"ma":741,"man":2334,"mb":2763,"me":1613,"ment":1581,"mer":2188,"ming":2138,"mm":3202,"mmer":3830,"mo":3593,"mor":1969,"more":1198,"munk":3395,"my":375,"n":78,"nam":2251,"nd":262,"nder":632,"ndry":2665,"ned":686,"ner":1138,"ness":2501,"ney":2049,"ng":1152,"nger":2889,"ngth":3714,"nic":2764,"nie":3051,"ning":837,"nit":3595,"nn":587,"nna":611,"not":2409,"ns":3594,"nt":353,"nts":1275,"ny":671,"o":79,"ob":858,"oc":2007,"ocad":3017,"ock":855,"ocked":1759,"oe":3203,"og":2050,"oga":3345,"oin":3396,"ointed":3570,"ol":1445,"ola":3143,"old":2502,"olly":864,"olog":2726,"om":284,"ome":382,"omed":3860,"omet":497,"ometimes":1989,"on":285,"one":474,"ones":2197,"oney":1917,"ong":502,"ongo":3268,"ons":1334,"ont":2431,"ony":3861,"oo":323,"ood":486,"oof":2109,"ook":567,"ooking":3679,"ool":900,"oom":1776,"oon":721,"oons":3493,"oop":2793,"op":506,"ope":1690,"ophie":2701,"ophy":3270,"ople":928,"oppy":3397,"opus":3269,"or":301,"ora":3872,"ord":2274,"ore":430,"ored":1702,"ores":3660,"orge":3873,"oring":1417,"orm":1701,"orry":664,"ors":2593,"ort":835,"os":1655,"osity":3737,"ot":315,"ote":2521,"oth":791,"other":768,"othes":1665,"ots":1912,"ott":1564,"ou":273,"oud":573,"oug":515,"ough":824,"ought":620,"ould":373,"oun":1938,"ound":393,"ount":1226,"ountain":2231,"oup":1470,"our":625,"ourite":3115,"ours":1625,"ous":604,"ouse":639,"out":376,"ove":2252,"ow":320,"owed":3635,"own":552,"ows":1448,"owy":2927,"oy":843,"p":80,"pa":2253,"pack":2890,"par":3052,"pe":1970,"peci":2765,"ped":2503,"per":1716,"pered":3053,"ph":1614,"pill":2254,"pl":612,"play":3934,"port":1098,"pp":340,"pped":616,"pping":1450,"ppy":1077,"ps":1409,"pt":761,"pty":2974,"q":81,"qu":582,"que":2819,"r":82,"ra":427,"rag":1639,"rage":3901,"raid":2528,"rated":2255,"raw":1017,"re":270,"read":2424,"ready":3217,"ream":1188,"reat":717,"ree":561,"reed":1401,"rel":1617,"rella":3611,"ren":1244,"render":3610,"resh":3218,"ret":659,"ri":347,"rible":3645,"ried":623,"riend":407,"riends":3654,"ries":1292,"rior":2937,"rise":3597,"rm":852,"rn":3596,"ro":596,"rod":3680,"rom":479,"room":1284,"ross":1605,"round":468,"row":1599,"roy":3112,"rs":2766,"ry":406,"s":83,"se":391,"sed":1834,"sel":838,"self":902,"selves":2709,"sent":1717,"ses":3398,"set":1743,"sh":1099,"side":516,"sit":3831,"so":983,"sp":1520,"ss":613,"ssed":1882,"st":364,"stairs":2939,"ster":1205,"sting":2149,"sw":1935,"sy":1936,"t":84,"ted":1109,"ten":2657,"ter":420,"th":1145,"thday":1997,"ther":565,"thing":964,"thy":2121,"ti":2582,"ting":1100,"tion":3598,"to":1971,"tor":3204,"tory":3783,"tti":3054,"tur":2097,"ture":1179,"ty":868,"u":85,"uable":2767,"ual":2410,"ually":1468,"ub":2658,"uce":2335,"uck":580,"ucy":951,"udd":644,"udden":689,"uddenly":700,"ue":636,"ued":1342,"ues":3399,"uff":1496,"uffy":1713,"ug":403,"ugar":2942,"ugg":1953,"uggle":3653,"uggled":2859,"uit":1698,"ul":1467,"ular":2388,"ull":2256,"ult":2387,"um":473,"umb":1792,"umber":2696,"umbled":2855,"ummer":3106,"ummy":823,"ump":778,"umpy":2617,"un":370,"unately":3889,"unch":1667,"une":2205,"unes":3447,"ungle":2282,"unk":2072,"up":1835,"upid":3744,"ur":460,"ure":512,"ured":2446,"urous":3466,"urp":827,"urry":1623,"urse":1732,"urt":819,"us":649,"ush":1058,"ushed":2457,"usie":3287,"uss":2659,"ussel":3182,"ust":638,"ustrated":2456,"usual":2822,"ut":322,"v":86,"vas":3055,"ve":337,"ved":447,"vel":3089,"ven":794,"vent":731,"ventually":1571,"ver":316,"vered":1725,"vers":2925,"very":351,"ves":742,"vice":3599,"ving":753,"w":87,"ward":2257,"wards":3400,"way":522,"ways":679,"ween":3832,"weet":3600,"where":1243,"x":88,"xt":968,"y":89,"yard":1681,"ye":2258,"year":3351,"yer":3401,"ying":2891,"z":90,"zag":2892,"zard":3833,"ze":1777,"zed":3205,"zen":3601,"zor":2189,"zy":1385,"zz":2259,"{":91,"|":92,"}":93,"~":94,"\u00a1":95,"\u00a2":96,"\u00a3":97,"\u00a4":98,"\u00a5":99,"\u00a6":100,"\u00a7":101,"\u00a8":102,"\u00a9":103,"\u00aa":104,"\u00ab":105,"\u00ac":106,"\u00ae":107,"\u00af":108,"\u00b0":109,"\u00b1":110,"\u00b2":111,"\u00b3":112,"\u00b4":113,"\u00b5":114,"\u00b6":115,"\u00b7":116,"\u00b8":117,"\u00b9":118,"\u00ba":119,"\u00bb":120,"\u00bc":121,"\u00bd":122,"\u00be":123,"\u00bf":124,"\u00c0":125,"\u00c1":126,"\u00c2":127,"\u00c3":128,"\u00c4":129,"\u00c5":130,"\u00c6":131,"\u00c7":132,"\u00c8":133,"\u00c9":134,"\u00ca":135,"\u00cb":136,"\u00cc":137,"\u00cd":138,"\u00ce":139,"\u00cf":140,"\u00d0":141,"\u00d1":142,"\u00d2":143,"\u00d3":144,"\u00d4":145,"\u00d5":146,"\u00d6":147,"\u00d7":148,"\u00d8":149,"\u00d9":150,"\u00da":151,"\u00db":152,"\u00dc":153,"\u00dd":154,"\u00de":155,"\u00df":156,"\u00e0":157,"\u00e1":158,"\u00e2":159,"\u00e2\u0122":503,"\u00e2\u0122\u0136":3916,"\u00e2\u0122\u013b":866,"\u00e2\u0122\u013e":806,"\u00e2\u0122\u013f":814,"\u00e2\u0122\u013f.":3952,"\u00e3":160,"\u00e4":161,"\u00e5":162,"\u00e6":163,"\u00e7":164,"\u00e8":165,"\u00e9":166,"\u00ea":167,"\u00eb":168,"\u00ec":169,"\u00ed":170,"\u00ee":171,"\u00ef":172,"\u00f0":173,"\u00f1":174,"\u00f2":175,"\u00f3":176,"\u00f4":177,"\u00f5":178,"\u00f6":179,"\u00f7":180,"\u00f8":181,"\u00f9":182,"\u00fa":183,"\u00fb":184,"\u00fc":185,"\u00fd":186,"\u00fe":187,"\u00ff":188,"\u0100":189,"\u0101":190,"\u0102":191,"\u0103":192,"\u0104":193,"\u0105":194,"\u0106":195,"\u0107":196,"\u0108":197,"\u0109":198,"\u010a":199,"\u010b":200,"\u010c":201,"\u010d":202,"\u010e":203,"\u010f":204,"\u0110":205,"\u0111":206,"\u0112":207,"\u0113":208,"\u0114":209,"\u0115":210,"\u0116":211,"\u0117":212,"\u0118":213,"\u0119":214,"\u011a":215,"\u011b":216,"\u011c":217,"\u011d":218,"\u011e":219,"\u011f":220,"\u0120":221,"\u0120\"":332,"\u0120'":2660,"\u0120-":1259,"\u01203":1972,"\u0120A":438,"\u0120Accept":3461,"\u0120Acceptor":3574,"\u0120After":1367,"\u0120Al":3459,"\u0120Ali":3460,"\u0120All":1528,"\u0120Amy":2075,"\u0120And":739,"\u0120Andy":1884,"\u0120Ann":2601,"\u0120Anna":716,"\u0120Are":3102,"\u0120As":1221,"\u0120At":3902,"\u0120B":365,"\u0120Be":1586,"\u0120Bear":3329,"\u0120Becky":3734,"\u0120Beep":3010,"\u0120Ben":446,"\u0120Benny":1668,"\u0120Billy":1846,"\u0120Binky":3093,"\u0120Bl":2687,"\u0120Bloom":3358,"\u0120Bob":1117,"\u0120Bongo":3444,"\u0120Br":3258,"\u0120Brown":4046,"\u0120But":603,"\u0120C":853,"\u0120Can":1253,"\u0120Charlie":3700,"\u0120Claire":3501,"\u0120Come":1852,"\u0120D":634,"\u0120Dad":1119,"\u0120Daddy":1590,"\u0120Daisy":1285,"\u0120Danny":3284,"\u0120Denise":3285,"\u0120Dependable":3682,"\u0120Do":1306,"\u0120Don":2970,"\u0120E":579,"\u0120Each":3927,"\u0120Ella":2704,"\u0120Elly":1880,"\u0120Em":1512,"\u0120Emily":3145,"\u0120Emma":1927,"\u0120Emmy":3731,"\u0120End":3111,"\u0120Even":2965,"\u0120Eventually":3281,"\u0120Every":723,"\u0120Everyone":1207,"\u0120Everywhere":2372,"\u0120F":691,"\u0120Fin":3686,"\u0120Finally":2537,"\u0120Fl":1920,"\u0120Floppy":3537,"\u0120Fluffy":2322,"\u0120Fr":1757,"\u0120Frank":2237,"\u0120Freddy":4011,"\u0120Friends":3687,"\u0120From":1001,"\u0120Furry":3489,"\u0120G":887,"\u0120Gary":2375,"\u0120Gina":3962,"\u0120Give":2831,"\u0120Go":2300,"\u0120Gr":3303,"\u0120Gra":1549,"\u0120Grace":2557,"\u0120Grand":1928,"\u0120Grandma":2394,"\u0120Grandpa":3749,"\u0120Granny":3568,"\u0120H":307,"\u0120He":310,"\u0120Help":3875,"\u0120Henry":3431,"\u0120Her":876,"\u0120His":1007,"\u0120How":2203,"\u0120I":329,"\u0120If":3437,"\u0120In":1449,"\u0120Inside":2040,"\u0120Is":2795,"\u0120Isabel":3359,"\u0120It":396,"\u0120J":455,"\u0120Jack":727,"\u0120Jacky":3691,"\u0120Jake":2212,"\u0120James":2445,"\u0120Jane":1276,"\u0120Jen":1454,"\u0120Jenny":2478,"\u0120Jerry":3662,"\u0120Jill":1455,"\u0120Jim":2603,"\u0120Jimmy":1731,"\u0120Jo":781,"\u0120Joe":1195,"\u0120Joey":2987,"\u0120John":1149,"\u0120Joy":3297,"\u0120June":3104,"\u0120Just":2530,"\u0120K":2661,"\u0120Kate":4038,"\u0120L":556,"\u0120Lacy":3926,"\u0120Le":1959,"\u0120Lee":3924,"\u0120Leo":2242,"\u0120Let":1222,"\u0120Leticia":3985,"\u0120Lila":1118,"\u0120Lilly":3923,"\u0120Lily":387,"\u0120Little":1992,"\u0120Lola":3925,"\u0120Lucy":1156,"\u0120Lul":3278,"\u0120Lulu":3378,"\u0120M":412,"\u0120Mae":3656,"\u0120Man":3457,"\u0120Mary":1987,"\u0120Max":879,"\u0120Maybe":1527,"\u0120Meri":3458,"\u0120Mia":744,"\u0120Millie":3657,"\u0120Mimi":3658,"\u0120Mittens":3897,"\u0120Molly":1126,"\u0120Mom":643,"\u0120Mommy":1120,"\u0120Mrs":3896,"\u0120Mum":2691,"\u0120Mummy":2153,"\u0120My":2806,"\u0120N":1094,"\u0120Next":3977,"\u0120No":2662,"\u0120Now":1307,"\u0120O":2504,"\u0120OK":2893,"\u0120On":2584,"\u0120One":533,"\u0120P":1171,"\u0120Papa":3718,"\u0120Paul":3983,"\u0120Pete":3717,"\u0120Peter":3515,"\u0120Please":2985,"\u0120Polly":2984,"\u0120R":1410,"\u0120Rachel":3000,"\u0120Red":3994,"\u0120Russel":3323,"\u0120S":298,"\u0120Sally":1839,"\u0120Sam":743,"\u0120Sandy":2592,"\u0120Sara":663,"\u0120Sarah":1230,"\u0120See":3871,"\u0120She":312,"\u0120Sn":2591,"\u0120Snowy":3178,"\u0120So":926,"\u0120Some":1908,"\u0120Sometimes":2065,"\u0120Soon":2273,"\u0120Sophie":2920,"\u0120Sp":1544,"\u0120Spot":1649,"\u0120St":3870,"\u0120Suddenly":1062,"\u0120Sue":1202,"\u0120Susie":3629,"\u0120T":283,"\u0120TV":1978,"\u0120Ted":3079,"\u0120Teddy":3080,"\u0120Th":1189,"\u0120Thank":1855,"\u0120That":1302,"\u0120The":295,"\u0120Their":2145,"\u0120Then":873,"\u0120There":1378,"\u0120They":318,"\u0120This":1612,"\u0120Tim":465,"\u0120Timmy":529,"\u0120To":1526,"\u0120Today":3006,"\u0120Together":2170,"\u0120Tom":499,"\u0120Tommy":1478,"\u0120Tr":3078,"\u0120True":3779,"\u0120W":523,"\u0120We":762,"\u0120What":1567,"\u0120When":1053,"\u0120Whenever":2719,"\u0120Where":3108,"\u0120While":2959,"\u0120Why":2606,"\u0120Will":3671,"\u0120With":2289,"\u0120You":542,"\u0120Your":3921,"\u0120Zigzag":3835,"\u0120a":259,"\u0120ab":631,"\u0120able":1497,"\u0120about":645,"\u0120above":3283,"\u0120ac":1224,"\u0120acc":2167,"\u0120accept":2624,"\u0120accident":2485,"\u0120accidentally":2642,"\u0120ach":3836,"\u0120across":1769,"\u0120act":2769,"\u0120ad":746,"\u0120add":2191,"\u0120added":3406,"\u0120adm":2114,"\u0120admire":2743,"\u0120admired":4025,"\u0120advent":850,"\u0120adventure":872,"\u0120adventures":1610,"\u0120adventurous":3500,"\u0120advice":3695,"\u0120af":2417,"\u0120afraid":2568,"\u0120after":1049,"\u0120ag":532,"\u0120again":575,"\u0120against":3479,"\u0120agree":3273,"\u0120agreed":1547,"\u0120ahead":2770,"\u0120air":1344,"\u0120airport":2849,"\u0120al":518,"\u0120alert":3470,"\u0120all":483,"\u0120almo":3670,"\u0120almost":3804,"\u0120alone":1566,"\u0120along":2022,"\u0120already":3271,"\u0120also":1000,"\u0120always":687,"\u0120am":1250,"\u0120ama":994,"\u0120amaz":1003,"\u0120amazed":1480,"\u0120amazing":1481,"\u0120an":418,"\u0120anchor":3899,"\u0120ancient":2209,"\u0120and":265,"\u0120ang":2208,"\u0120angel":2398,"\u0120angry":987,"\u0120animal":842,"\u0120animals":958,"\u0120another":1434,"\u0120answ":1956,"\u0120answer":2395,"\u0120answered":3750,"\u0120ants":3837,"\u0120any":722,"\u0120anymore":1206,"\u0120anyone":2295,"\u0120anything":1383,"\u0120anywhere":3688,"\u0120ap":2418,"\u0120apolog":2867,"\u0120app":1162,"\u0120appear":3981,"\u0120appeared":2033,"\u0120apple":2032,"\u0120appro":3715,"\u0120ar":1111,"\u0120are":426,"\u0120arg":3315,"\u0120arm":1411,"\u0120arms":1888,"\u0120around":520,"\u0120arri":1459,"\u0120arrived":1518,"\u0120arrow":2838,"\u0120art":3711,"\u0120artist":4060,"\u0120as":423,"\u0120ash":2807,"\u0120ashamed":4039,"\u0120ask":1030,"\u0120asked":527,"\u0120asking":2718,"\u0120asks":1574,"\u0120asleep":2210,"\u0120at":445,"\u0120ate":1245,"\u0120att":1703,"\u0120attic":2634,"\u0120attra":4007,"\u0120av":2190,"\u0120available":3549,"\u0120avocad":3020,"\u0120avocado":3562,"\u0120aw":2663,"\u0120away":534,"\u0120b":266,"\u0120ba":1260,"\u0120baby":1591,"\u0120back":476,"\u0120backpack":3912,"\u0120backyard":1689,"\u0120bad":995,"\u0120bag":1362,"\u0120bags":2997,"\u0120bake":2773,"\u0120bal":3061,"\u0120bald":2168,"\u0120ball":652,"\u0120balloon":1036,"\u0120balloons":2548,"\u0120ban":3842,"\u0120banan":4064,"\u0120band":2667,"\u0120bar":1778,"\u0120bark":3214,"\u0120barked":3153,"\u0120barks":3784,"\u0120barn":3337,"\u0120barrel":3740,"\u0120base":3410,"\u0120bask":2774,"\u0120basket":3029,"\u0120bath":1600,"\u0120bathroom":2631,"\u0120be":331,"\u0120beach":1873,"\u0120beak":3439,"\u0120beam":3638,"\u0120beans":3879,"\u0120bear":798,"\u0120bears":2597,"\u0120beaut":846,"\u0120beautiful":862,"\u0120beauty":3958,"\u0120bec":673,"\u0120became":1193,"\u0120because":867,"\u0120become":2371,"\u0120bed":930,"\u0120bedroom":2713,"\u0120bee":1490,"\u0120beef":3729,"\u0120beehive":3730,"\u0120been":1173,"\u0120beep":3251,"\u0120bees":2796,"\u0120beet":2354,"\u0120beetle":2492,"\u0120before":955,"\u0120beg":3438,"\u0120began":1204,"\u0120beh":1140,"\u0120behave":3712,"\u0120behind":1269,"\u0120being":1251,"\u0120bel":1172,"\u0120believe":2123,"\u0120bell":1979,"\u0120belong":1823,"\u0120belonged":2636,"\u0120belongs":4014,"\u0120below":3719,"\u0120belt":2840,"\u0120ben":1779,"\u0120bench":1893,"\u0120bent":3213,"\u0120berry":3607,"\u0120best":802,"\u0120bet":3606,"\u0120better":839,"\u0120between":4057,"\u0120bicy":3844,"\u0120big":409,"\u0120bigger":1353,"\u0120biggest":2944,"\u0120bike":2100,"\u0120bir":574,"\u0120bird":593,"\u0120birdcage":2967,"\u0120birds":1393,"\u0120birthday":2081,"\u0120bit":1146,"\u0120bite":1902,"\u0120bitter":2668,"\u0120bl":559,"\u0120black":1492,"\u0120blank":1500,"\u0120blanket":1519,"\u0120blankets":3005,"\u0120blew":2341,"\u0120blinked":3279,"\u0120block":1064,"\u0120blocks":1268,"\u0120bloom":3475,"\u0120blow":2158,"\u0120blows":3676,"\u0120blue":1011,"\u0120blueber":2307,"\u0120blueberries":3022,"\u0120blueberry":3764,"\u0120bo":424,"\u0120boat":935,"\u0120boats":2833,"\u0120body":3900,"\u0120bone":2099,"\u0120book":856,"\u0120books":1530,"\u0120bor":2901,"\u0120bored":2423,"\u0120boring":2511,"\u0120borrow":3361,"\u0120boss":2946,"\u0120bossy":3362,"\u0120both":931,"\u0120bott":1683,"\u0120bottle":2392,"\u0120bottom":2560,"\u0120bought":2666,"\u0120boun":2008,"\u0120bounce":3018,"\u0120bouncy":3542,"\u0120bow":1234,"\u0120bowl":2316,"\u0120bows":3518,"\u0120box":749,"\u0120boxes":2973,"\u0120boy":513,"\u0120boys":3669,"\u0120br":509,"\u0120bra":921,"\u0120bran":1405,"\u0120branch":1535,"\u0120branches":3525,"\u0120brave":992,"\u0120bre":1299,"\u0120bread":3722,"\u0120break":1422,"\u0120breakfast":2725,"\u0120breaks":3324,"\u0120breat":2140,"\u0120breath":2744,"\u0120bree":3843,"\u0120breeze":4065,"\u0120bridge":2958,"\u0120bright":1212,"\u0120brightly":2476,"\u0120brilliant":2702,"\u0120bring":1991,"\u0120brings":3917,"\u0120bro":1105,"\u0120broke":1966,"\u0120broken":1395,"\u0120brother":1176,"\u0120brothers":3516,"\u0120brought":1589,"\u0120brown":1704,"\u0120brush":2363,"\u0120bu":883,"\u0120bubble":2468,"\u0120bubbles":3026,"\u0120buck":1426,"\u0120bucket":1536,"\u0120bug":938,"\u0120bugs":1737,"\u0120build":1672,"\u0120building":3333,"\u0120built":2978,"\u0120bulb":3503,"\u0120bump":3409,"\u0120bun":1745,"\u0120bunny":1773,"\u0120bur":3062,"\u0120buried":3961,"\u0120bury":3960,"\u0120bus":1559,"\u0120bush":1780,"\u0120bushes":3148,"\u0120busy":2172,"\u0120but":419,"\u0120butt":2019,"\u0120butter":1191,"\u0120butterf":1320,"\u0120butterflies":3986,"\u0120butterfly":1397,"\u0120button":2861,"\u0120buttons":3019,"\u0120buy":1760,"\u0120by":920,"\u0120c":276,"\u0120cab":3619,"\u0120cabin":3796,"\u0120cake":1323,"\u0120cal":2344,"\u0120call":816,"\u0120called":889,"\u0120calling":3126,"\u0120calm":2490,"\u0120came":683,"\u0120can":461,"\u0120cand":1659,"\u0120candle":3332,"\u0120candles":3530,"\u0120candy":2391,"\u0120cane":2694,"\u0120cannot":2447,"\u0120canvas":3105,"\u0120car":550,"\u0120card":2056,"\u0120cards":3071,"\u0120care":621,"\u0120careful":812,"\u0120carefully":1278,"\u0120carr":2366,"\u0120carried":2815,"\u0120carrot":3552,"\u0120carrots":3354,"\u0120carry":2453,"\u0120cars":1127,"\u0120cart":3227,"\u0120cartoons":3786,"\u0120case":3229,"\u0120cast":1684,"\u0120castle":1799,"\u0120cat":755,"\u0120catch":1337,"\u0120caterpill":2297,"\u0120caterpillar":2328,"\u0120caught":1718,"\u0120cave":1865,"\u0120ce":2194,"\u0120cel":2906,"\u0120celebr":2486,"\u0120celebrate":3173,"\u0120celery":3036,"\u0120ch":549,"\u0120chain":2079,"\u0120chair":2962,"\u0120chalk":3474,"\u0120chamber":3277,"\u0120chance":3922,"\u0120change":3275,"\u0120changed":3276,"\u0120chase":3110,"\u0120chased":2814,"\u0120chasing":2963,"\u0120chat":3674,"\u0120che":834,"\u0120check":3497,"\u0120checked":3956,"\u0120cheer":2374,"\u0120cheered":1758,"\u0120cheerful":3171,"\u0120cheese":2299,"\u0120cher":2426,"\u0120cherry":3024,"\u0120chest":2029,"\u0120chew":2115,"\u0120chewed":3348,"\u0120chick":1670,"\u0120chicken":2559,"\u0120chickens":2174,"\u0120child":1019,"\u0120children":1255,"\u0120chip":3473,"\u0120chipmunk":3576,"\u0120chir":3675,"\u0120cho":1705,"\u0120chocolate":2561,"\u0120choo":3472,"\u0120choose":4055,"\u0120chose":3150,"\u0120cir":1783,"\u0120circ":1800,"\u0120circle":2856,"\u0120circles":2731,"\u0120cl":487,"\u0120clap":2697,"\u0120clapped":1733,"\u0120clapping":3666,"\u0120class":2605,"\u0120clay":3665,"\u0120cle":915,"\u0120clean":1097,"\u0120cleaning":3978,"\u0120clear":3963,"\u0120clever":2116,"\u0120click":3913,"\u0120climb":1018,"\u0120climbed":1514,"\u0120climbing":3970,"\u0120clo":734,"\u0120clock":3944,"\u0120clos":880,"\u0120close":1501,"\u0120closed":1821,"\u0120closel":3945,"\u0120closely":4070,"\u0120closer":1081,"\u0120closet":3301,"\u0120cloth":2698,"\u0120clothes":1669,"\u0120cloud":1604,"\u0120clouds":1967,"\u0120clum":3107,"\u0120clumsy":3367,"\u0120co":566,"\u0120coat":2608,"\u0120coin":2113,"\u0120col":940,"\u0120cold":1177,"\u0120coll":1879,"\u0120collar":4015,"\u0120collect":2129,"\u0120collecting":3544,"\u0120color":1037,"\u0120colorful":1709,"\u0120colors":1531,"\u0120colour":2542,"\u0120colourful":3175,"\u0120com":799,"\u0120come":904,"\u0120comes":1819,"\u0120comet":1864,"\u0120comfortable":2467,"\u0120coming":1369,"\u0120comp":1627,"\u0120competitive":3736,"\u0120comput":3330,"\u0120computer":3788,"\u0120con":1009,"\u0120cone":2907,"\u0120confused":2227,"\u0120cont":1287,"\u0120content":3521,"\u0120contin":1440,"\u0120continued":1461,"\u0120cook":1324,"\u0120cookie":2626,"\u0120cookies":1798,"\u0120cool":1374,"\u0120cooler":3725,"\u0120cop":3228,"\u0120cor":1940,"\u0120corn":3538,"\u0120corner":2482,"\u0120cou":2343,"\u0120couch":3023,"\u0120could":467,"\u0120couldn":750,"\u0120count":1522,"\u0120counted":3146,"\u0120counter":3526,"\u0120counting":3327,"\u0120cour":1905,"\u0120courage":4030,"\u0120course":1930,"\u0120cover":3678,"\u0120covered":2369,"\u0120cozy":2080,"\u0120cr":961,"\u0120cra":1863,"\u0120crab":2735,"\u0120crack":1965,"\u0120cracker":3751,"\u0120crackers":4019,"\u0120crane":2304,"\u0120crash":3341,"\u0120craw":1660,"\u0120crawl":2558,"\u0120crawled":2852,"\u0120crawling":3531,"\u0120cray":1763,"\u0120crayons":1892,"\u0120cream":2057,"\u0120creat":1414,"\u0120create":3995,"\u0120creative":3001,"\u0120creature":1999,"\u0120cri":3617,"\u0120crib":3795,"\u0120cried":1413,"\u0120cries":2427,"\u0120cross":3852,"\u0120crown":2225,"\u0120crunch":3967,"\u0120cry":932,"\u0120crying":1736,"\u0120cryst":3964,"\u0120cu":844,"\u0120cube":2976,"\u0120cudd":3618,"\u0120cup":1795,"\u0120cupboard":3742,"\u0120cups":3699,"\u0120curi":1080,"\u0120curiosity":3976,"\u0120curious":1131,"\u0120curt":2515,"\u0120curtain":2571,"\u0120curtains":3176,"\u0120cush":1977,"\u0120cushion":2738,"\u0120cushions":3016,"\u0120cut":1521,"\u0120cute":2125,"\u0120d":278,"\u0120dad":640,"\u0120daddy":1919,"\u0120dan":1013,"\u0120dance":2118,"\u0120danced":2472,"\u0120dancing":2546,"\u0120danger":1646,"\u0120dangerous":1771,"\u0120dark":1166,"\u0120daughter":2784,"\u0120day":358,"\u0120days":2357,"\u0120de":997,"\u0120dead":2306,"\u0120deaf":3310,"\u0120dec":608,"\u0120decid":624,"\u0120decide":2968,"\u0120decided":627,"\u0120decides":3935,"\u0120decor":3932,"\u0120deep":1339,"\u0120deer":3128,"\u0120del":1057,"\u0120delic":1372,"\u0120delicate":2998,"\u0120delicious":1534,"\u0120delight":2120,"\u0120delighted":3161,"\u0120deliver":3975,"\u0120dem":3854,"\u0120dependable":3234,"\u0120des":1747,"\u0120desig":3534,"\u0120desk":2393,"\u0120dest":2587,"\u0120destroy":3177,"\u0120destroyed":4043,"\u0120deter":3233,"\u0120determ":3372,"\u0120determined":3569,"\u0120di":1805,"\u0120diary":2481,"\u0120did":470,"\u0120didn":719,"\u0120dif":1075,"\u0120differe":1170,"\u0120different":1185,"\u0120diffic":2982,"\u0120difficult":3040,"\u0120dig":3074,"\u0120din":1471,"\u0120dinner":1593,"\u0120dinos":4001,"\u0120dir":1866,"\u0120dirt":2672,"\u0120dirty":1895,"\u0120dis":1050,"\u0120disapp":1924,"\u0120disappeared":2323,"\u0120disappointed":3748,"\u0120disco":1710,"\u0120discover":2635,"\u0120discovered":3151,"\u0120discovering":3772,"\u0120discovery":3335,"\u0120disgust":3129,"\u0120disgusting":3564,"\u0120display":3974,"\u0120dist":2345,"\u0120distant":3766,"\u0120diz":2783,"\u0120dizzy":2874,"\u0120do":388,"\u0120doctor":1914,"\u0120does":1078,"\u0120doesn":3509,"\u0120dog":628,"\u0120doggy":3936,"\u0120dogs":3116,"\u0120doing":1730,"\u0120doll":789,"\u0120dolls":1691,"\u0120don":776,"\u0120done":1415,"\u0120door":1029,"\u0120dove":3097,"\u0120doves":3895,"\u0120down":642,"\u0120dr":1333,"\u0120drag":1868,"\u0120dragon":2092,"\u0120drank":2848,"\u0120draw":1387,"\u0120drawing":3992,"\u0120drawings":3523,"\u0120dre":826,"\u0120dream":1420,"\u0120dreamed":3954,"\u0120dreaming":3726,"\u0120dress":1143,"\u0120drew":2975,"\u0120dri":1227,"\u0120drink":1825,"\u0120drive":2380,"\u0120driver":1711,"\u0120driving":3134,"\u0120dro":1365,"\u0120drop":2993,"\u0120dropped":2037,"\u0120drove":1826,"\u0120dry":1867,"\u0120duck":1618,"\u0120ducks":2728,"\u0120dug":3421,"\u0120dull":3075,"\u0120dust":3232,"\u0120e":321,"\u0120each":718,"\u0120eager":2351,"\u0120ear":2014,"\u0120early":3752,"\u0120ears":2683,"\u0120eart":2928,"\u0120earth":3038,"\u0120eas":2437,"\u0120easier":4034,"\u0120easy":3554,"\u0120eat":787,"\u0120eating":1994,"\u0120ed":3056,"\u0120edge":3364,"\u0120eg":2277,"\u0120egg":3550,"\u0120eggs":3167,"\u0120el":1325,"\u0120eld":3434,"\u0120elderly":3572,"\u0120eleph":1809,"\u0120elephant":1831,"\u0120else":1398,"\u0120em":1726,"\u0120embar":2320,"\u0120embarra":2329,"\u0120embarrassed":2489,"\u0120empty":3012,"\u0120en":740,"\u0120end":969,"\u0120ener":3694,"\u0120energy":4059,"\u0120eng":2539,"\u0120engine":2750,"\u0120enjoy":1090,"\u0120enjoyed":1438,"\u0120enjoying":2622,"\u0120enorm":3295,"\u0120enormous":3381,"\u0120enough":1572,"\u0120ent":2411,"\u0120entered":3553,"\u0120env":2827,"\u0120envious":3185,"\u0120equ":3636,"\u0120equipment":3799,"\u0120er":2583,"\u0120eraser":2751,"\u0120es":1744,"\u0120escape":2321,"\u0120especi":2853,"\u0120especially":2878,"\u0120even":917,"\u0120eventually":1948,"\u0120ever":973,"\u0120every":600,"\u0120everyday":3930,"\u0120everyone":990,"\u0120everything":1435,"\u0120everywhere":1734,"\u0120ex":459,"\u0120exam":2693,"\u0120examine":3774,"\u0120exc":563,"\u0120excite":2368,"\u0120excited":607,"\u0120excitedly":3113,"\u0120excitement":2402,"\u0120exciting":2112,"\u0120excla":3677,"\u0120exclaimed":3806,"\u0120exer":3663,"\u0120exercise":4058,"\u0120exit":3909,"\u0120exp":3465,"\u0120expensive":4054,"\u0120exper":2951,"\u0120expl":713,"\u0120explain":3492,"\u0120explained":1850,"\u0120explore":957,"\u0120explored":2826,"\u0120exploring":1707,"\u0120ext":2809,"\u0120extra":3032,"\u0120ey":911,"\u0120eye":3309,"\u0120eyes":959,"\u0120f":272,"\u0120fa":528,"\u0120face":1070,"\u0120faces":2535,"\u0120factor":3272,"\u0120factory":3377,"\u0120fair":1491,"\u0120fairy":2124,"\u0120fake":2780,"\u0120fall":1582,"\u0120falls":3328,"\u0120fam":923,"\u0120family":981,"\u0120famous":2979,"\u0120fan":2055,"\u0120fancy":2563,"\u0120far":1085,"\u0120farm":1532,"\u0120farmer":2236,"\u0120fast":830,"\u0120faster":1573,"\u0120fastest":3955,"\u0120father":3613,"\u0120fav":1155,"\u0120favor":1248,"\u0120favorite":1270,"\u0120favourite":3132,"\u0120fe":498,"\u0120fear":2813,"\u0120fearful":3776,"\u0120feather":2449,"\u0120feathers":3025,"\u0120feed":3467,"\u0120feel":598,"\u0120feeling":989,"\u0120feelings":3929,"\u0120feels":1606,"\u0120feet":2155,"\u0120fell":1277,"\u0120felt":519,"\u0120fence":2781,"\u0120few":1588,"\u0120fi":903,"\u0120field":2342,"\u0120fig":1862,"\u0120fight":1363,"\u0120fighting":2384,"\u0120figure":2002,"\u0120fil":3416,"\u0120fill":1235,"\u0120filled":1373,"\u0120fin":1005,"\u0120finally":1437,"\u0120find":650,"\u0120finding":2971,"\u0120finds":3117,"\u0120fine":3417,"\u0120fing":2010,"\u0120finger":2739,"\u0120fingers":3156,"\u0120finish":2834,"\u0120finished":1675,"\u0120fire":1406,"\u0120fireman":3993,"\u0120first":1163,"\u0120fis":3219,"\u0120fish":1026,"\u0120fishing":4044,"\u0120fit":2054,"\u0120fix":1246,"\u0120fixed":2553,"\u0120fl":562,"\u0120flag":2817,"\u0120flame":3476,"\u0120flash":1624,"\u0120flashlight":1695,"\u0120flew":985,"\u0120flies":3478,"\u0120flo":1223,"\u0120float":2721,"\u0120floated":3318,"\u0120floor":1551,"\u0120flour":3477,"\u0120flow":817,"\u0120flower":1317,"\u0120flowers":1065,"\u0120fluffy":2818,"\u0120flut":2816,"\u0120flute":3558,"\u0120fly":944,"\u0120flying":1630,"\u0120fo":733,"\u0120fold":1794,"\u0120folded":3741,"\u0120folder":4012,"\u0120follow":1071,"\u0120followed":1483,"\u0120follows":3130,"\u0120food":1236,"\u0120fool":3418,"\u0120foolish":3791,"\u0120foot":2028,"\u0120football":2741,"\u0120for":368,"\u0120fore":996,"\u0120forest":1092,"\u0120forever":2545,"\u0120forg":1262,"\u0120forget":2071,"\u0120forgive":2317,"\u0120forgot":1592,"\u0120fork":1789,"\u0120fort":3887,"\u0120forth":3651,"\u0120forward":3259,"\u0120found":591,"\u0120fountain":3221,"\u0120four":3220,"\u0120fox":1735,"\u0120fr":954,"\u0120frag":3614,"\u0120fragile":3794,"\u0120frame":3966,"\u0120free":1583,"\u0120freez":2630,"\u0120freezer":2871,"\u0120fresh":3222,"\u0120fridge":2303,"\u0120friend":410,"\u0120friendly":1391,"\u0120friends":472,"\u0120friendship":3911,"\u0120fro":1364,"\u0120frog":1676,"\u0120frogs":3990,"\u0120from":571,"\u0120front":2471,"\u0120frown":2302,"\u0120frowned":3763,"\u0120frozen":3723,"\u0120fruit":1762,"\u0120fruits":2730,"\u0120frustrated":2544,"\u0120fu":1139,"\u0120fuel":2310,"\u0120full":1318,"\u0120fun":492,"\u0120funny":1477,"\u0120fur":2261,"\u0120furnit":3762,"\u0120furniture":3809,"\u0120furry":2262,"\u0120g":290,"\u0120game":1113,"\u0120games":2271,"\u0120gara":2063,"\u0120garage":2094,"\u0120gard":808,"\u0120garden":810,"\u0120gas":2199,"\u0120gasped":3349,"\u0120gate":2789,"\u0120gather":1945,"\u0120gathered":2241,"\u0120gave":773,"\u0120gem":1663,"\u0120gems":3532,"\u0120gen":2590,"\u0120generous":2645,"\u0120gent":1562,"\u0120gentle":1929,"\u0120gently":2629,"\u0120get":605,"\u0120gets":2370,"\u0120getting":1513,"\u0120gho":2144,"\u0120ghost":2180,"\u0120gi":1218,"\u0120giant":2315,"\u0120gif":2434,"\u0120gift":3172,"\u0120gifted":4033,"\u0120gig":2062,"\u0120gigg":2742,"\u0120giggle":3346,"\u0120giggled":3183,"\u0120girl":441,"\u0120give":1052,"\u0120given":3517,"\u0120gives":1824,"\u0120giving":2842,"\u0120gl":840,"\u0120glad":1196,"\u0120glass":2710,"\u0120gloom":3957,"\u0120gloomy":4072,"\u0120glove":3499,"\u0120glow":2166,"\u0120glowing":3546,"\u0120glue":3498,"\u0120go":431,"\u0120goal":2947,"\u0120goat":1876,"\u0120goes":1847,"\u0120going":988,"\u0120gone":1402,"\u0120good":597,"\u0120goodbye":1157,"\u0120got":637,"\u0120gr":905,"\u0120gra":654,"\u0120grab":2024,"\u0120grabbed":1241,"\u0120grabs":3486,"\u0120grace":3288,"\u0120graceful":4049,"\u0120grand":1381,"\u0120grandbaby":3139,"\u0120grandma":2039,"\u0120grandpa":2999,"\u0120grass":1213,"\u0120grateful":1923,"\u0120gray":3701,"\u0120gre":1051,"\u0120great":1044,"\u0120green":1247,"\u0120grew":2378,"\u0120ground":925,"\u0120group":2469,"\u0120grow":1629,"\u0120growing":4005,"\u0120grown":3306,"\u0120grumpy":2832,"\u0120gu":1723,"\u0120guard":3336,"\u0120guess":3739,"\u0120guilty":3011,"\u0120gum":2198,"\u0120gun":3863,"\u0120h":269,"\u0120ha":297,"\u0120had":363,"\u0120hadn":3885,"\u0120hair":1429,"\u0120hairy":3142,"\u0120half":3628,"\u0120hammer":3869,"\u0120hand":780,"\u0120handed":3947,"\u0120handle":3948,"\u0120hands":1128,"\u0120hang":2200,"\u0120hanger":2919,"\u0120hanging":4026,"\u0120happ":380,"\u0120happen":1810,"\u0120happened":1174,"\u0120happening":3015,"\u0120happens":3096,"\u0120happily":1432,"\u0120happy":416,"\u0120har":1975,"\u0120harbor":2484,"\u0120hard":912,"\u0120harder":2711,"\u0120harm":3541,"\u0120hars":3846,"\u0120harsh":4066,"\u0120has":933,"\u0120hat":1300,"\u0120have":457,"\u0120having":1291,"\u0120hay":3066,"\u0120he":279,"\u0120head":1067,"\u0120heads":3508,"\u0120heal":2346,"\u0120healthy":3169,"\u0120hear":1281,"\u0120heard":785,"\u0120hears":1941,"\u0120heart":1869,"\u0120heav":1784,"\u0120heavy":1894,"\u0120hedge":3422,"\u0120hel":494,"\u0120held":1506,"\u0120helicop":2534,"\u0120helicopter":2573,"\u0120hello":2011,"\u0120helm":2955,"\u0120helmet":3560,"\u0120help":508,"\u0120helped":1315,"\u0120helpful":2156,"\u0120helping":1990,"\u0120helpless":3667,"\u0120helps":3469,"\u0120her":313,"\u0120herb":3876,"\u0120here":1112,"\u0120herself":1508,"\u0120hid":1331,"\u0120hidden":3136,"\u0120hide":1602,"\u0120hider":3988,"\u0120hiding":2555,"\u0120hig":2053,"\u0120high":1332,"\u0120higher":2133,"\u0120hill":1400,"\u0120him":432,"\u0120himself":1418,"\u0120hipp":2514,"\u0120hippo":2570,"\u0120his":352,"\u0120history":3881,"\u0120hit":2101,"\u0120ho":657,"\u0120hold":1368,"\u0120holding":2038,"\u0120holds":3724,"\u0120hole":1054,"\u0120holid":3290,"\u0120holiday":3380,"\u0120home":594,"\u0120hon":2512,"\u0120honest":3356,"\u0120honey":3412,"\u0120hook":2513,"\u0120hoop":3413,"\u0120hop":1200,"\u0120hope":2086,"\u0120hoped":1768,"\u0120hoping":3984,"\u0120hopped":1568,"\u0120hopping":2458,"\u0120hor":1310,"\u0120horse":1493,"\u0120hose":3683,"\u0120hosp":3289,"\u0120hospital":3379,"\u0120hot":1781,"\u0120hours":1976,"\u0120hous":2902,"\u0120house":769,"\u0120houses":3035,"\u0120how":738,"\u0120hug":560,"\u0120huge":2367,"\u0120hugged":759,"\u0120hugs":1754,"\u0120hum":3216,"\u0120humble":3785,"\u0120hun":1488,"\u0120hung":3004,"\u0120hungry":1692,"\u0120hurry":3067,"\u0120hurt":922,"\u0120hurts":2470,"\u0120hut":3845,"\u0120ice":1233,"\u0120icy":3207,"\u0120ide":1066,"\u0120idea":1093,"\u0120if":784,"\u0120ig":2336,"\u0120ign":2866,"\u0120im":952,"\u0120imag":1964,"\u0120imagination":3540,"\u0120imagined":3155,"\u0120imp":1963,"\u0120impatient":4018,"\u0120import":1355,"\u0120important":1357,"\u0120impre":3343,"\u0120impressed":3790,"\u0120impro":3344,"\u0120in":319,"\u0120inc":2276,"\u0120inclu":3352,"\u0120ind":3057,"\u0120independent":3563,"\u0120inf":2682,"\u0120infant":2872,"\u0120inside":763,"\u0120inst":1843,"\u0120instead":2239,"\u0120int":670,"\u0120intelligent":3292,"\u0120intere":2294,"\u0120interesting":2487,"\u0120into":730,"\u0120introd":3685,"\u0120inv":2350,"\u0120invited":3551,"\u0120is":385,"\u0120island":2941,"\u0120it":304,"\u0120itch":3084,"\u0120its":884,"\u0120itself":3430,"\u0120j":453,"\u0120jack":2808,"\u0120jacket":3360,"\u0120jar":1752,"\u0120je":1812,"\u0120jealous":2732,"\u0120jeep":3536,"\u0120jell":2950,"\u0120jelly":3039,"\u0120jellyfish":3187,"\u0120jet":2361,"\u0120jew":3535,"\u0120jewels":4056,"\u0120jo":1240,"\u0120job":1988,"\u0120jog":2843,"\u0120join":1797,"\u0120joined":3320,"\u0120joke":3519,"\u0120jour":2362,"\u0120journey":2401,"\u0120joy":1565,"\u0120ju":1314,"\u0120jug":3906,"\u0120juice":1442,"\u0120juicy":3321,"\u0120jump":885,"\u0120jumped":1254,"\u0120jumping":2618,"\u0120jumps":3302,"\u0120jungle":2286,"\u0120just":803,"\u0120k":400,"\u0120kayak":3098,"\u0120ke":672,"\u0120keep":1089,"\u0120kept":936,"\u0120key":2161,"\u0120kick":2018,"\u0120kicked":3543,"\u0120kid":1263,"\u0120kids":1321,"\u0120kind":878,"\u0120kindness":3959,"\u0120kinds":2977,"\u0120king":3451,"\u0120kiss":1811,"\u0120kissed":3339,"\u0120kitc":1499,"\u0120kitchen":1503,"\u0120kite":1352,"\u0120kitt":1603,"\u0120kitty":1693,"\u0120kn":490,"\u0120kne":710,"\u0120knee":2027,"\u0120knew":765,"\u0120knif":2812,"\u0120knife":2876,"\u0120knocked":2287,"\u0120know":677,"\u0120knowing":2823,"\u0120known":3915,"\u0120knows":3488,"\u0120l":275,"\u0120la":3068,"\u0120lad":2265,"\u0120ladder":2326,"\u0120lady":1164,"\u0120ladybug":3982,"\u0120lake":1746,"\u0120lamp":2671,"\u0120land":1560,"\u0120landed":2628,"\u0120lands":3732,"\u0120large":2905,"\u0120last":2904,"\u0120late":2103,"\u0120later":2141,"\u0120lau":2670,"\u0120laug":692,"\u0120laugh":1327,"\u0120laughed":894,"\u0120laughing":2084,"\u0120laughs":2992,"\u0120laundry":2755,"\u0120law":3226,"\u0120lawyer":3566,"\u0120lay":3419,"\u0120lazy":3365,"\u0120le":488,"\u0120lea":1031,"\u0120lead":2810,"\u0120leaf":2474,"\u0120leak":2533,"\u0120lean":3266,"\u0120lear":699,"\u0120learn":1293,"\u0120learned":863,"\u0120learning":3293,"\u0120learnt":3941,"\u0120leash":2953,"\u0120leave":1814,"\u0120leaves":1256,"\u0120leaving":2835,"\u0120led":3069,"\u0120left":1918,"\u0120leg":2699,"\u0120legs":2448,"\u0120lem":2077,"\u0120lemon":2178,"\u0120lemonade":2639,"\u0120lend":3850,"\u0120leop":2532,"\u0120leopard":2572,"\u0120less":1311,"\u0120lesson":1441,"\u0120let":924,"\u0120letter":1837,"\u0120letters":2858,"\u0120li":367,"\u0120license":3445,"\u0120licked":3650,"\u0120lid":3225,"\u0120life":2281,"\u0120lift":2150,"\u0120lifted":3545,"\u0120light":1301,"\u0120lights":2988,"\u0120like":480,"\u0120liked":619,"\u0120likes":1148,"\u0120lily":3616,"\u0120line":2425,"\u0120lines":3851,"\u0120lion":1498,"\u0120lions":3649,"\u0120lip":2688,"\u0120liqu":3648,"\u0120liquid":3802,"\u0120list":869,"\u0120listen":1074,"\u0120listened":1609,"\u0120lit":2264,"\u0120little":401,"\u0120live":2441,"\u0120lived":1016,"\u0120living":1951,"\u0120lizard":3886,"\u0120lo":454,"\u0120lock":1813,"\u0120locked":3743,"\u0120log":2444,"\u0120lon":1543,"\u0120lonely":1594,"\u0120long":770,"\u0120longer":1626,"\u0120loo":415,"\u0120look":548,"\u0120looked":501,"\u0120looking":1096,"\u0120looks":1183,"\u0120loops":2074,"\u0120lose":3265,"\u0120lost":1545,"\u0120lot":690,"\u0120lots":949,"\u0120loud":909,"\u0120louder":3702,"\u0120loudly":3308,"\u0120love":893,"\u0120loved":543,"\u0120lovely":2376,"\u0120loves":1916,"\u0120low":3420,"\u0120luck":1939,"\u0120lucky":2177,"\u0120lunch":1904,"\u0120lying":3070,"\u0120m":280,"\u0120mach":2674,"\u0120machine":3556,"\u0120mad":2012,"\u0120made":557,"\u0120mag":1034,"\u0120magic":1129,"\u0120magical":1439,"\u0120magn":2981,"\u0120magnet":3186,"\u0120mail":1720,"\u0120mailbox":4009,"\u0120mailman":4008,"\u0120make":547,"\u0120makes":1376,"\u0120making":1473,"\u0120mama":2786,"\u0120man":505,"\u0120manag":3468,"\u0120managed":3575,"\u0120many":764,"\u0120map":3856,"\u0120mar":1416,"\u0120marble":2088,"\u0120mark":2143,"\u0120market":2638,"\u0120married":3141,"\u0120marry":3996,"\u0120mask":2675,"\u0120mat":1447,"\u0120match":2000,"\u0120matching":4020,"\u0120matter":2385,"\u0120may":3423,"\u0120maybe":2908,"\u0120maze":3857,"\u0120me":500,"\u0120meadow":1957,"\u0120mean":1048,"\u0120means":3973,"\u0120meant":2956,"\u0120measure":3267,"\u0120mechanic":2700,"\u0120medic":3236,"\u0120medicine":3373,"\u0120meet":1815,"\u0120meeting":3154,"\u0120memor":2957,"\u0120memories":3778,"\u0120mention":3426,"\u0120mess":1289,"\u0120message":3721,"\u0120messy":2846,"\u0120met":1472,"\u0120metal":2479,"\u0120mic":3855,"\u0120mid":2673,"\u0120middle":2756,"\u0120might":1375,"\u0120mighty":2234,"\u0120milk":1906,"\u0120mill":1942,"\u0120min":1748,"\u0120mind":2142,"\u0120mine":1523,"\u0120minut":2126,"\u0120minute":3756,"\u0120minutes":2637,"\u0120mirr":2059,"\u0120mirror":2093,"\u0120mis":3424,"\u0120miserable":4051,"\u0120miss":1943,"\u0120missed":4017,"\u0120mist":2785,"\u0120mistake":3775,"\u0120mix":2909,"\u0120mixed":3777,"\u0120mo":697,"\u0120mod":2222,"\u0120model":3166,"\u0120moder":2825,"\u0120modern":2877,"\u0120modest":3350,"\u0120mole":2824,"\u0120mom":384,"\u0120moment":1622,"\u0120mommy":793,"\u0120moms":2801,"\u0120mon":1217,"\u0120money":2516,"\u0120monkey":2314,"\u0120monster":1460,"\u0120moon":2538,"\u0120mor":1201,"\u0120moral":1887,"\u0120more":667,"\u0120morning":1533,"\u0120most":1569,"\u0120mot":3235,"\u0120mother":1584,"\u0120motor":3787,"\u0120mountain":3076,"\u0120mouse":1181,"\u0120mout":1719,"\u0120mouth":1741,"\u0120move":1328,"\u0120moved":2025,"\u0120moving":2462,"\u0120mu":583,"\u0120much":714,"\u0120mud":2966,"\u0120muff":3928,"\u0120mug":3425,"\u0120mule":2291,"\u0120mum":1261,"\u0120mummy":2104,"\u0120mus":1817,"\u0120mush":2609,"\u0120mushroom":2646,"\u0120music":2001,"\u0120must":1881,"\u0120my":599,"\u0120myself":3681,"\u0120myster":2082,"\u0120mysterious":2396,"\u0120n":296,"\u0120nail":3428,"\u0120name":1045,"\u0120named":555,"\u0120names":3625,"\u0120nap":1620,"\u0120nature":3238,"\u0120naught":1621,"\u0120naughty":1694,"\u0120ne":399,"\u0120near":1141,"\u0120nearby":2379,"\u0120neck":2206,"\u0120neckl":2863,"\u0120necklace":3033,"\u0120need":805,"\u0120needed":1671,"\u0120needle":3298,"\u0120needs":2708,"\u0120neigh":1688,"\u0120neighb":3334,"\u0120neighbor":1968,"\u0120neighbour":3789,"\u0120nerv":2918,"\u0120nervous":3037,"\u0120nest":2678,"\u0120net":2107,"\u0120never":720,"\u0120new":584,"\u0120next":1024,"\u0120nice":758,"\u0120nicely":3125,"\u0120nicer":3868,"\u0120night":1190,"\u0120no":489,"\u0120nod":2954,"\u0120nodd":3914,"\u0120nodded":966,"\u0120nodding":4069,"\u0120nods":2213,"\u0120noise":999,"\u0120noises":1793,"\u0120norm":3626,"\u0120normal":3797,"\u0120nose":2021,"\u0120nosy":2811,"\u0120not":392,"\u0120note":2359,"\u0120nothing":2073,"\u0120noticed":979,"\u0120now":906,"\u0120nowhere":3307,"\u0120number":3239,"\u0120nurse":3627,"\u0120o":306,"\u0120ob":2202,"\u0120obedient":3021,"\u0120object":3759,"\u0120obs":3247,"\u0120obser":3567,"\u0120observe":3793,"\u0120oce":2792,"\u0120ocean":2875,"\u0120oct":3246,"\u0120octopus":3374,"\u0120of":350,"\u0120off":809,"\u0120offer":3950,"\u0120offered":3951,"\u0120often":3090,"\u0120okay":1220,"\u0120old":653,"\u0120older":3118,"\u0120oli":3874,"\u0120olives":4067,"\u0120on":349,"\u0120once":2938,"\u0120one":655,"\u0120ones":1950,"\u0120only":1326,"\u0120onto":2015,"\u0120op":728,"\u0120open":1194,"\u0120opened":971,"\u0120opens":3133,"\u0120opera":3692,"\u0120or":737,"\u0120orang":3693,"\u0120orange":2163,"\u0120oranges":3807,"\u0120ord":3495,"\u0120organ":2615,"\u0120organize":4037,"\u0120original":3123,"\u0120ornam":2296,"\u0120ornaments":2327,"\u0120other":568,"\u0120others":1706,"\u0120our":1061,"\u0120out":449,"\u0120outside":675,"\u0120oven":3245,"\u0120over":777,"\u0120ow":977,"\u0120owl":2031,"\u0120own":1458,"\u0120owner":2226,"\u0120p":281,"\u0120pa":2787,"\u0120pack":1785,"\u0120package":2854,"\u0120packed":3014,"\u0120pad":3859,"\u0120pages":3622,"\u0120pain":1022,"\u0120paint":1611,"\u0120painted":2715,"\u0120painter":2119,"\u0120paintings":3735,"\u0120pale":2912,"\u0120pan":3621,"\u0120pap":1507,"\u0120paper":1648,"\u0120papers":4002,"\u0120par":2517,"\u0120parade":2868,"\u0120pare":1348,"\u0120parents":1356,"\u0120park":610,"\u0120part":1347,"\u0120party":1631,"\u0120pass":1661,"\u0120passed":3738,"\u0120passport":2633,"\u0120past":2430,"\u0120pastry":3355,"\u0120pat":1524,"\u0120patch":4003,"\u0120path":1749,"\u0120patient":1889,"\u0120patter":4004,"\u0120paw":3237,"\u0120pay":3620,"\u0120pe":693,"\u0120peace":1921,"\u0120peaceful":2736,"\u0120peanut":2221,"\u0120pebble":2220,"\u0120ped":2910,"\u0120pedal":4040,"\u0120peek":3940,"\u0120peeked":3119,"\u0120pen":1147,"\u0120pencil":2475,"\u0120pengu":2551,"\u0120penguin":2870,"\u0120penny":1739,"\u0120people":941,"\u0120per":1366,"\u0120perf":1486,"\u0120perfect":1647,"\u0120perform":3144,"\u0120pers":1722,"\u0120person":1891,"\u0120pet":1489,"\u0120ph":2013,"\u0120phone":2740,"\u0120phot":3157,"\u0120photo":3370,"\u0120pi":1907,"\u0120pic":1086,"\u0120pick":772,"\u0120picked":1072,"\u0120picking":3496,"\u0120picks":2464,"\u0120picnic":2836,"\u0120picture":1184,"\u0120pictures":1550,"\u0120pie":2347,"\u0120piece":2491,"\u0120pieces":2130,"\u0120pig":2268,"\u0120pil":2267,"\u0120pile":2518,"\u0120pill":2060,"\u0120pillows":3753,"\u0120pilot":2640,"\u0120pin":2429,"\u0120pink":1525,"\u0120pir":2105,"\u0120pirate":2324,"\u0120pit":3427,"\u0120pl":346,"\u0120plac":1845,"\u0120place":1008,"\u0120placed":3746,"\u0120places":2128,"\u0120plan":1389,"\u0120plane":1982,"\u0120planes":3322,"\u0120planet":3524,"\u0120plant":1666,"\u0120plants":3149,"\u0120plast":3254,"\u0120plastic":3376,"\u0120plate":2936,"\u0120play":359,"\u0120played":857,"\u0120playful":2527,"\u0120playground":2358,"\u0120playing":586,"\u0120plays":3883,"\u0120ple":2911,"\u0120please":1388,"\u0120pleased":3559,"\u0120po":694,"\u0120pocket":1849,"\u0120poin":1608,"\u0120point":3528,"\u0120pointed":2389,"\u0120pointing":2727,"\u0120pol":1818,"\u0120pole":2460,"\u0120police":4013,"\u0120polish":3340,"\u0120polite":2857,"\u0120pond":1479,"\u0120pool":2270,"\u0120poor":3120,"\u0120pop":2589,"\u0120popped":3490,"\u0120popular":3555,"\u0120pot":2588,"\u0120pour":2269,"\u0120pow":1721,"\u0120powder":3533,"\u0120power":2091,"\u0120powerful":3160,"\u0120pr":626,"\u0120pra":1870,"\u0120pract":2176,"\u0120practice":3547,"\u0120practiced":3548,"\u0120pre":1290,"\u0120prep":3135,"\u0120prepare":4041,"\u0120present":1740,"\u0120presents":4010,"\u0120pret":786,"\u0120pretend":1169,"\u0120pretended":2229,"\u0120pretending":3716,"\u0120pretty":1121,"\u0120pri":3858,"\u0120prin":1279,"\u0120prince":2477,"\u0120princess":1925,"\u0120print":2844,"\u0120pro":1585,"\u0120problem":2090,"\u0120prom":1685,"\u0120promised":1829,"\u0120prot":2612,"\u0120protect":2752,"\u0120proud":767,"\u0120proudly":3946,"\u0120prov":3009,"\u0120provide":3561,"\u0120prunes":3484,"\u0120pu":771,"\u0120pudd":2061,"\u0120puddle":2564,"\u0120puddles":3754,"\u0120pull":1142,"\u0120pulled":1575,"\u0120pulls":3713,"\u0120pump":3077,"\u0120pumpkin":3366,"\u0120puppy":1214,"\u0120purp":2106,"\u0120purple":2134,"\u0120purse":1944,"\u0120pus":1561,"\u0120push":2676,"\u0120pushed":2041,"\u0120pushing":2851,"\u0120put":577,"\u0120puts":1961,"\u0120puzz":2616,"\u0120puzzle":3180,"\u0120qu":711,"\u0120queen":1993,"\u0120quest":3122,"\u0120questions":3781,"\u0120quick":1012,"\u0120quickly":1059,"\u0120quiet":1570,"\u0120quietly":3733,"\u0120quit":3294,"\u0120quite":3943,"\u0120r":328,"\u0120ra":822,"\u0120rabbit":1073,"\u0120racc":3953,"\u0120raccoon":4071,"\u0120race":1750,"\u0120raced":3698,"\u0120radi":3248,"\u0120radio":3375,"\u0120raft":3697,"\u0120rain":1203,"\u0120rainb":2312,"\u0120rainbow":2488,"\u0120rake":2930,"\u0120ran":544,"\u0120rare":2931,"\u0120razor":2223,"\u0120re":411,"\u0120reac":3456,"\u0120reach":2152,"\u0120reached":1313,"\u0120reaches":4053,"\u0120read":1335,"\u0120reading":2994,"\u0120ready":1175,"\u0120real":1079,"\u0120realised":3510,"\u0120realized":1421,"\u0120really":1404,"\u0120rec":2805,"\u0120rece":3454,"\u0120reco":3099,"\u0120recogn":3190,"\u0120recognized":3782,"\u0120record":3031,"\u0120red":861,"\u0120ref":3452,"\u0120refused":3655,"\u0120regular":3263,"\u0120rel":1211,"\u0120relax":2230,"\u0120relaxed":4028,"\u0120reliable":2313,"\u0120relieved":1856,"\u0120rem":913,"\u0120remain":3703,"\u0120remem":1082,"\u0120remember":1144,"\u0120remembered":1484,"\u0120remembers":3511,"\u0120remind":2224,"\u0120reminded":2747,"\u0120repe":2207,"\u0120repeat":3760,"\u0120repeats":2864,"\u0120repl":1239,"\u0120replied":1308,"\u0120requ":3455,"\u0120request":3792,"\u0120res":3453,"\u0120resp":1954,"\u0120respect":2131,"\u0120rest":1433,"\u0120rested":3998,"\u0120retur":2110,"\u0120returned":2566,"\u0120reve":3262,"\u0120revealed":4048,"\u0120rhinoc":3085,"\u0120rhinoceros":3189,"\u0120ri":1349,"\u0120ribb":3138,"\u0120ribbons":4042,"\u0120rice":2932,"\u0120rich":2996,"\u0120rid":1872,"\u0120riddle":3747,"\u0120ride":1949,"\u0120riding":3342,"\u0120right":1237,"\u0120ring":2353,"\u0120ringing":4031,"\u0120river":1857,"\u0120ro":538,"\u0120road":2451,"\u0120roared":3920,"\u0120rob":2215,"\u0120robot":2399,"\u0120rock":1192,"\u0120rocket":2841,"\u0120rocks":1998,"\u0120roll":1510,"\u0120rolled":2089,"\u0120roof":2438,"\u0120room":745,"\u0120rope":2147,"\u0120rose":2452,"\u0120rough":3878,"\u0120round":2278,"\u0120ru":1028,"\u0120rub":3311,"\u0120rubb":2716,"\u0120rubbed":2717,"\u0120rubbing":3557,"\u0120rubs":2980,"\u0120rude":2308,"\u0120rug":2929,"\u0120ruined":2547,"\u0120run":681,"\u0120running":1265,"\u0120runs":1607,"\u0120rushed":2685,"\u0120s":260,"\u0120sa":299,"\u0120sack":1700,"\u0120sad":602,"\u0120sadly":3480,"\u0120saf":2066,"\u0120safe":1087,"\u0120safely":2862,"\u0120safer":4022,"\u0120said":327,"\u0120sail":1403,"\u0120sailed":2724,"\u0120sailor":2850,"\u0120sal":3240,"\u0120salad":4045,"\u0120same":1664,"\u0120sand":1563,"\u0120sandbox":3527,"\u0120sandw":2173,"\u0120sandwich":3757,"\u0120sandwiches":2745,"\u0120sang":2679,"\u0120sat":1424,"\u0120sauce":3241,"\u0120save":2921,"\u0120saved":3630,"\u0120saving":2922,"\u0120saw":417,"\u0120say":801,"\u0120saying":2540,"\u0120says":485,"\u0120sc":537,"\u0120scar":3109,"\u0120scare":3274,"\u0120scared":662,"\u0120scarf":3368,"\u0120scary":1753,"\u0120scatter":3919,"\u0120sch":1634,"\u0120school":1650,"\u0120sciss":3673,"\u0120scissors":3805,"\u0120scr":2960,"\u0120scre":2157,"\u0120scream":2607,"\u0120screamed":2397,"\u0120se":414,"\u0120sea":1955,"\u0120sear":1452,"\u0120search":1827,"\u0120searched":2318,"\u0120searching":2733,"\u0120seat":2945,"\u0120seco":3659,"\u0120second":3803,"\u0120secret":1392,"\u0120see":495,"\u0120seed":2285,"\u0120seeds":4029,"\u0120seek":2078,"\u0120seeker":4024,"\u0120seem":1456,"\u0120seemed":1712,"\u0120seen":1063,"\u0120sees":1104,"\u0120sel":2506,"\u0120selfish":2569,"\u0120sell":3898,"\u0120send":3604,"\u0120sent":3603,"\u0120separ":3100,"\u0120separated":3780,"\u0120ser":2505,"\u0120serious":3174,"\u0120set":1541,"\u0120sett":3147,"\u0120sh":374,"\u0120shadow":3892,"\u0120shadows":3893,"\u0120shake":2940,"\u0120shakes":3449,"\u0120shaking":3652,"\u0120shape":3891,"\u0120shapes":1791,"\u0120share":877,"\u0120shared":1751,"\u0120sharing":3450,"\u0120shark":3448,"\u0120sharp":2442,"\u0120she":335,"\u0120shel":3088,"\u0120shelf":3642,"\u0120shin":829,"\u0120shine":2800,"\u0120shining":2165,"\u0120shiny":901,"\u0120shirt":1985,"\u0120sho":1303,"\u0120shocked":3095,"\u0120shoes":1517,"\u0120shone":3094,"\u0120shook":1952,"\u0120shoot":2989,"\u0120shooting":3363,"\u0120shop":1984,"\u0120shopkeep":2562,"\u0120shopkeeper":2574,"\u0120shore":2284,"\u0120short":3260,"\u0120should":934,"\u0120shoulder":3965,"\u0120shout":1069,"\u0120shouted":1197,"\u0120show":748,"\u0120showed":1266,"\u0120showing":2164,"\u0120shows":2828,"\u0120shr":1790,"\u0120shrimp":2238,"\u0120shut":3890,"\u0120shy":2283,"\u0120sick":2337,"\u0120side":1616,"\u0120sig":1288,"\u0120sighed":2845,"\u0120sight":2899,"\u0120sign":1576,"\u0120signed":3720,"\u0120sil":3407,"\u0120silly":1635,"\u0120silver":3571,"\u0120simp":3839,"\u0120simple":4063,"\u0120since":3841,"\u0120sing":1216,"\u0120singing":2035,"\u0120sings":2771,"\u0120sink":3209,"\u0120sip":3605,"\u0120sir":3208,"\u0120sister":1682,"\u0120sit":1657,"\u0120sitting":2052,"\u0120size":3408,"\u0120sk":666,"\u0120skill":3937,"\u0120skin":2218,"\u0120skip":2160,"\u0120skipped":2972,"\u0120skipping":3939,"\u0120skirt":3291,"\u0120skull":3938,"\u0120sky":820,"\u0120sl":735,"\u0120sleep":1180,"\u0120sleeping":2720,"\u0120sleepy":2034,"\u0120slid":2373,"\u0120slide":1168,"\u0120slides":3170,"\u0120slipped":3494,"\u0120slow":1252,"\u0120slowly":1516,"\u0120sm":381,"\u0120small":729,"\u0120smaller":2463,"\u0120smart":1729,"\u0120smell":1304,"\u0120smelled":2990,"\u0120smells":3522,"\u0120smelly":2232,"\u0120smil":442,"\u0120smile":947,"\u0120smiled":493,"\u0120smiles":1305,"\u0120smiling":1878,"\u0120smo":1638,"\u0120smoke":3331,"\u0120smooth":1890,"\u0120sn":899,"\u0120snack":1645,"\u0120snacks":2480,"\u0120snee":3304,"\u0120snow":1796,"\u0120snuggled":3305,"\u0120so":341,"\u0120soar":3643,"\u0120sock":3442,"\u0120sofa":3644,"\u0120soft":1350,"\u0120sol":2069,"\u0120sold":2798,"\u0120soldiers":3030,"\u0120solve":3159,"\u0120solved":4023,"\u0120some":510,"\u0120someone":1283,"\u0120somet":521,"\u0120something":539,"\u0120sometimes":1643,"\u0120somewhere":3668,"\u0120song":1425,"\u0120songs":2169,"\u0120soon":871,"\u0120sorry":696,"\u0120sort":2772,"\u0120sorts":3184,"\u0120sound":1225,"\u0120sounded":2625,"\u0120sounds":2036,"\u0120soup":1836,"\u0120sour":2338,"\u0120sp":439,"\u0120space":3905,"\u0120spade":3463,"\u0120spag":3103,"\u0120spaghetti":3191,"\u0120spark":1640,"\u0120sparkly":2390,"\u0120spe":1877,"\u0120special":648,"\u0120speed":2240,"\u0120spend":2948,"\u0120spent":2154,"\u0120spicy":2529,"\u0120spider":2020,"\u0120spill":2949,"\u0120spin":2211,"\u0120spinning":3761,"\u0120spit":3462,"\u0120spl":1453,"\u0120splas":2627,"\u0120splash":1926,"\u0120splashed":3181,"\u0120split":3728,"\u0120spo":2360,"\u0120spoke":2749,"\u0120spong":3904,"\u0120sponge":4068,"\u0120spoon":1509,"\u0120spot":1529,"\u0120spotted":2171,"\u0120spr":2076,"\u0120spray":3347,"\u0120spread":2443,"\u0120spun":3903,"\u0120squ":1153,"\u0120square":3317,"\u0120squash":2122,"\u0120squee":3980,"\u0120squirrel":1822,"\u0120st":333,"\u0120stable":3252,"\u0120stack":3087,"\u0120stairs":3640,"\u0120stamp":2523,"\u0120stand":2068,"\u0120standing":2565,"\u0120star":2356,"\u0120stars":1787,"\u0120start":531,"\u0120started":569,"\u0120starting":3672,"\u0120starts":2214,"\u0120statue":3641,"\u0120stay":865,"\u0120stayed":1548,"\u0120ste":1379,"\u0120step":2797,"\u0120stepped":1552,"\u0120stick":1116,"\u0120sticker":3316,"\u0120stickers":2623,"\u0120sticks":2228,"\u0120still":896,"\u0120stir":2522,"\u0120stirs":3771,"\u0120sto":1047,"\u0120stone":1980,"\u0120stones":2524,"\u0120stood":2279,"\u0120stop":1238,"\u0120stopped":1130,"\u0120stops":3319,"\u0120stor":965,"\u0120store":1380,"\u0120stories":1708,"\u0120storm":2305,"\u0120story":1371,"\u0120stove":3710,"\u0120str":684,"\u0120strange":1419,"\u0120stranger":2459,"\u0120straw":3639,"\u0120strawber":3801,"\u0120stre":1844,"\u0120stream":2934,"\u0120street":2175,"\u0120strength":3745,"\u0120stret":2439,"\u0120stretch":3769,"\u0120stretched":3770,"\u0120string":2536,"\u0120strong":948,"\u0120stronger":2030,"\u0120stu":2355,"\u0120stuck":2067,"\u0120study":2748,"\u0120stuff":3440,"\u0120stumbled":2935,"\u0120stupid":3880,"\u0120su":1043,"\u0120subway":2549,"\u0120suc":3972,"\u0120such":1765,"\u0120suddenly":1901,"\u0120sugar":3060,"\u0120sugg":3840,"\u0120suitc":2621,"\u0120suitcase":2753,"\u0120summer":3210,"\u0120sun":726,"\u0120sunny":2162,"\u0120sunrise":3690,"\u0120sunset":3689,"\u0120sunsh":1922,"\u0120sunshine":1931,"\u0120super":3709,"\u0120supp":3312,"\u0120sur":2419,"\u0120sure":1199,"\u0120surp":892,"\u0120surpr":895,"\u0120surprise":1267,"\u0120surprised":1370,"\u0120surrender":4032,"\u0120sw":674,"\u0120swam":2707,"\u0120sweet":1091,"\u0120sweetheart":3512,"\u0120sweetie":3314,"\u0120swim":1457,"\u0120swimming":2386,"\u0120swims":4000,"\u0120swing":1644,"\u0120swinging":4006,"\u0120swings":2219,"\u0120sy":3838,"\u0120t":258,"\u0120table":1446,"\u0120tail":1361,"\u0120tak":2895,"\u0120take":647,"\u0120taken":3034,"\u0120takes":1656,"\u0120taking":1937,"\u0120tal":1161,"\u0120talk":1319,"\u0120talked":2839,"\u0120talking":2847,"\u0120tall":1386,"\u0120taller":3140,"\u0120tank":3059,"\u0120tape":2098,"\u0120task":2898,"\u0120tast":1309,"\u0120taste":2233,"\u0120tasted":2087,"\u0120tasty":2991,"\u0120taught":2416,"\u0120te":796,"\u0120tea":2465,"\u0120teac":1316,"\u0120teach":2298,"\u0120teacher":1341,"\u0120tears":2829,"\u0120teasing":3949,"\u0120teddy":1615,"\u0120teeth":2466,"\u0120teles":3696,"\u0120telescope":3808,"\u0120tell":1123,"\u0120tells":2309,"\u0120ten":3404,"\u0120tent":2894,"\u0120ter":3403,"\u0120terrible":4050,"\u0120th":305,"\u0120than":614,"\u0120thank":1264,"\u0120thanked":795,"\u0120thankful":2722,"\u0120thanks":3520,"\u0120that":357,"\u0120the":263,"\u0120their":448,"\u0120them":435,"\u0120themselves":3264,"\u0120then":588,"\u0120there":413,"\u0120these":2509,"\u0120they":366,"\u0120thick":3244,"\u0120thief":3633,"\u0120thin":2594,"\u0120thing":1312,"\u0120things":622,"\u0120think":1023,"\u0120thinking":3708,"\u0120thinks":1515,"\u0120thirst":3632,"\u0120thirsty":3798,"\u0120this":708,"\u0120though":2275,"\u0120thought":680,"\u0120thr":1015,"\u0120thre":1724,"\u0120three":1134,"\u0120threw":1772,"\u0120through":1231,"\u0120throw":2473,"\u0120throws":3506,"\u0120thumb":2791,"\u0120tick":2413,"\u0120ticket":3767,"\u0120tid":2260,"\u0120tidy":2325,"\u0120tie":2414,"\u0120tied":2896,"\u0120tight":1558,"\u0120tightly":3008,"\u0120tim":402,"\u0120time":408,"\u0120times":2802,"\u0120tin":2051,"\u0120tiny":2132,"\u0120tired":1110,"\u0120to":267,"\u0120toast":2775,"\u0120today":1804,"\u0120together":590,"\u0120told":754,"\u0120tomor":2669,"\u0120tomorrow":2754,"\u0120too":436,"\u0120took":651,"\u0120top":1346,"\u0120torn":3608,"\u0120tou":1187,"\u0120touch":1396,"\u0120touched":2311,"\u0120toug":3063,"\u0120tough":3188,"\u0120tow":953,"\u0120towards":1673,"\u0120towel":2620,"\u0120tower":1738,"\u0120towers":3705,"\u0120town":2301,"\u0120toy":530,"\u0120toys":685,"\u0120tr":635,"\u0120tra":1343,"\u0120trade":2613,"\u0120train":2556,"\u0120trap":2995,"\u0120trash":3137,"\u0120travel":3989,"\u0120tray":3485,"\u0120tre":1055,"\u0120treasure":1766,"\u0120treasures":3152,"\u0120treat":1861,"\u0120treats":2734,"\u0120tree":712,"\u0120trees":1407,"\u0120tri":1557,"\u0120triangle":3007,"\u0120tried":811,"\u0120tries":2897,"\u0120trip":2319,"\u0120trophy":3286,"\u0120trou":2216,"\u0120trouble":2746,"\u0120troubled":4027,"\u0120truck":836,"\u0120trucks":1820,"\u0120true":2705,"\u0120trunk":2821,"\u0120trust":2455,"\u0120try":832,"\u0120trying":1628,"\u0120tug":3405,"\u0120tummy":3602,"\u0120tun":2412,"\u0120tuna":2641,"\u0120tur":1056,"\u0120turkey":3313,"\u0120turn":1482,"\u0120turned":1767,"\u0120turns":1828,"\u0120turt":2415,"\u0120turtle":2493,"\u0120tw":707,"\u0120tweet":3491,"\u0120twig":3121,"\u0120twigs":3369,"\u0120twins":1883,"\u0120twirl":3942,"\u0120twist":2026,"\u0120twisted":3158,"\u0120two":907,"\u0120u":326,"\u0120ugly":2794,"\u0120umb":3637,"\u0120umbrella":3800,"\u0120un":1103,"\u0120under":927,"\u0120underst":1294,"\u0120understand":1485,"\u0120understood":2723,"\u0120uni":2550,"\u0120uniform":3979,"\u0120unique":2869,"\u0120unite":3514,"\u0120unl":3131,"\u0120unt":797,"\u0120until":807,"\u0120unusual":2837,"\u0120up":360,"\u0120upon":462,"\u0120upset":1983,"\u0120upstairs":3884,"\u0120ur":2596,"\u0120urged":4036,"\u0120us":821,"\u0120use":1115,"\u0120used":1394,"\u0120useful":2983,"\u0120using":3127,"\u0120v":609,"\u0120val":2292,"\u0120valuable":2865,"\u0120van":3481,"\u0120vase":3483,"\u0120ve":1322,"\u0120vegetable":2382,"\u0120vegetables":2403,"\u0120vehic":2554,"\u0120vehicle":3028,"\u0120veil":2381,"\u0120velv":3987,"\u0120velvet":4074,"\u0120very":395,"\u0120vest":3114,"\u0120vi":2083,"\u0120vide":2610,"\u0120video":3179,"\u0120vie":3482,"\u0120view":3577,"\u0120village":2611,"\u0120vine":2454,"\u0120viol":2179,"\u0120violin":2243,"\u0120vis":1436,"\u0120visit":1537,"\u0120visited":3999,"\u0120vo":1021,"\u0120voice":1083,"\u0120volc":3971,"\u0120volcano":4073,"\u0120vroom":3933,"\u0120w":261,"\u0120wa":271,"\u0120wag":2193,"\u0120wagon":3165,"\u0120wags":3612,"\u0120waist":3414,"\u0120wait":984,"\u0120waited":1658,"\u0120waiting":2377,"\u0120wake":2903,"\u0120wal":601,"\u0120walk":751,"\u0120walked":918,"\u0120walking":1025,"\u0120walks":3124,"\u0120wall":1427,"\u0120walls":3003,"\u0120wand":3847,"\u0120wander":2009,"\u0120wandered":2860,"\u0120want":377,"\u0120wanted":452,"\u0120wants":1390,"\u0120war":1782,"\u0120warm":1102,"\u0120warned":3338,"\u0120warrior":3013,"\u0120was":282,"\u0120wash":2196,"\u0120wasn":1662,"\u0120wat":715,"\u0120watch":1002,"\u0120watched":1033,"\u0120watching":2117,"\u0120water":703,"\u0120wave":3848,"\u0120waved":1273,"\u0120waves":3415,"\u0120waving":3849,"\u0120way":845,"\u0120ways":3300,"\u0120we":356,"\u0120weak":2526,"\u0120weal":3443,"\u0120wealthy":4052,"\u0120wear":1351,"\u0120wearing":2383,"\u0120weather":2440,"\u0120week":2799,"\u0120weep":3882,"\u0120weigh":3647,"\u0120weighed":3256,"\u0120weight":3255,"\u0120weird":3091,"\u0120welc":1687,"\u0120welcome":1830,"\u0120well":2280,"\u0120went":478,"\u0120were":422,"\u0120wet":1542,"\u0120wh":394,"\u0120what":546,"\u0120whe":2339,"\u0120wheel":3353,"\u0120wheels":3765,"\u0120when":578,"\u0120whenever":2703,"\u0120where":1101,"\u0120which":1986,"\u0120while":1088,"\u0120whis":2151,"\u0120whisper":3162,"\u0120whispered":3163,"\u0120whist":3261,"\u0120whistle":4047,"\u0120white":1476,"\u0120who":589,"\u0120whole":2159,"\u0120why":1210,"\u0120wide":2420,"\u0120wild":2664,"\u0120will":701,"\u0120win":1973,"\u0120wind":937,"\u0120window":1761,"\u0120windows":3505,"\u0120wings":2192,"\u0120wip":2422,"\u0120wiped":3768,"\u0120wis":2507,"\u0120wise":2421,"\u0120wish":2340,"\u0120wished":1345,"\u0120wishes":3027,"\u0120witch":2139,"\u0120with":339,"\u0120without":1981,"\u0120wo":825,"\u0120woke":1851,"\u0120wolf":2830,"\u0120wom":3211,"\u0120woman":3371,"\u0120won":1636,"\u0120wonder":980,"\u0120wondered":1764,"\u0120wonderful":1329,"\u0120wood":1412,"\u0120woods":1770,"\u0120wor":545,"\u0120word":2961,"\u0120words":1958,"\u0120wore":2508,"\u0120work":1035,"\u0120worked":1511,"\u0120working":3507,"\u0120world":1136,"\u0120worried":1816,"\u0120worries":3471,"\u0120worry":1336,"\u0120would":524,"\u0120wouldn":2364,"\u0120wr":946,"\u0120wra":1974,"\u0120wrapped":2737,"\u0120write":1854,"\u0120wrong":1338,"\u0120wrote":2543,"\u0120y":324,"\u0120yach":2352,"\u0120yacht":2400,"\u0120yard":1913,"\u0120yaw":2684,"\u0120yawned":3357,"\u0120ye":1114,"\u0120year":1996,"\u0120years":1340,"\u0120yell":1095,"\u0120yelled":3513,"\u0120yellow":1232,"\u0120yes":1475,"\u0120yet":3435,"\u0120yoga":3436,"\u0120you":345,"\u0120young":1788,"\u0120your":617,"\u0120yours":2820,"\u0120yourself":2969,"\u0120yummy":1228,"\u0120z":1423,"\u0120zeb":3326,"\u0120zebra":3382,"\u0120zip":3325,"\u0120zipping":3997,"\u0120zoo":3002,"\u0120zoom":3727,"\u0120\u00e2\u0122":3206,"\u0120\u00e2\u0122\u0135":3565,"\u0120\u00e2\u0122\u013e":831,"\u0120\u010a":3834,"\u0121":222,"\u0122":223,"\u0123":224,"\u0124":225,"\u0125":226,"\u0126":227,"\u0127":228,"\u0128":229,"\u0129":230,"\u012a":231,"\u012b":232,"\u012c":233,"\u012d":234,"\u012e":235,"\u012f":236,"\u0130":237,"\u0131":238,"\u0132":239,"\u0133":240,"\u0134":241,"\u0135":242,"\u0136":243,"\u0137":244,"\u0138":245,"\u0139":246,"\u013a":247,"\u013b":248,"\u013c":249,"\u013d":250,"\u013e":251,"\u013f":252,"\u0140":253,"\u0141":254,"\u0142":255,"\u0143":256}},"normalizer":null,"padding":null,"post_processor":{"add_prefix_space":true,"trim_offsets":false,"type":"ByteLevel","use_regex":true},"pre_tokenizer":{"add_prefix_space":false,"trim_offsets":true,"type":"ByteLevel","use_regex":true},"truncation":null,"version":"1.0"}