{"added_tokens":[{"content":"<unk>","id":0,"lstrip":false,"normalized":false,"rstrip":false,"single_word":false,"special":true}],"decoder":{"add_prefix_space":true,"trim_offsets":true,"type":"ByteLevel","use_regex":true},"model":{"byte_fallback":false,"continuing_subword_prefix":null,"dropout":null,"end_of_word_suffix":null,"fuse_unk":false,"ignore_merges":false,"merges":[["\u0120","t"],["\u0120","a"],["h","e"],["i","n"],["\u0120t","he"],["e","r"],["\u0120","o"],["\u0120","s"],["\u0120",","],["\u0120","w"],["r","e"],["o","n"],["\u0120","c"],["e","d"],["u","n"],["\u0120","f"],["\u0120","."],["a","t"],["o","r"],["\u0120","b"],["i","t"],["e","n"],["e","s"],["\u0120","p"],["\u0120","in"],["\u0120a","n"],["a","n"],["\u0120o","f"],["\u0120","m"],["in","g"],["a","l"],["un","k"],["\u0120","<"],["a","r"],["i","s"],["\u0120an","d"],["\u0120","d"],["a","s"],["\u0120","g"],["\u0120t","o"],["r","o"],["\u0120","h"],["i","on"],["i","c"],["\u0120","l"],["\u0120","re"],["\u0120","n"],["\u0120t","h"],["\u0120","e"],["\u0120","="],["i","l"],["en","t"],["a","c"],["o","u"],["i","r"],["a","m"],["\u0120","1"],["\u0120","@"],["o","m"],["l","y"],["\u0120w","as"],["l","e"],["s","t"],["\u0120f","or"],["\u0120","\""],["\u0120b","e"],["i","v"],["o","t"],["o","d"],["\u0120a","s"],["\u0120d","e"],["\u0120s","t"],["at","ion"],["a","y"],["\u0120","he"],["a","d"],["it","h"],["\u0120","'"],["\u0120w","ith"],["\u0120o","n"],["-","@"],["\u0120@","-@"],["i","g"],["i","m"],["c","t"],["t","er"],["\u0120a","l"],["s","e"],["i","d"],["\u0120th","at"],["u","r"],["o","l"],["t","h"],["o","w"],["u","l"],["u","m"],["\u0120w","h"],["\u0120a","t"],["\u0120s","e"],["i","es"],["r","a"],["\u0120c","on"],["\u0120g","od"],["\u0120","2"],["e","l"],["er","e"],["u","s"],["u","t"],["c","e"],["\u0120c","h"],["\u0120w","ere"],["v","er"],["ro","m"],["he","r"],["e","t"],["p","t"],["\u0120b","y"],["\u01201","9"],["\u0120","it"],["i","f"],["\u0120","is"],["\u0120",")"],["c","h"],["\u0120","("],["\u0120","r"],["is","t"],["an","d"],["\u0120","j"],["e","m"],["\u0120c","om"],["\u0120","k"],["\u0120p","l"],["r","i"],["er","s"],["\u0120","v"],["\u0120o","r"],["l","d"],["a","in"],["am","e"],["\u0120","un"],["\u0120a","r"],["es","s"],["p","e"],["\u0120s","u"],["at","e"],["\u0120f","rom"],["a","v"],["0","0"],["ac","k"],["o","c"],["\u0120m","o"],["\u0120god","s"],["i","an"],["or","t"],["re","s"],["\u0120","ro"],["\u0120n","e"],["\u0120a","re"],["l","u"],["o","s"],["al","l"],["ar","t"],["ig","h"],["re","d"],["\u0120a","ir"],["\u0120w","or"],["i","p"],["\u0120","\u00e2"],["at","ed"],["a","g"],["g","h"],["es","t"],["\u0120\u00e2","\u0122"],["\u0120s","h"],["it","ies"],["\u0120p","ro"],["iv","e"],["o","p"],["ic","h"],["an","t"],["\u0120",";"],["un","d"],["\u0120he","r"],["\u0120s","he"],["g","y"],["\u0120the","ir"],["i","e"],["q","u"],["\u0120h","is"],["i","al"],["in","e"],["\u0120e","x"],["it","y"],["a","k"],["ar","d"],["t","her"],["\u0120","u"],["\u0120","y"],["\u0120t","r"],["\u0120wh","ich"],["a","b"],["\u0120e","gy"],["\u0120egy","pt"],["l","es"],["it","ion"],["en","d"],["\u0120n","ot"],["on","g"],["\u0120pl","ay"],["igh","t"],["an","s"],["\u0120al","l"],["f","t"],["ar","y"],["\u0120h","ad"],["\u0120t","e"],["\u0120p","er"],["\u0120l","e"],["ig","n"],["a","p"],["d","er"],["\u0120p","o"],["m","ent"],["\u0120con","t"],["p","ort"],["ou","ld"],["\u0120de","ities"],["ra","ft"],["\u0120\u00e2\u0122","\u0135"],["\u0120o","ther"],["\u0120th","is"],["\u0120m","an"],["ation","s"],["or","y"],["\u0120b","ut"],["ou","s"],["om","e"],["d","ing"],["\u0120a","f"],["\u0120g","ame"],["t","s"],["\u0120egypt","ian"],["p","er"],["\u0120w","he"],["\u0120c","o"],["\u0120f","l"],["\u0120the","y"],["c","or"],["r","it"],["\u0120t","w"],["il","l"],["\u01202","0"],["\u0120com","m"],["i","a"],["\u0120b","u"],["\u0120d","es"],["\u0120wh","o"],["g","e"],["ou","r"],["\u0120the","m"],["al","ly"],["b","er"],["e","ar"],["\u0120c","l"],["t","le"],["st","r"],["\u0120on","e"],["id","e"],["av","e"],["s","o"],["\u0120t","im"],["\u0120c","a"],["ar","k"],["e","ct"],["\u0120a","c"],["\u0120a","ct"],["\u0120in","c"],["ou","gh"],["\u0120a","p"],["\u0120c","ol"],["\u0120p","art"],["as","on"],["\u0120in","t"],["\u0120al","so"],["\u0120","3"],["\u0120","i"],["\u0120","im"],["\u0120f","ir"],["\u0120for","m"],["\u0120af","ter"],["\u0120tw","o"],["c","raft"],["an","ce"],["ing","s"],["ion","s"],["\u0120air","craft"],["he","d"],["\u0120y","ear"],["\u0120fir","st"],["f","er"],["u","e"],["\u0120",":"],["\u0120a","m"],["\u0120g","o"],["\u0120h","as"],["ou","t"],["\u0120bu","il"],["f","or"],["\u0120","4"],["\u0120a","b"],["ro","u"],["u","re"],["er","v"],["\u0120p","r"],["\u0120re","p"],["\u01201","8"],["c","k"],["\u0120","en"],["\u0120d","iv"],["il","e"],["ac","h"],["ul","l"],["k","e"],["o","re"],["\u0120","us"],["\u0120a","d"],["\u0120the","se"],["as","t"],["\u0120l","it"],["\u0120re","g"],["ac","t"],["\u0120it","s"],["\u0120com","p"],["\u0120te","am"],["\u012020","1"],["\u0120s","ome"],[",","@"],["i","ous"],["am","es"],["\u0120@",",@"],["d","u"],["v","el"],["\u0120o","ver"],["\u0120re","l"],["\u0120ne","w"],["\u0120f","e"],["\u0120b","l"],["\u0120h","ave"],["o","g"],["\u0120m","a"],["\u0120g","a"],["ul","t"],[".","@"],["\u0120@",".@"],["p","h"],["ur","ing"],["h","ip"],["o","k"],["\u0120","5"],["\u0120the","re"],["\u0120s","c"],["ad","e"],["k","y"],["r","on"],["\u0120o","ut"],["re","at"],["\u0120mo","re"],["\u0120mo","st"],["res","ent"],["i","z"],["\u0120c","an"],["as","s"],["\u0120e","v"],["\u0120wor","k"],["\u0120tim","e"],["i","re"],["\u0120a","g"],["\u0120s","p"],["re","e"],["\u0120to","w"],["\u0120ch","ar"],["\u0120f","er"],["\u0120in","ter"],["al","s"],["ow","er"],["\u0120u","p"],["f","f"],["n","ing"],["u","st"],["v","e"],["v","ed"],["\u0120s","pe"],["\u0120d","uring"],["\u0120re","m"],["\u0120be","c"],["\u01202","00"],["ation","al"],["\u0120lit","tle"],["i","ation"],["t","ed"],["\u0120c","ould"],["\u0120of","f"],["\u0120m","e"],["is","h"],["\u0120as","s"],["\u0120se","ason"],["\u0120v","al"],["\u0120whe","n"],["c","ed"],["en","ce"],["c","on"],["c","ess"],["i","ed"],["r","y"],["\u0120e","ar"],["ac","e"],["um","b"],["\u0120wor","ld"],["\u0120wh","ile"],["el","l"],["ag","e"],["e","en"],["\u0120","7"],["\u0120","ra"],["\u0120a","v"],["re","n"],["\u0120p","re"],["\u0120h","um"],["ul","ar"],["ri","a"],["\u0120man","y"],["\u0120int","o"],["\u0120d","is"],["ro","und"],["\u0120re","s"],["\u0120th","an"],["ent","s"],["ot","h"],["ow","n"],["rou","gh"],["\u0120div","ine"],["ky","ria"],["\u0120val","kyria"],["b","um"],["p","l"],["\u0120o","b"],["\u0120o","per"],["\u0120s","l"],["\u0120s","o"],["\u0120c","ent"],["\u0120re","cor"],["\u0120n","o"],["\u0120al","bum"],["et","s"],["for","m"],["\u0120s","a"],["\u0120w","ar"],["\u0120f","in"],["\u0120f","our"],["or","s"],["as","ed"],["ic","k"],["ac","ter"],["\u0120k","ing"],["\u0120char","acter"],["a","ir"],["u","b"],["\u0120w","e"],["at","er"],["is","s"],["\u0120ro","ck"],["r","u"],["t","en"],["\u0120b","lu"],["\u0120be","t"],["ri","b"],["\u0120ar","m"],["\u0120su","ch"],["ab","le"],["\u0120tow","er"],["it","e"],["it","ed"],["\u0120p","il"],["\u0120g","en"],["ay","s"],["\u0120on","ly"],["\u0120un","der"],["ark","er"],["\u0120inc","lu"],["\u0120pil","ot"],["i","x"],["s","en"],["\u0120l","i"],["ak","e"],["h","l"],["\u0120t","em"],["\u0120a","er"],["\u0120s","y"],["\u0120f","o"],["\u012019","9"],["\u0120j","ack"],["\u0120buil","ding"],["\u0120bl","ack"],["\u0120","8"],["\u0120c","ull"],["\u0120b","o"],["\u0120in","d"],["ic","t"],["ic","al"],["\u0120be","ing"],["\u0120at","t"],["\u0120con","s"],["if","ic"],["\u0120cull","en"],["n","ed"],["w","een"],["\u0120s","m"],["\u0120b","arker"],["\u0120th","rough"],["ou","th"],["\u0120j","o"],["\u0120rep","resent"],["\u0120blu","e"],["\u0120bet","ween"],["\u0120tem","p"],["\u0120","6"],["\u0120w","in"],["on","s"],["\u0120m","y"],["\u0120be","en"],["\u0120po","in"],["\u0120col","umb"],["\u0120recor","d"],["\u0120jack","ets"],["e","z"],["f","ore"],["\u0120c","ar"],["\u0120h","ow"],["ic","les"],["\u0120re","t"],["\u0120be","l"],["\u0120de","p"],["\u012019","2"],["\u0120ar","sen"],["ard","s"],["\u0120arsen","al"],["c","ial"],["n","and"],["\u0120t","ra"],["\u0120a","u"],["\u0120g","l"],["\u0120g","ames"],["ot","her"],["\u0120de","vel"],["ct","ion"],["res","s"],["\u0120rel","ig"],["\u0120fer","nand"],["\u0120gen","er"],["\u0120devel","op"],["\u0120fernand","ez"],["l","ic"],["\u0120p","ers"],["\u0120m","il"],["\u0120m","ay"],["\u0120h","im"],["\u0120al","th"],["\u0120su","p"],["\u0120u","k"],["\u0120tr","ans"],["\u0120alth","ough"],["b","le"],["c","es"],["o","se"],["on","e"],["\u0120c","re"],["\u0120f","ol"],["at","es"],["is","hed"],["\u0120d","if"],["\u0120h","ist"],["il","d"],["ig","in"],["\u0120or","igin"],["\u0120ap","pe"],["\u0120li","ke"],["\u0120","est"],["\u0120s","ign"],["\u0120w","ould"],["\u0120f","ly"],["as","e"],["ic","e"],["\u0120e","m"],["\u0120e","ach"],["\u0120be","g"],["\u0120ch","ron"],["\u0120sh","ip"],["\u0120ca","re"],["\u012018","6"],["\u0120av","iation"],["\u0120columb","us"],["\u0120bel","ie"],["\u0120chron","icles"],["\u0120","end"],["\u0120m","ain"],["\u0120re","c"],["\u0120re","le"],["\u0120th","ree"],["\u0120de","f"],["se","l"],["\u0120se","con"],["pe","ct"],["00","0"],["ie","w"],["\u0120ab","out"],["\u0120secon","d"],["i","i"],["l","ed"],["\u0120o","p"],["\u0120s","outh"],["\u0120c","all"],["\u0120b","oth"],["\u0120n","hl"],["il","y"],["\u0120st","art"],["ay","er"],["ce","pt"],["\u0120ch","ild"],["\u0120k","n"],["\u0120des","ign"],["\u0120us","ed"],["\u0120hum","an"],["a","u"],["i","red"],["l","ow"],["\u0120","9"],["\u0120","qu"],["\u0120","000"],["\u0120s","erv"],["\u0120w","om"],["\u0120p","h"],["\u0120g","iv"],["\u0120be","fore"],["ol","d"],["\u0120ar","t"],["oc","k"],["\u0120play","ed"],["\u0120des","c"],["\u0120en","g"],["\u0120fol","low"],["\u0120a","w"],["\u0120s","ong"],["\u0120f","air"],["an","g"],["\u0120m","em"],["\u0120m","ade"],["ro","l"],["ro","w"],["\u0120l","oc"],["et","y"],["ain","ed"],["d","om"],["\u0120s","ur"],["\u0120b","at"],["\u0120b","ack"],["en","s"],["\u0120p","e"],["\u0120p","os"],["\u0120m","u"],["\u0120m","on"],["is","ed"],["\u0120h","or"],["\u0120l","ight"],["\u0120n","ational"],["am","p"],["iv","er"],["iv","ed"],["\u0120per","form"],["\u0120part","ic"],["\u0120ag","ain"],["\u0120spe","c"],["u","d"],["he","s"],["\u0120w","rit"],["\u0120p","ub"],["\u0120m","iss"],["is","e"],["as","k"],["\u0120g","un"],["\u0120l","ater"],["\u0120n","at"],["\u0120he","av"],["if","e"],["\u0120ar","k"],["\u0120tr","ad"],["\u0120cont","in"],["\u0120ear","ly"],["a","h"],["a","w"],["o","od"],["\u0120","er"],["\u0120s","ing"],["\u0120b","ro"],["\u0120st","ate"],["\u012019","8"],["iz","ed"],["\u0120sl","ayer"],["\u0120sa","id"],["\u0120black","ie"],["\u0120sm","all"],["\u0120pers","on"],["p","ed"],["\u0120w","ay"],["at","ory"],["it","s"],["is","m"],["\u0120g","u"],["\u0120l","ar"],["\u01201","5"],["od","rom"],["\u0120de","ity"],["\u0120al","ong"],["\u0120whe","re"],["\u0120act","iv"],["\u0120ob","s"],["\u0120king","dom"],["\u0120aer","odrom"],["\u0120gl","id"],["a","il"],["i","el"],["o","un"],["p","os"],["v","em"],["\u0120","ed"],["\u0120","ent"],["\u0120t","er"],["in","ed"],["\u0120s","ch"],["\u0120s","ame"],["\u0120c","rit"],["\u0120f","r"],["\u0120b","rit"],["\u0120p","ort"],["\u0120p","ower"],["an","n"],["\u0120g","reat"],["\u0120h","igh"],["ic","s"],["\u0120re","v"],["um","ber"],["\u0120poin","ts"],["\u0120call","ed"],["j","ect"],["t","on"],["\u0120o","w"],["\u0120s","oc"],["\u0120c","al"],["at","h"],["\u0120in","v"],["an","k"],["\u0120m","us"],["is","ter"],["\u0120d","o"],["\u0120d","ist"],["\u0120l","os"],["\u0120re","ce"],["\u0120n","am"],["\u0120pro","du"],["ive","ly"],["\u0120cont","r"],["\u0120egyptian","s"],["\u0120fl","ight"],["\u0120cl","ass"],["\u0120reg","ul"],["\u0120jo","h"],["\u0120ret","ur"],["\u0120mil","it"],["\u0120wom","en"],["\u0120follow","ing"],["\u0120obs","erv"],["c","l"],["i","ety"],["l","ant"],["n","s"],["p","ro"],["s","ide"],["u","ed"],["\u0120w","ell"],["\u0120c","iv"],["\u0120f","am"],["at","ing"],["it","u"],["\u0120m","et"],["\u0120l","ic"],["\u0120n","umber"],["\u0120at","lant"],["\u0120se","t"],["\u0120or","der"],["\u0120\u00e2\u0122","\u0136"],["ans","as"],["\u0120go","ver"],["\u0120pre","v"],["\u0120oper","ations"],["\u0120inclu","d"],["\u0120my","th"],["\u0120fly","ing"],["\u0120again","st"],["\u0120ark","ansas"],["\u0120civ","il"],["d","s"],["d","ess"],["d","ition"],["l","ished"],["s","hip"],["er","cial"],["\u0120c","ro"],["\u0120p","ur"],["\u0120p","op"],["\u0120an","y"],["\u0120m","in"],["\u0120m","ar"],["\u0120g","r"],["\u0120g","re"],["\u0120e","le"],["\u0120god","dess"],["\u012019","1"],["\u0120le","ad"],["\u0120comm","ercial"],["\u0120im","port"],["\u0120buil","t"],["\u0120bec","ame"],["\u0120off","ic"],["\u0120pilot","s"],["\u0120gener","al"],["\u0120hist","ory"],["t","ain"],["er","ed"],["\u0120c","lu"],["\u0120an","other"],["\u0120l","o"],["\u0120l","ong"],["\u0120st","and"],["ct","or"],["\u0120se","ver"],["if","ied"],["\u0120tr","ack"],["ment","s"],["\u0120ass","oc"],["\u0120op","en"],["\u0120partic","ular"],["\u0120atlant","a"],["\u0120clu","b"],["\u0120sever","al"],["r","ing"],["\u0120","ver"],["in","t"],["\u0120s","er"],["re","ak"],["\u0120m","od"],["\u0120l","ive"],["\u0120th","ough"],["\u0120su","c"],["\u0120ex","p"],["\u0120co","un"],["\u0120pr","iv"],["\u0120ma","j"],["\u0120develop","ment"],["\u0120dif","fer"],["\u0120desc","rib"],["\u0120sing","le"],["\u0120brit","ish"],["\u0120joh","n"],["\u0120milit","ary"],["a","red"],["i","er"],["l","and"],["m","an"],["n","ect"],["\u0120t","ro"],["ed","er"],["at","her"],["en","g"],["\u0120in","st"],["an","ge"],["\u0120of","ten"],["\u0120d","raft"],["\u0120d","own"],["\u0120l","ist"],["\u0120with","in"],["ct","ed"],["\u0120con","nect"],["\u0120play","er"],["\u0120fl","ower"],["\u0120comm","and"],["\u0120ac","c"],["\u0120ma","x"],["\u0120fo","ot"],["\u0120bo","ok"],["\u0120temp","les"],["\u0120fair","ies"],["\u0120pe","op"],["\u0120prev","ious"],["\u0120maj","or"],["e","ver"],["i","od"],["s","s"],["t","y"],["u","red"],["\u0120","/"],["\u0120t","ur"],["\u0120a","round"],["in","s"],["in","ess"],["\u0120o","ld"],["\u0120f","il"],["\u0120p","rom"],["\u0120an","im"],["is","ion"],["\u0120d","ue"],["\u0120d","ire"],["\u0120g","rou"],["\u01201","2"],["\u0120con","f"],["\u012019","4"],["\u0120k","ings"],["\u0120ro","le"],["ag","es"],["\u0120per","iod"],["\u0120year","s"],["\u0120comp","et"],["\u0120how","ever"],["\u0120appe","ar"],["\u0120bat","tle"],["\u0120heav","en"],["\u0120trad","ition"],["\u0120mus","ic"],["\u0120rece","ived"],["\u0120gover","n"],["\u0120suc","cess"],["\u0120priv","ate"],["\u0120peop","le"],["\u0120grou","p"],["g","g"],["m","s"],["r","ay"],["r","ist"],["u","ally"],["in","d"],["in","ing"],["in","ce"],["\u0120c","er"],["\u0120in","f"],["\u0120l","ast"],["\u0120l","ife"],["\u0120re","al"],["\u0120re","qu"],["\u0120e","qu"],["\u0120ch","rist"],["pt","ed"],["\u0120pl","ace"],["end","ed"],["\u0120201","1"],["\u0120ev","en"],["rib","ut"],["\u0120relig","ious"],["\u0120origin","al"],["\u0120est","ab"],["\u0120care","er"],["\u0120soc","iety"],["\u0120import","ant"],["l","l"],["t","il"],["\u0120s","un"],["\u0120c","reat"],["or","th"],["\u0120p","resent"],["\u0120m","ask"],["as","h"],["\u0120g","am"],["\u0120to","ok"],["ion","al"],["\u0120n","ame"],["\u0120th","ir"],["ac","ed"],["ir","on"],["\u0120st","e"],["\u0120st","ar"],["\u0120st","ud"],["ri","ed"],["\u0120or","d"],["\u0120ne","ar"],["\u0120te","x"],["\u0120co","ver"],["\u0120am","un"],["\u0120go","al"],["\u0120rem","ain"],["\u0120inclu","ding"],["\u0120sup","port"],["\u0120beg","an"],["\u0120belie","ved"],["\u0120fr","an"],["\u0120fam","ily"],["\u0120assoc","iation"],["\u0120ser","ies"],["f","iel"],["v","en"],["v","es"],["\u0120the","n"],["or","k"],["\u0120d","ay"],["ic","an"],["\u0120e","as"],["\u01201","3"],["\u0120be","h"],["\u0120de","m"],["\u0120de","al"],["\u0120st","at"],["id","ed"],["ra","ph"],["\u012019","3"],["\u0120j","ust"],["\u0120com","b"],["\u0120su","b"],["os","ed"],["ag","ue"],["ak","ing"],["for","d"],["\u0120comp","le"],["\u0120relig","ion"],["\u0120trans","port"],["\u0120child","ren"],["\u0120giv","en"],["\u0120pub","lic"],["\u0120rev","iew"],["\u0120ow","n"],["\u0120inv","ol"],["\u0120differ","ent"],["\u0120fil","m"],["b","all"],["b","ia"],["d","on"],["n","e"],["y","ing"],["z","her"],["z","og"],["\u0120","rom"],["in","k"],["in","es"],["\u0120s","im"],["\u0120s","ince"],["\u0120in","str"],["al","e"],["\u0120d","id"],["ac","es"],["\u01201","7"],["st","em"],["\u0120he","l"],["\u0120he","ad"],["ter","s"],["\u0120is","s"],["\u0120r","itu"],["\u0120ro","und"],["\u0120sh","ot"],["op","s"],["\u0120tr","ade"],["\u0120comm","on"],["\u0120ca","a"],["\u0120character","s"],["\u0120sy","stem"],["\u0120fo","und"],["\u0120cons","id"],["\u0120rele","ased"],["\u0120loc","al"],["\u0120er","zher"],["\u0120activ","ities"],["\u0120offic","ial"],["\u0120gam","bia"],["\u0120thir","d"],["\u0120erzher","zog"],["a","re"],["b","r"],["c","er"],["f","ic"],["i","ble"],["n","er"],["o","red"],["s","p"],["t","ing"],["u","al"],["\u0120s","an"],["\u0120s","ix"],["\u0120s","ister"],["\u0120c","at"],["\u0120c","ity"],["\u0120f","un"],["\u0120f","if"],["\u0120b","and"],["\u0120b","est"],["\u0120p","at"],["\u0120p","red"],["\u0120in","ch"],["\u0120of","fer"],["\u0120n","av"],["\u0120n","ames"],["\u0120e","u"],["ou","se"],["\u01201","0"],["\u0120st","ated"],["ter","n"],["\u0120r","if"],["ist","ic"],["\u0120v","ar"],["\u0120un","ion"],["\u0120un","ited"],["\u0120pro","t"],["\u0120ex","t"],["\u0120all","ow"],["\u0120cont","rol"],["port","s"],["cor","ding"],["\u0120tim","es"],["\u0120ac","cording"],["ke","y"],["\u0120ad","dition"],["\u0120fe","at"],["\u0120ev","ents"],["\u0120hum","ans"],["sel","f"],["\u0120nat","ure"],["\u0120aerodrom","es"],["\u0120contr","act"],["\u0120describ","ed"],["\u0120foot","ball"],["\u0120tex","ts"],["b","ru"],["d","in"],["f","ul"],["l","ine"],["m","b"],["o","ol"],["r","id"],["s","ion"],["u","es"],["u","ary"],["x","t"],["\u0120","iron"],["\u0120t","ake"],["\u0120s","k"],["\u0120c","ame"],["un","e"],["\u0120f","oc"],["\u0120f","ive"],["\u0120b","as"],["en","se"],["\u0120p","res"],["\u0120an","n"],["\u0120m","ake"],["\u0120g","row"],["\u0120to","t"],["ic","es"],["\u0120l","ess"],["iv","es"],["\u0120st","r"],["ol","og"],["et","im"],["\u0120r","iver"],["\u0120pl","an"],["\u0120un","til"],["oc","key"],["\u0120wor","ship"],["\u0120pro","v"],["\u0120u","se"],["ab","or"],["\u0120i","ii"],["\u0120fe","bru"],["\u0120res","p"],["\u0120represent","ed"],["\u0120tra","ining"],["\u0120kn","own"],["\u0120mu","ch"],["\u0120hor","us"],["\u0120lar","ge"],["\u0120sch","ool"],["\u0120crit","ic"],["\u0120tro","ops"],["\u0120inf","lu"],["\u0120febru","ary"],["b","ers"],["d","ed"],["i","b"],["i","ent"],["o","st"],["u","p"],["\u0120","["],["\u0120","]"],["\u0120o","s"],["\u0120s","om"],["\u0120b","us"],["\u0120b","ased"],["\u0120p","ri"],["\u0120m","ult"],["\u0120m","other"],["ar","s"],["ro","ss"],["\u0120h","un"],["\u0120h","and"],["\u0120h","our"],["\u0120h","ockey"],["\u0120l","im"],["\u0120th","ose"],["\u0120e","l"],["\u0120e","ver"],["\u01201","1"],["\u0120de","ath"],["\u0120st","ory"],["\u0120st","ill"],["ur","y"],["\u01202","4"],["ch","ise"],["\u0120ne","xt"],["\u0120le","vel"],["\u0120le","ague"],["ap","s"],["\u0120po","und"],["\u0120them","e"],["\u0120inc","re"],["\u0120ap","pro"],["\u0120i","i"],["\u0120go","als"],["\u0120ma","at"],["\u0120no","vem"],["\u0120att","em"],["\u0120temp","le"],["\u0120au","th"],["\u0120est","im"],["\u0120belie","f"],["\u0120mon","th"],["\u0120contin","ued"],["\u0120nam","ed"],["\u0120pop","ular"],["\u0120coun","t"],["\u0120estab","lished"],["\u0120fran","chise"],["\u0120foc","us"],["\u0120novem","ber"],["e","or"],["g","ed"],["m","on"],["n","ational"],["o","y"],["o","ff"],["p","or"],["p","ite"],["t","e"],["u","res"],["w","ays"],["y","m"],["\u0120","0"],["\u0120s","ent"],["\u0120s","old"],["re","t"],["re","ad"],["\u0120c","ult"],["\u0120f","el"],["\u0120f","ather"],["or","n"],["\u0120p","ra"],["\u0120p","ain"],["\u0120p","ass"],["\u0120in","du"],["al","es"],["\u0120g","ot"],["\u0120h","ome"],["\u0120h","ouse"],["\u0120re","n"],["\u0120e","ff"],["ent","ion"],["ent","ly"],["\u0120de","c"],["\u0120st","ru"],["se","um"],["um","m"],["\u0120is","is"],["\u0120r","ich"],["\u0120j","an"],["\u0120k","e"],["\u0120ne","ed"],["ag","ed"],["\u0120\u00e2\u0122","\u013b"],["\u0120pro","f"],["\u0120po","st"],["ill","ion"],["\u0120des","pite"],["\u0120am","ong"],["\u0120201","2"],["\u0120fe","et"],["og","raph"],["\u0120out","side"],["\u0120work","s"],["\u0120fer","din"],["\u0120inter","national"],["\u0120dis","c"],["ix","ed"],["\u01208","8"],["\u0120cons","ist"],["\u0120cre","ation"],["\u0120dif","fic"],["\u0120sign","ed"],["\u0120rele","ase"],["\u0120kn","ow"],["\u0120qu","al"],["\u0120mu","seum"],["\u0120los","s"],["\u0120lead","ing"],["\u0120compet","ition"],["\u0120instr","um"],["\u0120ritu","als"],["\u0120consid","ered"],["\u0120eu","ro"],["\u0120prot","ect"],["etim","es"],["\u0120bus","iness"],["\u0120auth","or"],["\u0120ferdin","and"],["\u0120diffic","ult"],["a","o"],["c","y"],["g","an"],["g","et"],["i","o"],["i","or"],["n","ance"],["y","don"],["\u0120","$"],["\u0120t","or"],["\u0120t","it"],["he","n"],["\u0120s","av"],["\u0120s","cor"],["\u0120b","od"],["it","her"],["\u0120m","m"],["\u0120m","ed"],["\u0120m","at"],["\u0120m","ic"],["\u0120m","id"],["\u0120m","ark"],["\u0120g","all"],["\u0120l","a"],["\u0120l","ate"],["\u0120n","ow"],["\u0120n","ash"],["ent","ial"],["ac","hed"],["le","ct"],["ot","t"],["\u0120st","ates"],["\u0120he","ld"],["id","ent"],["\u0120se","ctor"],["\u012019","5"],["\u012019","6"],["\u0120j","une"],["\u0120or","gan"],["\u0120su","gg"],["\u0120ro","les"],["ap","p"],["\u0120other","s"],["\u0120co","ach"],["str","y"],["\u0120form","s"],["\u0120rel","ations"],["\u0120we","ap"],["\u0120ind","ia"],["\u0120car","ried"],["\u0120appe","ared"],["\u0120care","y"],["\u0120design","ed"],["au","se"],["\u0120song","s"],["\u0120mem","bers"],["rol","ight"],["\u0120pos","ition"],["\u0120spec","ies"],["\u0120writ","ten"],["\u0120person","al"],["\u0120retur","ned"],["\u0120observ","atory"],["\u0120includ","e"],["\u0120cro","ydon"],["\u0120ele","ments"],["\u0120conf","eder"],["\u0120cer","tain"],["\u0120mask","ray"],["\u0120ord","nance"],["\u0120beh","ind"],["\u0120rom","an"],["\u0120fel","t"],["\u0120indu","stry"],["\u0120mic","rolight"],["\u0120sugg","est"],["b","o"],["c","c"],["e","p"],["o","gy"],["s","on"],["w","ay"],["y","p"],["er","n"],["\u0120o","cc"],["\u0120s","qu"],["re","w"],["\u0120f","em"],["\u0120f","ore"],["\u0120f","ree"],["\u0120b","a"],["\u0120p","ick"],["\u0120p","eng"],["\u0120in","j"],["an","ces"],["\u0120m","or"],["\u0120m","en"],["\u0120l","and"],["\u0120l","ine"],["il","ity"],["\u0120de","v"],["ol","ogy"],["\u01202","3"],["ut","e"],["\u0120ch","ang"],["\u0120j","ames"],["\u0120k","m"],["\u0120un","l"],["ate","ly"],["\u0120ro","y"],["\u0120ro","ad"],["\u0120ne","ver"],["\u0120ex","ist"],["ak","es"],["\u0120play","ers"],["\u0120comm","un"],["\u0120inc","hes"],["\u0120im","ages"],["\u0120ad","v"],["\u0120201","3"],["hip","s"],["\u0120rem","ained"],["\u0120me","an"],["pl","ay"],["\u0120fin","al"],["\u0120develop","ed"],["\u0120start","ed"],["\u0120aw","ay"],["\u0120aw","ard"],["\u0120light","ning"],["\u0120perform","ed"],["\u0120spec","ific"],["\u0120gun","s"],["\u0120gu","it"],["\u0120lar","g"],["\u0120aerodrom","e"],["\u0120glid","ing"],["\u0120lic","ens"],["\u0120christ","ian"],["\u0120eas","a"],["\u0120invol","ved"],["\u0120som","etimes"],["\u0120pra","ised"],["\u0120squ","ad"],["\u0120peng","u"],["c","hed"],["e","f"],["f","fer"],["g","ress"],["k","en"],["p","ar"],["t","o"],["t","ic"],["\u00e3","\u0125"],["\u0120","x"],["\u0120","\u00c2"],["\u0120","il"],["\u0120","if"],["\u0120","ide"],["\u0120w","ill"],["un","ition"],["at","ive"],["\u0120b","reak"],["\u0120p","ar"],["\u0120an","c"],["\u0120m","ac"],["\u0120m","ag"],["\u0120m","ason"],["al","f"],["\u0120d","est"],["\u0120to","p"],["\u0120h","it"],["ic","ted"],["\u0120n","orth"],["\u0120e","ast"],["ir","is"],["\u01201","6"],["st","er"],["\u0120for","ces"],["\u0120as","pect"],["\u0120de","l"],["\u0120with","out"],["ur","al"],["ra","w"],["\u01202","5"],["el","ess"],["\u0120r","ange"],["ist","ics"],["em","ent"],["\u0120pl","ain"],["\u0120v","is"],["\u0120su","ffer"],["lu","str"],["\u0120y","oun"],["\u0120play","ing"],["\u0120ca","pt"],["\u0120ac","ross"],["ough","t"],["\u0120int","ro"],["\u0120pr","im"],["iz","e"],["\u0120inter","act"],["\u0120bec","om"],["\u0120bec","ause"],["\u0120av","ail"],["\u0120res","ult"],["iss","ion"],["\u0120through","out"],["\u0120poin","t"],["\u0120record","ed"],["\u0120au","g"],["\u0120origin","ally"],["\u0120sign","ific"],["\u0120em","er"],["\u0120beg","in"],["\u0120ship","s"],["sel","ves"],["\u0120giv","ing"],["\u0120perform","ance"],["\u0120ter","m"],["\u0120sch","ol"],["ann","ah"],["ject","s"],["\u0120nam","eless"],["\u0120produ","ced"],["\u0120creat","or"],["\u0120hel","p"],["\u0120str","ong"],["\u0120os","iris"],["\u0120pri","or"],["\u0120mult","ip"],["\u0120lim","ited"],["\u0120count","ry"],["\u0120jan","uary"],["\u0120euro","pe"],["\u0120sav","annah"],["\u0120scor","ing"],["\u0120pengu","ins"],["\u0120il","lustr"],["\u0120youn","g"],["a","ff"],["c","ret"],["i","ers"],["l","f"],["l","ing"],["l","ish"],["o","pe"],["o","ve"],["r","al"],["y","r"],["in","ition"],["\u0120s","ri"],["\u0120w","on"],["\u0120c","or"],["\u0120f","t"],["\u0120f","ing"],["\u0120f","le"],["\u0120b","c"],["it","ors"],["en","ces"],["en","cy"],["\u0120p","en"],["\u0120p","ut"],["\u0120in","it"],["\u0120an","g"],["\u0120m","er"],["ing","ly"],["ar","th"],["ar","ch"],["\u0120d","i"],["\u0120h","old"],["\u0120h","alf"],["\u0120l","ank"],["\u0120l","ives"],["\u0120re","f"],["\u0120re","fer"],["\u0120th","ings"],["\u0120e","p"],["\u0120e","ither"],["ac","ing"],["iv","ers"],["\u0120de","b"],["\u0120st","reak"],["ct","ions"],["\u0120al","ways"],["id","ence"],["\u0120at","en"],["\u0120se","ven"],["\u0120con","c"],["\u0120con","du"],["\u0120con","cept"],["\u0120ch","ur"],["\u0120r","un"],["\u0120r","ul"],["\u0120com","e"],["ri","pt"],["\u0120v","oc"],["\u0120un","iver"],["av","ing"],["\u0120sh","ort"],["\u0120she","ll"],["\u0120ex","amp"],["\u0120y","ork"],["end","er"],["\u0120play","off"],["\u0120game","play"],["\u0120them","selves"],["\u0120cl","ose"],["\u0120cl","ock"],["str","u"],["\u0120act","ion"],["\u0120im","pro"],["\u0120form","er"],["\u0120am","er"],["\u0120pr","act"],["\u0120us","ing"],["\u0120201","0"],["du","ced"],["\u0120fe","w"],["\u0120can","cer"],["\u0120up","on"],["\u0120bec","ome"],["\u0120200","6"],["\u0120ass","ist"],["\u0120ear","l"],["pl","oy"],["\u0120sl","ow"],["\u0120cent","er"],["\u0120sa","f"],["\u0120we","e"],["\u0120arm","s"],["\u0120arm","y"],["\u0120sy","mb"],["\u0120dep","art"],["\u0120dep","ict"],["\u0120sup","p"],["\u0120cre","w"],["\u0120hist","or"],["\u0120186","2"],["\u0120rec","re"],["\u0120def","inition"],["\u0120sur","round"],["\u0120pub","lished"],["\u0120bro","ther"],["\u0120flight","s"],["\u0120met","res"],["\u0120lic","ence"],["\u0120includ","ed"],["\u0120pur","ch"],["\u0120goddess","es"],["\u0120stand","ards"],["\u0120open","ing"],["\u0120though","t"],["\u0120connect","ed"],["\u0120tradition","al"],["fiel","d"],["\u0120comb","in"],["\u0120san","ford"],["\u0120nav","y"],["\u0120rif","les"],["\u0120var","ious"],["rid","ge"],["\u0120ever","y"],["\u0120fore","ign"],["\u0120guit","ar"],["\u0120larg","er"],["\u0120aug","ust"],["\u0120signific","ant"],["\u0120fing","al"],["\u0120condu","cted"],["\u0120univer","se"],["\u0120symb","ol"],["d","ay"],["e","ad"],["g","or"],["h","aw"],["i","ber"],["m","ed"],["m","ble"],["p","s"],["p","an"],["u","c"],["v","ing"],["v","ision"],["w","ard"],["y","s"],["\u0120","ic"],["he","st"],["\u0120s","ky"],["\u0120c","e"],["\u0120c","as"],["\u0120c","ur"],["\u0120c","our"],["\u0120c","up"],["\u0120f","ar"],["\u0120f","ri"],["\u0120f","av"],["\u0120f","ans"],["\u0120f","ull"],["\u0120f","eder"],["at","or"],["\u0120b","en"],["\u0120b","all"],["\u0120b","ridge"],["it","es"],["it","ted"],["en","ced"],["\u0120p","ol"],["\u0120p","ark"],["\u0120m","ater"],["\u0120m","illion"],["ar","ao"],["\u0120d","a"],["\u0120d","r"],["\u0120g","ir"],["\u0120g","eor"],["\u0120l","ink"],["\u0120re","se"],["\u0120n","umb"],["\u0120th","us"],["\u0120th","reat"],["om","b"],["\u0120de","ter"],["\u0120st","aff"],["\u0120on","ce"],["id","es"],["\u0120se","par"],["\u0120se","lf"],["\u01202","1"],["us","sion"],["\u0120ch","ap"],["\u0120ch","amp"],["\u012019","7"],["\u0120r","um"],["\u0120j","ap"],["\u0120v","e"],["\u0120v","ide"],["\u0120v","ict"],["\u0120un","ivers"],["\u0120ar","g"],["\u0120su","per"],["\u0120mo","ve"],["\u0120mo","ved"],["\u0120sh","ow"],["\u0120pro","cess"],["ial","ly"],["\u0120ex","per"],["\u0120ex","cept"],["\u0120not","ed"],["\u0120per","c"],["\u0120po","pe"],["\u0120ab","ove"],["\u0120rep","l"],["\u012018","9"],["\u0120reg","ister"],["\u0120over","all"],["\u01205","00"],["\u0120sc","ored"],["\u0120sp","ir"],["\u0120sp","ring"],["\u0120inter","v"],["\u0120ear","th"],["ren","t"],["\u0120oper","ation"],["\u0120sy","n"],["\u0120199","8"],["\u0120car","ter"],["\u0120192","0"],["\u0120192","3"],["led","ge"],["\u0120serv","ices"],["\u0120ph","arao"],["\u0120eng","ine"],["\u0120pos","it"],["\u0120mon","itors"],["\u0120glid","ers"],["pos","es"],["\u0120ed","ition"],["\u0120ter","ms"],["\u0120great","er"],["\u0120regul","ation"],["cl","ad"],["\u0120myth","s"],["\u0120pur","poses"],["\u0120mar","ch"],["\u0120gre","en"],["\u0120particular","ly"],["\u0120mod","el"],["\u0120inst","ead"],["\u0120prom","ot"],["\u0120dire","ct"],["\u0120govern","or"],["\u0120requ","ired"],["\u0120fif","a"],["\u0120allow","ed"],["\u0120iron","clad"],["\u0120grow","th"],["\u0120prov","ided"],["\u0120influ","ence"],["\u0120hour","s"],["\u0120estim","ated"],["\u0120eff","ort"],["\u0120prof","ess"],["\u0120know","ledge"],["\u0120confeder","ate"],["\u0120roy","al"],["\u0120anc","ient"],["\u0120avail","able"],["\u0120begin","ning"],["\u0120schol","ars"],["\u0120chur","ch"],["\u0120recre","ational"],["\u0120fri","end"],["\u0120feder","al"],["\u0120mater","ial"],["\u0120gir","l"],["\u0120numb","ers"],["\u0120champ","ions"],["\u0120jap","an"],["\u0120vide","o"],["\u0120pharao","h"],["a","i"],["c","ing"],["d","es"],["f","act"],["g","round"],["n","ess"],["o","ch"],["r","ic"],["r","il"],["t","ender"],["u","le"],["w","ork"],["y","le"],["\u00e3","\u0124"],["\u0120","&"],["\u0120t","re"],["\u0120t","ri"],["\u0120t","yp"],["\u0120a","ust"],["er","y"],["er","ick"],["\u0120o","il"],["\u0120s","en"],["\u0120s","il"],["\u0120s","ac"],["\u0120s","itu"],["\u0120s","umm"],["\u0120w","is"],["\u0120w","all"],["\u0120w","ife"],["\u0120c","he"],["\u0120c","red"],["\u0120f","al"],["\u0120f","ur"],["\u0120f","red"],["\u0120f","ire"],["\u0120f","ixed"],["\u0120b","ull"],["\u0120m","aking"],["ar","ian"],["\u0120d","ays"],["ro","p"],["ic","ally"],["\u0120l","at"],["\u0120l","ow"],["\u0120re","d"],["\u0120re","st"],["\u0120re","ign"],["\u0120re","str"],["\u0120re","ason"],["\u0120n","on"],["\u0120th","r"],["\u0120e","y"],["\u0120e","con"],["ac","les"],["am","ent"],["om","in"],["st","ation"],["\u0120for","ce"],["iv","id"],["\u0120as","k"],["\u0120as","se"],["\u0120de","t"],["\u0120st","age"],["\u0120on","es"],["se","qu"],["th","ing"],["ow","ers"],["\u0120se","pt"],["\u0120con","ver"],["\u01202","8"],["if","est"],["em","ber"],["\u0120k","g"],["\u0120pl","aced"],["\u0120pl","aces"],["ess","ential"],["\u0120mo","vem"],["\u0120ro","om"],["\u0120ne","cess"],["\u0120are","a"],["\u0120air","fiel"],["\u0120air","sp"],["\u0120air","ports"],["\u0120sh","if"],["qu","el"],["\u0120ex","c"],["ak","en"],["\u0120y","ou"],["ab","ly"],["\u0120play","station"],["\u0120te","le"],["\u0120man","ag"],["\u0120man","ifest"],["\u0120fl","int"],["cor","por"],["\u0120them","ed"],["\u0120ac","qu"],["\u0120ac","cept"],["\u0120act","ing"],["\u0120ap","ril"],["\u0120col","l"],["\u0120col","or"],["\u0120form","ed"],["\u0120new","ly"],["\u0120bl","ock"],["\u0120bl","ood"],["\u0120work","ed"],["\u0120spe","ed"],["\u0120200","7"],["\u0120200","8"],["\u0120200","9"],["\u0120me","ans"],["\u0120ra","re"],["\u0120so","und"],["\u0120recor","ding"],["\u0120fin","ally"],["\u0120arm","or"],["\u0120199","0"],["\u0120ind","ic"],["\u0120ind","ivid"],["ific","ation"],["\u0120record","s"],["\u0120tra","vel"],["\u0120gener","ally"],["\u0120him","self"],["\u0120cre","ated"],["au","gh"],["\u0120serv","ed"],["\u0120mem","or"],["\u0120loc","ated"],["\u0120back","ground"],["\u0120pos","s"],["\u0120miss","ions"],["\u0120high","way"],["\u0120los","ing"],["\u0120retur","n"],["\u0120min","or"],["\u0120gr","ant"],["\u0120mod","ern"],["\u0120command","er"],["\u0120appear","ance"],["\u0120equ","ip"],["\u0120near","ly"],["\u0120goal","tender"],["\u0120comple","x"],["\u0120offer","ings"],["\u0120resp","ons"],["ograph","y"],["\u0120weap","ons"],["\u0120mean","ing"],["\u0120mac","arth"],["\u0120capt","ain"],["\u0120multip","le"],["\u0120europe","an"],["\u0120deb","ut"],["\u0120amer","ican"],["\u0120surround","ing"],["\u0120fav","or"],["omb","ard"],["\u0120rum","ors"],["\u0120profess","ional"],["\u0120fur","ther"],["\u0120fred","erick"],["\u0120econ","om"],["\u0120sept","ember"],["\u0120airfiel","ds"],["\u0120airsp","ace"],["\u0120macarth","ur"],["2","2"],["a","os"],["b","b"],["c","om"],["d","le"],["e","ff"],["h","an"],["k","s"],["m","os"],["m","unition"],["m","ission"],["n","a"],["o","und"],["r","is"],["u","fact"],["w","orth"],["y","n"],["\u00a6","st"],["\u00c3","\u00a6st"],["\u0120","-"],["\u0120","essential"],["\u0120","\u00c3\u00a6st"],["\u0120a","ut"],["he","tic"],["in","der"],["\u0120o","ct"],["\u0120s","ays"],["\u0120s","ize"],["\u0120w","al"],["on","d"],["\u0120c","m"],["\u0120c","le"],["\u0120c","ul"],["\u0120c","os"],["\u0120c","amp"],["un","ning"],["\u0120f","und"],["\u0120f","ail"],["at","a"],["at","ican"],["or","d"],["or","ies"],["or","oth"],["\u0120b","ar"],["\u0120b","ri"],["\u0120b","rough"],["it","al"],["es","tern"],["\u0120p","it"],["\u0120p","ap"],["\u0120in","corpor"],["\u0120m","ary"],["\u0120m","ust"],["al","ed"],["\u0120and","rew"],["\u0120d","u"],["\u0120d","on"],["\u0120d","ar"],["\u0120d","ou"],["\u0120d","raw"],["\u0120d","unning"],["\u0120d","oroth"],["\u0120g","ive"],["\u0120to","o"],["\u0120to","get"],["\u0120h","ar"],["\u0120h","ig"],["\u0120h","ang"],["\u0120h","ath"],["\u0120l","ack"],["\u0120l","abor"],["\u0120l","yr"],["\u0120n","ation"],["il","ar"],["il","ities"],["\u01201","4"],["\u01201","00"],["\u0120for","t"],["iv","ing"],["iv","al"],["\u0120de","cl"],["\u0120st","ation"],["\u0120he","lic"],["ad","el"],["im","e"],["im","um"],["\u0120wh","at"],["\u0120se","le"],["\u0120con","stru"],["el","es"],["\u0120ch","ance"],["\u0120ch","ange"],["\u0120ch","aos"],["\u0120r","h"],["\u0120r","ick"],["\u0120r","ank"],["\u0120k","ar"],["ers","hip"],["\u0120v","en"],["\u0120v","an"],["\u0120v","atican"],["\u0120un","its"],["ate","ur"],["\u0120ro","ute"],["\u0120air","worth"],["\u0120pro","gress"],["end","ing"],["\u0120le","ft"],["\u0120po","ly"],["\u0120man","ufact"],["\u0120af","f"],["\u0120fl","o"],["ill","s"],["\u0120cl","osed"],["str","al"],["\u0120ca","u"],["\u0120ap","pl"],["\u0120col","le"],["\u01203","1"],["\u0120im","p"],["\u0120am","munition"],["\u0120am","ateur"],["\u0120pr","ies"],["\u0120us","ually"],["\u0120ad","a"],["\u0120ad","m"],["\u0120201","4"],["ph","y"],["ph","ia"],["\u0120most","ly"],["\u0120ev","ent"],["\u0120spe","cial"],["\u0120ass","ign"],["\u01207","1"],["\u0120res","pect"],["\u0120album","s"],["\u0120four","th"],["\u0120arm","ed"],["\u0120aer","ial"],["\u0120att","ack"],["\u0120sm","s"],["\u0120how","son"],["\u0120dep","icted"],["\u0120au","stral"],["\u0120186","1"],["\u0120op","pos"],["\u0120ph","il"],["\u0120fair","y"],["\u0120bat","t"],["\u0120partic","ip"],["\u0120contin","ue"],["\u0120along","side"],["\u0120where","as"],["\u0120activ","ity"],["\u0120glid","er"],["oun","t"],["\u0120ow","ned"],["\u0120cal","iber"],["\u0120dist","ribut"],["\u0120observ","ations"],["\u0120stand","ard"],["\u0120exp","ress"],["\u0120book","s"],["\u0120tur","ns"],["\u0120battle","field"],["\u0120govern","ment"],["\u0120success","ful"],["\u0120cer","t"],["\u0120stud","y"],["\u0120comb","ined"],["ne","y"],["\u0120sim","ilar"],["\u0120fun","er"],["\u0120pat","ron"],["\u0120tot","al"],["\u0120tot","ten"],["\u0120resp","on"],["\u0120hun","g"],["\u0120incre","as"],["\u0120attem","pt"],["\u0120attem","pted"],["\u0120belief","s"],["\u0120sold","iers"],["\u0120instrum","ents"],["\u0120author","ity"],["\u0120mid","dle"],["\u0120gall","ian"],["\u0120commun","ic"],["\u0120aspect","s"],["\u0120aten","ism"],["\u0120combin","ations"],["\u0120geor","g"],["\u0120threat","en"],["\u0120chap","el"],["\u0120register","ed"],["\u0120typ","es"],["\u0120bull","och"],["\u0120movem","ent"],["\u0120coll","abor"],["\u0120memor","ial"],["\u0120\u00c3\u00a6st","hetic"],["\u0120brough","t"],["\u0120dunning","ton"],["\u0120doroth","y"],["\u0120toget","her"],["\u0120hath","or"],["\u0120helic","op"],["adel","phia"],["\u0120airworth","iness"],["\u0120oppos","ite"],["a","z"],["a","ired"],["c","a"],["c","o"],["c","ious"],["d","d"],["g","a"],["i","ate"],["i","qu"],["i","ke"],["i","ence"],["k","i"],["n","all"],["o","ber"],["r","ack"],["t","nall"],["u","ck"],["w","ood"],["y","l"],["\u0120","es"],["\u0120","ice"],["\u0120","ident"],["\u0120t","at"],["\u0120t","ied"],["\u0120t","aking"],["\u0120a","ver"],["he","istic"],["in","c"],["in","ct"],["\u0120s","w"],["\u0120s","ou"],["\u0120s","ites"],["\u0120w","ing"],["\u0120w","ro"],["\u0120w","est"],["\u0120w","ant"],["\u0120w","ays"],["\u0120w","estern"],["on","om"],["\u0120c","ap"],["\u0120c","ru"],["\u0120f","ight"],["\u0120f","ron"],["\u0120f","ired"],["\u0120b","on"],["\u0120b","ir"],["\u0120b","ol"],["\u0120b","ase"],["it","able"],["es","e"],["\u0120p","ict"],["\u0120in","form"],["\u0120in","sp"],["an","ced"],["\u0120m","as"],["\u0120m","and"],["\u0120m","all"],["\u0120m","ale"],["\u0120d","en"],["\u0120g","ave"],["\u0120g","round"],["\u0120to","ur"],["\u0120h","on"],["\u0120h","all"],["\u0120h","ann"],["\u0120h","ost"],["\u0120h","ym"],["\u0120h","app"],["ic","ide"],["\u0120l","ed"],["\u0120l","ou"],["\u0120l","ower"],["\u0120l","ombard"],["\u0120re","ve"],["\u0120re","ached"],["\u0120n","ine"],["\u0120n","ight"],["ly","wood"],["st","and"],["\u0120de","ad"],["\u0120de","ce"],["\u0120st","yle"],["ur","ies"],["th","rop"],["ul","ation"],["\u0120wh","ite"],["\u0120se","en"],["\u01202","7"],["ut","es"],["\u0120ch","art"],["\u0120is","land"],["ist","s"],["and","ed"],["\u0120j","eff"],["em","an"],["\u0120com","es"],["\u0120k","ick"],["\u0120k","han"],["\u0120un","it"],["\u0120su","icide"],["\u0120ne","g"],["\u0120ne","br"],["lu","des"],["igh","ter"],["\u0120wor","st"],["\u0120pro","c"],["\u0120ex","h"],["\u0120ex","pect"],["\u0120y","et"],["end","ent"],["ill","er"],["\u0120ac","cess"],["\u0120act","ress"],["\u01203","0"],["\u01203","8"],["\u0120i","hl"],["erv","ation"],["\u0120en","ough"],["\u0120ad","ded"],["ast","ic"],["\u0120lit","er"],["\u0120reg","ion"],["\u0120reg","ular"],["\u0120reg","ional"],["\u0120team","s"],["\u0120some","thing"],["\u0120there","fore"],["\u0120sc","hed"],["\u0120sc","ope"],["iz","ation"],["\u0120ev","idence"],["\u0120ag","ency"],["\u0120sp","ent"],["ree","k"],["\u0120tow","ards"],["\u0120up","per"],["ff","ic"],["\u0120me","et"],["\u0120ob","jects"],["\u0120cent","ury"],["\u0120cent","ral"],["\u0120war","ne"],["\u0120character","istics"],["\u0120li","br"],["\u0120win","ning"],["\u0120mil","es"],["\u0120trans","fer"],["\u0120em","ploy"],["\u0120main","tain"],["\u0120def","ense"],["iew","s"],["ii","i"],["\u0120qu","een"],["\u0120serv","ice"],["\u0120wom","an"],["\u0120desc","ript"],["\u0120writ","ing"],["ask","a"],["\u0120nat","ural"],["\u0120heav","y"],["\u0120bro","ad"],["\u0120198","6"],["\u0120small","er"],["pos","ed"],["\u0120ed","uc"],["\u0120ent","ry"],["\u0120crit","ical"],["\u0120produ","ction"],["\u0120contr","ast"],["\u0120min","utes"],["\u0120gre","gor"],["\u0120lo","ve"],["\u0120open","ed"],["\u0120tro","phy"],["\u0120prom","in"],["\u0120anim","e"],["\u0120anim","als"],["\u0120dire","ctor"],["\u0120group","s"],["\u0120real","m"],["\u0120stud","io"],["\u0120remain","ing"],["\u0120iss","ue"],["\u0120feat","ured"],["\u0120feat","ures"],["olog","ical"],["\u0120school","s"],["ib","ility"],["\u0120pain","t"],["\u0120stru","gg"],["\u0120need","ed"],["\u0120instrum","ent"],["\u0120tit","le"],["\u0120bod","y"],["\u0120relations","hip"],["\u0120microlight","s"],["\u0120occ","ur"],["\u0120fem","ale"],["\u0120inj","ury"],["\u0120chang","es"],["\u0120licens","ing"],["\u0120\u00c2","\u00a3"],["\u0120prim","ary"],["\u0120becom","es"],["\u0120emer","ged"],["\u0120lank","a"],["\u0120ref","lect"],["\u0120voc","als"],["\u0120examp","le"],["\u0120saf","ety"],["\u0120wee","haw"],["\u0120histor","ic"],["\u0120far","m"],["\u0120deter","m"],["\u0120separ","ate"],["\u0120perc","ussion"],["\u0120interv","iew"],["\u0120posit","ive"],["\u0120sac","red"],["\u0120thr","iller"],["\u0120necess","ary"],["\u0120rare","ly"],["\u0120equip","ment"],["\u0120oct","ober"],["\u0120bri","ef"],["\u0120lyr","ics"],["\u0120kar","l"],["\u0120austral","ia"],["\u0120hung","arian"],["\u0120increas","ingly"],["\u0120collabor","ation"],["\u0120tat","tnall"],["\u0120aver","age"],["\u0120wro","te"],["\u0120fron","t"],["\u0120bir","th"],["\u0120mand","atory"],["\u0120mall","ory"],["\u0120hann","eman"],["\u0120nebr","aska"],["\u0120libr","ary"],["\u0120gregor","ian"],["\u0120weehaw","ken"],["5","0"],["a","it"],["a","im"],["a","el"],["a","ren"],["c","ock"],["d","en"],["e","cess"],["g","r"],["g","es"],["g","art"],["h","ab"],["i","ated"],["m","e"],["m","und"],["m","ost"],["n","d"],["o","ot"],["t","t"],["t","is"],["t","ained"],["w","al"],["w","ick"],["z","e"],["\u0120t","one"],["\u0120t","aken"],["er","ation"],["\u0120o","ur"],["\u0120s","ol"],["\u0120s","ab"],["\u0120s","ide"],["\u0120w","y"],["\u0120w","ings"],["\u0120w","ater"],["re","ed"],["on","t"],["\u0120c","it"],["\u0120c","am"],["\u0120c","art"],["\u0120c","ards"],["\u0120c","row"],["\u0120f","ac"],["\u0120f","est"],["\u0120f","act"],["\u0120f","ell"],["at","ively"],["or","m"],["or","der"],["\u0120b","i"],["\u0120b","ill"],["\u0120b","orn"],["\u0120b","ott"],["it","he"],["it","er"],["en","a"],["\u0120p","ist"],["\u0120p","air"],["\u0120p","hen"],["\u0120in","s"],["\u0120in","hab"],["\u0120m","ap"],["\u0120m","ach"],["\u0120m","outh"],["\u0120m","aps"],["\u0120m","ixed"],["\u0120m","akes"],["al","th"],["ar","n"],["is","ers"],["\u0120d","am"],["\u0120d","ied"],["as","y"],["\u0120g","ard"],["\u0120h","art"],["\u0120h","ab"],["\u0120h","ier"],["\u0120h","aving"],["\u0120re","ad"],["\u0120re","ach"],["\u0120re","form"],["\u0120n","ort"],["\u0120n","ub"],["\u0120e","ld"],["ir","c"],["ir","ing"],["om","ena"],["\u0120be","ings"],["ot","ion"],["\u0120st","re"],["\u0120with","d"],["im","in"],["im","ately"],["ct","ors"],["\u0120al","most"],["id","ents"],["ol","ved"],["um","ed"],["\u0120at","um"],["\u0120se","e"],["\u0120con","v"],["\u01202","9"],["us","ed"],["\u0120ch","o"],["\u012019","0"],["\u0120it","al"],["\u0120r","us"],["\u0120r","ight"],["\u0120r","ub"],["\u0120r","ather"],["\u0120r","ule"],["\u0120j","ud"],["\u0120k","inder"],["\u0120v","i"],["\u0120ar","r"],["\u0120mo","un"],["\u0120ne","ck"],["os","p"],["\u0120air","ship"],["ip","p"],["\u0120sh","r"],["\u0120sh","ould"],["\u0120sh","own"],["\u0120sh","oot"],["\u0120pro","ble"],["op","h"],["ant","ly"],["\u0120tr","ue"],["end","ar"],["\u0120le","g"],["\u0120le","ast"],["\u0120po","or"],["\u0120cont","act"],["\u0120whe","ther"],["\u0120co","st"],["ill","a"],["\u0120them","es"],["\u0120cl","aim"],["\u0120act","ions"],["\u0120part","s"],["\u01203","00"],["\u0120im","age"],["\u0120ab","s"],["\u0120ab","le"],["\u0120rep","aired"],["\u0120div","er"],["\u0120div","ision"],["\u0120comp","an"],["\u0120comp","osed"],["og","n"],["ok","ed"],["\u01205","0"],["\u0120sc","ott"],["\u0120can","ad"],["\u0120sp","read"],["ust","om"],["\u0120rem","un"],["\u0120season","s"],["\u0120cent","uries"],["\u0120fin","ish"],["\u0120we","bb"],["\u0120arm","ored"],["\u0120199","7"],["\u0120ind","ep"],["\u0120represent","s"],["\u0120win","d"],["\u0120win","ds"],["\u0120my","ster"],["\u0120192","5"],["\u0120192","9"],["\u0120tra","ffic"],["\u0120pers","pect"],["\u0120em","b"],["\u0120186","3"],["\u0120end","ing"],["\u0120rec","ogn"],["cept","ion"],["\u0120design","ated"],["\u0120eng","aged"],["\u0120eng","lish"],["\u0120writ","ings"],["\u0120miss","ion"],["\u0120nat","ive"],["\u0120trad","ed"],["aw","a"],["\u0120198","5"],["\u0120198","8"],["\u0120person","ified"],["ped","o"],["\u0120gu","ard"],["oun","ced"],["\u0120ed","mund"],["\u0120ent","er"],["\u0120ent","ire"],["\u0120regul","ated"],["\u0120regul","atory"],["\u0120retur","ning"],["cl","us"],["\u0120met","al"],["\u0120cro","ss"],["\u0120gr","ad"],["\u0120191","8"],["\u0120track","s"],["\u0120ver","y"],["\u0120exp","anded"],["\u0120inst","ance"],["\u0120list","ing"],["\u0120anim","al"],["\u0120194","0"],["\u0120appear","ances"],["ribut","e"],["\u0120creat","ing"],["\u0120cover","ed"],["\u0120dem","ons"],["\u0120deal","ership"],["\u0120sub","sequ"],["\u0120comple","ted"],["\u0120hel","ped"],["\u0120iss","ued"],["\u0120fif","th"],["\u0120pred","ecess"],["\u0120ext","ended"],["\u0120sk","in"],["\u0120sk","ills"],["\u0120bas","ic"],["\u0120ann","ounced"],["\u0120plan","ned"],["\u0120hun","wick"],["\u0120appro","ach"],["\u0120estim","ates"],["\u0120rich","ards"],["\u0120consist","ed"],["\u0120qual","if"],["\u0120tor","pedo"],["\u0120bod","ies"],["\u0120mat","ch"],["\u0120la","un"],["\u0120relations","hips"],["\u0120mor","ning"],["\u0120award","ed"],["\u0120x","iii"],["\u0120mag","az"],["\u0120suffer","ed"],["\u0120intro","duced"],["\u0120fle","et"],["\u0120init","ially"],["\u0120ep","ithe"],["\u0120pract","ices"],["\u0120earl","ier"],["\u0120supp","ly"],["\u0120ic","on"],["\u0120cas","em"],["\u0120bridge","port"],["\u0120univers","ity"],["\u0120syn","cret"],["\u0120champions","hip"],["\u0120japan","ese"],["\u0120aust","ro"],["\u0120sil","ver"],["\u0120summ","er"],["\u0120cred","ited"],["\u0120fal","con"],["\u0120lat","ter"],["\u0120restr","ict"],["\u0120manag","ement"],["\u0120manifest","ations"],["\u0120cul","ts"],["\u0120cos","mos"],["\u0120fail","ed"],["\u0120du","at"],["\u0120appl","ied"],["\u0120event","ually"],["\u0120assign","ed"],["\u0120batt","les"],["\u0120funer","ary"],["\u0120respon","se"],["\u0120georg","ia"],["\u0120hym","ns"],["\u0120lou","is"],["\u0120lombard","o"],["\u0120dead","line"],["\u0120proc","ured"],["\u0120educ","ation"],["\u0120brief","ly"],["gart","en"],["\u0120bott","om"],["\u0120phen","omena"],["\u0120hart","ford"],["\u0120eld","er"],["\u0120rub","in"],["\u0120kinder","garten"],[".","."],["6","9"],["b","es"],["b","ur"],["b","ably"],["c","hes"],["e","e"],["f","ort"],["f","ull"],["g","o"],["h","i"],["h","am"],["i","k"],["j","\u00c5"],["l","o"],["l","ake"],["l","ock"],["m","ber"],["m","itted"],["n","iews"],["o","en"],["p","ire"],["r","ant"],["r","ays"],["s","ions"],["t","v"],["t","ar"],["w","ell"],["y","ot"],["\u0120","!"],["\u0120","ill"],["\u0120t","on"],["\u0120t","en"],["\u0120t","ar"],["\u0120t","ide"],["\u0120t","ons"],["\u0120t","ail"],["\u0120t","ribute"],["\u0120a","z"],["\u0120a","str"],["he","re"],["he","on"],["in","ation"],["in","ted"],["er","ated"],["\u0120s","at"],["\u0120s","ay"],["\u0120s","ort"],["\u0120s","ak"],["\u0120s","ports"],["\u0120s","ense"],["\u0120w","ide"],["\u0120w","ood"],["re","l"],["on","to"],["\u0120c","r"],["\u0120c","ere"],["\u0120c","ess"],["\u0120c","irc"],["ed","y"],["ed","ic"],["\u0120f","it"],["\u0120f","ig"],["\u0120f","ul"],["\u0120.",".."],["at","en"],["at","ure"],["at","ors"],["or","ter"],["\u0120b","ig"],["\u0120b","ow"],["\u0120b","ass"],["\u0120b","ah"],["\u0120b","illion"],["\u0120b","ought"],["it","ical"],["\u0120p","an"],["\u0120p","ot"],["\u0120p","ant"],["\u0120p","age"],["\u0120p","ress"],["an","e"],["\u0120m","ess"],["\u0120m","ight"],["\u0120m","one"],["al","ers"],["\u0120d","ut"],["\u0120d","ark"],["\u0120d","ata"],["\u0120d","well"],["\u0120d","edic"],["as","ar"],["as","ure"],["\u0120g","reek"],["\u0120g","asar"],["\u0120to","day"],["ro","y"],["\u0120h","ol"],["\u0120h","ind"],["\u0120l","t"],["\u0120l","ot"],["\u0120l","ay"],["\u0120l","et"],["\u0120l","if"],["\u0120l","ab"],["\u0120l","ighter"],["\u0120re","b"],["\u0120re","ctor"],["\u0120re","duced"],["\u0120n","ile"],["\u0120n","ah"],["\u0120th","ous"],["\u0120e","ight"],["ac","quel"],["am","ed"],["om","mission"],["le","y"],["st","on"],["st","ri"],["iv","als"],["ot","o"],["ot","s"],["\u0120st","or"],["\u0120st","op"],["ay","ed"],["\u0120he","n"],["\u0120he","alth"],["im","ent"],["im","oto"],["ct","ure"],["ter","y"],["ur","t"],["\u0120wh","alers"],["\u0120se","v"],["\u0120se","x"],["\u0120se","cret"],["\u0120se","ga"],["ies","t"],["ra","in"],["\u0120con","cer"],["\u01202","6"],["el","s"],["ce","ed"],["\u0120ch","all"],["ch","an"],["ch","cock"],["\u0120r","an"],["\u0120r","ace"],["\u0120r","acing"],["\u0120j","u"],["\u0120j","ets"],["\u0120j","acquel"],["\u0120com","ing"],["\u0120k","urt"],["\u0120pl","ans"],["\u0120v","ol"],["\u0120un","iqu"],["ess","ion"],["\u0120mo","ves"],["lu","ded"],["all","ed"],["ag","o"],["\u0120pro","ject"],["\u0120pro","bably"],["\u0120ex","ped"],["\u0120ex","clus"],["ard","ed"],["\u0120egypt","olog"],["\u0120not","e"],["\u0120not","ing"],["\u0120per","man"],["\u0120le","aving"],["ment","ed"],["\u0120co","yot"],["\u0120fl","own"],["\u0120fl","owers"],["\u0120who","le"],["\u0120who","se"],["\u0120ca","us"],["ect","ed"],["\u0120act","ive"],["\u0120ap","p"],["\u0120int","ended"],["\u01203","5"],["\u0120form","al"],["\u0120form","ation"],["\u01204","5"],["\u01204","00"],["\u0120rep","air"],["\u0120en","v"],["\u0120en","em"],["\u0120us","es"],["\u0120ad","o"],["\u0120reg","ions"],["\u0120comp","on"],["\u0120201","5"],["du","ction"],["\u01205","4"],["\u0120work","ing"],["\u0120char","ge"],["\u0120inter","p"],["\u0120inter","se"],["\u0120inter","est"],["ve","y"],["\u0120rem","o"],["\u0120rem","ark"],["\u0120200","5"],["\u0120ass","umed"],["\u0120ra","j"],["\u0120ra","il"],["\u0120ra","ised"],["\u0120ra","ven"],["ren","der"],["\u0120dis","app"],["\u0120dis","order"],["\u0120so","on"],["\u0120fin","ished"],["\u0120blu","es"],["\u0120bet","ter"],["\u0120under","stand"],["\u0120199","1"],["\u0120building","s"],["\u01208","00"],["\u0120bo","x"],["\u0120bo","ston"],["\u0120ind","ian"],["\u0120jo","ined"],["\u0120represent","ing"],["\u0120represent","ative"],["\u0120car","ry"],["\u0120car","go"],["\u0120em","pire"],["\u0120main","ly"],["\u0120second","s"],["\u0120design","s"],["\u01209","2"],["\u0120ph","ys"],["\u0120ph","oen"],["\u0120mem","ber"],["\u0120sur","f"],["\u0120sur","render"],["\u0120pe","ter"],["\u0120mon","ot"],["\u0120hor","n"],["\u0120miss","ed"],["\u0120ark","adelphia"],["aw","ay"],["vem","ents"],["\u0120ent","r"],["\u0120crit","ics"],["\u0120brit","ain"],["\u0120high","ly"],["\u0120soc","ial"],["\u0120cal","endar"],["\u0120do","es"],["\u0120dist","inct"],["\u0120class","es"],["\u0120met","eor"],["\u0120gre","w"],["\u0120ele","v"],["\u0120lo","st"],["\u0120lo","ok"],["\u0120ver","sion"],["\u0120list","en"],["\u0120connect","ion"],["\u0120acc","om"],["\u0120acc","ount"],["\u0120max","imum"],["\u0120previous","ly"],["\u0120major","ity"],["\u0120tur","n"],["\u0120dire","ction"],["\u0120period","s"],["\u0120requ","est"],["\u0120requ","ire"],["\u0120equ","ated"],["\u0120estab","lish"],["\u0120ste","am"],["\u0120ord","ers"],["\u0120remain","der"],["\u0120stat","ues"],["\u0120stat","istics"],["\u0120review","s"],["\u0120invol","ving"],["\u0120iss","ues"],["\u0120round","s"],["\u0120san","ct"],["\u0120sister","s"],["\u0120fun","ction"],["\u0120pred","yn"],["\u0120nav","al"],["\u0120rif","le"],["\u0120addition","al"],["rid","ges"],["\u0120plan","ning"],["\u0120hand","s"],["\u0120el","imin"],["\u0120level","s"],["\u0120pound","s"],["\u0120incre","ased"],["ym","es"],["\u0120house","full"],["\u0120dec","ommission"],["\u0120ke","pt"],["\u0120ke","ep"],["\u0120consist","ing"],["\u0120author","ities"],["\u0120difficult","y"],["\u0120tor","onto"],["\u0120med","ia"],["\u0120mark","ed"],["\u0120gall","ia"],["\u0120weap","on"],["\u0120suggest","ed"],["bo","at"],["\u0120inj","ured"],["\u0120mor","al"],["\u0120unl","ike"],["\u0120exist","ence"],["\u0120adv","anced"],["\u0120licens","ed"],["\u0120squad","ron"],["\u0120hit","chcock"],["\u0120del","iver"],["\u0120interact","ion"],["\u0120becom","ing"],["\u0120ang","eles"],["\u0120concept","s"],["\u0120close","ly"],["\u0120impro","vements"],["\u0120assist","ant"],["\u0120slow","ly"],["\u0120purch","ased"],["\u0120purch","ase"],["\u0120cour","se"],["\u0120ben","ef"],["\u0120ball","o"],["\u0120pol","itical"],["\u0120da","ily"],["\u0120link","ed"],["\u0120rese","arch"],["\u0120ve","ter"],["\u0120vict","ory"],["\u0120repl","aced"],["\u0120spir","its"],["\u0120green","away"],["\u0120friend","s"],["\u0120pharaoh","s"],["\u0120sen","j\u00c5"],["\u0120situ","ation"],["\u0120wis","niews"],["\u0120ey","e"],["\u0120ask","ed"],["\u0120asse","mb"],["\u0120shif","t"],["\u0120tele","vision"],["\u0120flint","lock"],["\u0120accept","ed"],["\u0120block","ade"],["\u0120individ","ual"],["\u0120respons","ibility"],["\u0120favor","ite"],["\u0120econom","ic"],["\u0120pit","lake"],["\u0120incorpor","ated"],["\u0120hig","hest"],["\u0120decl","ined"],["\u0120station","ed"],["\u0120sele","cted"],["\u0120constru","ction"],["\u0120rh","ymes"],["\u0120poly","t"],["\u0120flo","or"],["\u0120pries","ts"],["\u0120respect","ively"],["\u0120particip","ated"],["\u0120successful","ly"],["\u0120threaten","ed"],["\u0120sou","l"],["\u0120cru","isers"],["\u0120bol","lywood"],["\u0120pict","ure"],["\u0120reve","aled"],["\u0120dece","mber"],["\u0120exh","ib"],["\u0120transfer","red"],["\u0120maintain","ing"],["\u0120defense","man"],["\u0120descript","ion"],["\u0120promin","ent"],["\u0120paint","ings"],["\u0120sol","ar"],["\u0120sab","res"],["\u0120cit","iz"],["\u0120cam","den"],["\u0120cart","ridges"],["\u0120fac","ilities"],["\u0120pist","on"],["\u0120stre","et"],["\u0120ital","ian"],["\u0120compan","y"],["\u0120indep","endent"],["\u0120wind","ow"],["\u0120myster","ious"],["\u0120subsequ","ently"],["\u0120laun","ched"],["\u0120magaz","ine"],["\u0120casem","ate"],["\u0120astr","onom"],["\u0120sak","imoto"],["\u0120cere","mon"],["\u0120cess","na"],["\u0120ful","ly"],["\u0120pot","ential"],["\u0120pant","heon"],["\u0120page","ant"],["\u0120mone","y"],["\u0120hind","man"],["\u0120nah","ant"],["\u0120thous","and"],["\u0120jacquel","ine"],["\u0120uniqu","e"],["\u0120exped","ition"],["\u0120perman","ent"],["\u0120coyot","es"],["\u0120disapp","o"],["\u0120phoen","ix"],["\u0120predyn","astic"],["\u0120elimin","ated"],["\u0120senj\u00c5","\u012f"],["\u0120wisniews","ki"],["1","8"],["8","0"],["a","x"],["a","an"],["a","ul"],["b","s"],["b","ed"],["b","ack"],["c","ou"],["c","ut"],["c","sen"],["c","ards"],["d","e"],["d","ron"],["d","ney"],["f","s"],["g","l"],["g","on"],["g","un"],["g","ic"],["h","aps"],["i","us"],["j","id"],["j","ust"],["k","hen"],["l","er"],["l","ist"],["m","a"],["m","at"],["m","ann"],["n","iel"],["n","ought"],["o","res"],["p","ing"],["p","ose"],["t","ical"],["t","ah"],["u","als"],["w","ide"],["w","ise"],["x","imately"],["y","c"],["y","pe"],["\u00af","r"],["\u00b9","\u00afr"],["\u00e1","\u00b9\u00afr"],["\u0120","%"],["\u0120","+"],["\u0120","ult"],["\u0120t","al"],["\u0120t","est"],["\u0120t","amp"],["\u0120t","ask"],["\u0120t","akes"],["\u0120t","ax"],["\u0120a","id"],["\u0120a","khen"],["in","for"],["in","ery"],["\u0120the","ories"],["\u0120the","bes"],["er","ry"],["\u0120s","am"],["\u0120s","und"],["\u0120s","port"],["\u0120s","ales"],["\u0120s","oph"],["\u0120w","ent"],["\u0120w","id"],["\u0120w","ake"],["\u0120w","ound"],["re","am"],["re","me"],["\u0120c","ustom"],["un","g"],["\u0120f","is"],["\u0120f","ant"],["\u0120f","ear"],["\u0120f","ont"],["at","s"],["at","ch"],["at","form"],["or","ns"],["or","bed"],["\u0120b","r"],["\u0120b","ay"],["\u0120b","ann"],["it","ting"],["en","ge"],["\u0120p","le"],["\u0120p","ack"],["\u0120p","ast"],["\u0120p","owers"],["\u0120p","ius"],["\u0120p","tah"],["\u0120in","side"],["\u0120an","t"],["\u0120an","al"],["\u0120m","ur"],["\u0120m","ut"],["\u0120m","umb"],["\u0120m","ix"],["\u0120m","umm"],["\u0120m","unition"],["ing","u"],["ing","ton"],["al","ing"],["ar","ily"],["ar","row"],["ar","ters"],["is","ing"],["is","od"],["is","ions"],["\u0120d","one"],["\u0120d","ah"],["\u0120d","read"],["as","es"],["\u0120g","old"],["\u0120g","ross"],["\u0120to","dd"],["\u0120h","ous"],["ic","ago"],["\u0120l","ang"],["\u0120l","ived"],["\u0120l","eng"],["\u0120l","ord"],["\u0120l","iving"],["\u0120re","port"],["\u0120re","ject"],["\u0120re","ports"],["\u0120re","ception"],["\u0120re","infor"],["\u0120n","et"],["\u0120n","\u00e1\u00b9\u00afr"],["\u0120n","arrow"],["\u0120th","ink"],["\u0120e","igh"],["il","ies"],["ac","y"],["am","a"],["am","ity"],["om","ing"],["ly","ph"],["\u0120was","n"],["\u0120for","ced"],["\u0120for","ward"],["\u0120de","ploy"],["\u0120st","ing"],["\u0120st","ra"],["\u0120st","ap"],["\u0120st","ained"],["\u0120st","ring"],["\u0120st","ores"],["ay","a"],["\u0120he","ard"],["ad","es"],["ig","hed"],["ter","ed"],["\u0120al","tern"],["se","mble"],["id","ian"],["ol","s"],["ol","ut"],["ul","ed"],["ul","ace"],["um","e"],["um","es"],["\u0120se","a"],["\u0120se","em"],["\u0120se","quel"],["\u0120se","ctors"],["ra","ham"],["\u0120con","st"],["\u0120con","fer"],["\u0120con","dition"],["\u0120ch","os"],["\u0120ch","ose"],["\u0120ch","icago"],["ver","ty"],["her","n"],["pt","ations"],["\u0120it","self"],["if","a"],["ch","ange"],["\u0120r","am"],["\u0120j","ar"],["\u0120j","our"],["\u0120com","edy"],["\u0120k","erry"],["\u0120pl","atform"],["\u0120v","ia"],["\u0120v","int"],["\u0120v","ision"],["\u0120or","acles"],["ain","s"],["\u0120un","if"],["\u0120un","able"],["\u0120ar","ch"],["\u0120ar","niel"],["\u0120ar","aya"],["av","ior"],["\u0120ro","ber"],["\u0120ro","ok"],["\u0120ro","ll"],["\u0120air","line"],["\u0120air","stri"],["\u0120wor","d"],["\u0120wor","ds"],["\u0120\u00e2","\u0124"],["ag","n"],["gh","t"],["\u0120sh","ap"],["\u0120pro","s"],["\u0120pro","ved"],["\u0120pro","posed"],["op","l"],["qu","ate"],["ak","ed"],["\u0120y","our"],["ab","ility"],["\u0120all","en"],["\u0120per","mitted"],["\u0120per","haps"],["\u0120le","o"],["\u0120le","ade"],["\u0120po","verty"],["ment","al"],["\u0120cont","ent"],["\u0120cont","ribut"],["\u0120man","aged"],["ous","ly"],["\u0120af","ric"],["per","ial"],["\u0120fl","ag"],["\u0120fl","ood"],["\u0120tw","in"],["\u0120comm","ission"],["ia","h"],["\u0120bu","ck"],["\u0120cl","os"],["\u0120col","lect"],["\u01203","6"],["\u0120i","ifa"],["\u0120im","med"],["\u0120im","perial"],["\u0120am","b"],["\u0120go","od"],["\u0120buil","d"],["\u01204","0"],["\u01204","8"],["\u01204","9"],["\u01204","22"],["\u0120ab","raham"],["\u0120pr","inc"],["\u0120en","j"],["\u0120en","semble"],["\u0120div","ided"],["\u0120reg","arded"],["\u0120comp","os"],["\u0120over","t"],["\u0120rel","ated"],["\u0120new","s"],["\u0120fe","ed"],["\u0120fe","el"],["og","lyph"],["\u01205","9"],["\u0120sc","ore"],["\u0120sc","ale"],["iz","ations"],["\u0120can","aan"],["\u0120ag","round"],["\u0120ag","gress"],["\u0120ag","reed"],["\u0120sp","l"],["\u0120fer","til"],["\u0120spe","ct"],["\u0120spe","aking"],["\u0120200","1"],["\u0120200","2"],["\u0120200","3"],["\u0120off","ice"],["\u0120me","ant"],["\u0120me","asure"],["\u0120me","chan"],["ell","s"],["\u01207","7"],["\u0120pre","cious"],["\u0120dis","p"],["\u0120ob","ject"],["\u0120oper","ates"],["\u0120sa","w"],["\u0120sa","jid"],["\u0120we","ighed"],["iss","ipp"],["\u0120aer","o"],["\u0120aer","opl"],["\u0120sy","dney"],["\u0120199","2"],["\u01208","0"],["\u0120bo","ard"],["\u0120att","ended"],["\u0120att","ribut"],["\u0120att","ached"],["\u0120jo","int"],["\u01206","4"],["\u0120win","ter"],["\u0120win","ner"],["\u0120gl","ass"],["\u0120trans","l"],["\u0120cre","ate"],["\u0120186","4"],["\u0120186","5"],["\u0120end","ed"],["\u0120main","tained"],["\u0120rec","ently"],["\u0120start","ing"],["\u01209","6"],["\u0120qu","ick"],["\u0120serv","ing"],["\u0120ph","ot"],["\u0120giv","es"],["\u0120art","work"],["ock","ed"],["\u0120eng","land"],["\u0120loc","ations"],["\u0120miss","issipp"],["\u0120gun","boat"],["\u0120trad","ing"],["\u0120contin","ues"],["aw","n"],["\u0120er","a"],["\u0120bro","ke"],["\u0120bro","ken"],["\u0120198","7"],["\u012015","1"],["\u0120fr","ame"],["\u0120port","able"],["\u0120power","ed"],["\u0120rev","olut"],["\u0120cal","amity"],["\u0120dist","ingu"],["\u0120produ","cing"],["\u0120milit","ia"],["\u0120fam","ilies"],["\u0120lic","ences"],["\u0120gover","ned"],["\u0120myth","ology"],["\u0120pur","pose"],["\u0120pop","ulace"],["\u0120mar","g"],["\u0120gr","and"],["\u0120import","ance"],["\u0120offic","er"],["\u0120offic","ers"],["\u0120lo","ad"],["\u0120club","s"],["ring","ton"],["\u0120ver","sions"],["int","ing"],["eng","ers"],["\u0120acc","idents"],["\u0120tur","ned"],["\u0120194","2"],["\u0120194","3"],["\u0120194","8"],["\u0120tradition","s"],["\u0120even","ing"],["\u0120sun","g"],["\u0120mask","rays"],["\u0120ste","p"],["\u0120support","ing"],["\u0120beh","avior"],["\u0120dem","o"],["\u0120dem","on"],["\u0120193","0"],["\u0120193","3"],["\u0120sub","ject"],["\u0120instr","u"],["\u0120ritu","al"],["\u0120shot","gun"],["\u0120fun","ctions"],["\u0120pat","ch"],["\u0120pat","tern"],["\u0120pred","omin"],["\u0120offer","ed"],["istic","ated"],["\u0120var","iety"],["\u0120ext","ent"],["\u0120ext","ra"],["\u0120control","led"],["\u0120pres","ence"],["\u0120pres","ervation"],["\u0120worship","ped"],["\u0120large","ly"],["\u0120critic","ized"],["\u0120influ","enced"],["\u0120el","ite"],["\u0120appro","ximately"],["por","ate"],["\u0120pain","ted"],["\u0120pass","ed"],["\u0120ren","amed"],["\u0120stru","ck"],["\u0120stru","cture"],["\u0120rich","ard"],["\u0120ke","y"],["\u0120post","cards"],["\u0120qual","ified"],["\u0120loss","es"],["\u0120protect","ion"],["\u0120tit","led"],["\u0120196","0"],["\u0120196","2"],["\u0120organ","ization"],["\u0120coach","ing"],["bo","ard"],["\u0120occ","as"],["\u0120fem","ales"],["\u0120ba","pt"],["\u0120dev","olved"],["\u0120chang","ed"],["\u0120dest","ination"],["\u0120dest","roy"],["\u0120vis","ual"],["\u0120suffer","ing"],["\u0120intro","duction"],["\u0120illustr","ated"],["\u0120cor","porate"],["\u0120fle","x"],["\u0120mer","idian"],["\u0120di","agn"],["\u0120lank","an"],["\u0120refer","red"],["\u0120ep","isod"],["\u0120conc","ur"],["\u0120rul","es"],["\u0120come","back"],["\u0120voc","al"],["\u0120short","ly"],["\u0120shell","s"],["\u0120examp","les"],["\u0120pract","ice"],["\u0120earl","iest"],["\u0120saf","e"],["\u0120depart","ment"],["\u0120depict","ing"],["\u0120brother","s"],["\u0120symbol","ic"],["\u0120ic","ao"],["\u0120cas","es"],["\u0120cur","rent"],["\u0120cur","tis"],["\u0120rese","mble"],["\u0120197","0"],["\u0120arg","ued"],["\u0120process","ions"],["\u0120model","ing"],["\u0120promot","e"],["\u0120effort","s"],["\u0120champions","hips"],["\u0120situ","ations"],["\u0120wall","s"],["\u0120reason","s"],["\u0120ey","es"],["ament","al"],["\u0120det","ail"],["\u0120acqu","ired"],["augh","ter"],["\u0120grant","ed"],["\u0120respons","ible"],["\u0120econom","y"],["\u0120aut","om"],["\u0120wal","dron"],["\u0120fund","amental"],["\u0120dar","ling"],["\u0120dar","csen"],["\u0120dou","gl"],["ime","ter"],["\u0120manufact","ure"],["\u0120cau","se"],["\u0120cau","ght"],["\u0120ada","pted"],["\u0120express","ed"],["\u0120communic","ation"],["\u0120helicop","ter"],["\u0120helicop","ters"],["\u0120cap","ital"],["\u0120den","ied"],["\u0120ground","sel"],["\u0120hon","or"],["\u0120happ","en"],["\u0120chart","s"],["\u0120expect","ed"],["\u012038","5"],["\u0120liter","ature"],["\u0120sched","uled"],["\u0120instrument","ation"],["\u0120occur","red"],["\u0120reflect","ing"],["\u0120farm","land"],["\u0120bi","ography"],["\u0120mach","inery"],["\u0120dam","aged"],["\u0120gard","en"],["\u0120hier","oglyph"],["\u0120nort","hern"],["\u0120nub","ia"],["\u0120withd","raw"],["\u0120shoot","out"],["\u0120claim","ed"],["\u0120abs","orbed"],["\u0120diver","se"],["\u0120perspect","ive"],["\u0120predecess","ors"],["\u0120epithe","ts"],["\u0120restrict","ions"],["\u0120wood","en"],["\u0120bah","rain"],["\u0120lot","tery"],["\u0120lab","el"],["\u0120stor","rington"],["ceed","ed"],["\u0120ju","ly"],["\u0120egyptolog","ist"],["\u0120env","iron"],["\u0120ado","pted"],["\u0120interp","re"],["\u0120remo","ved"],["\u0120phys","ical"],["\u0120horn","ung"],["\u0120meteor","ological"],["\u0120accom","pan"],["\u0120decommission","ed"],["\u0120benef","it"],["\u0120assemb","led"],["\u0120polyt","heistic"],["\u0120citiz","ens"],["\u0120ceremon","ies"],["18","22"],["cut","ive"],["\u0120tamp","a"],["\u0120akhen","aten"],["\u0120sund","ial"],["\u0120soph","isticated"],["\u0120fant","asy"],["\u0120bann","er"],["\u0120mumb","ai"],["\u0120mumm","ies"],["\u0120munition","s"],["\u0120dah","au"],["\u0120dread","nought"],["\u0120lang","u"],["\u0120leng","th"],["\u0120eigh","th"],["\u0120stap","les"],["\u0120chos","en"],["\u0120vint","age"],["\u0120rook","ie"],["\u0120airstri","ps"],["\u0120shap","ed"],["\u0120leade","th"],["\u0120afric","a"],["\u0120princ","ip"],["\u0120mississipp","i"],["\u0120revolut","ion"],["\u0120shotgun","s"],["\u0120waldron","s"],["\u0120dougl","as"],["a","et"],["a","ult"],["a","fs"],["b","ra"],["c","he"],["c","is"],["c","end"],["c","ure"],["c","ope"],["d","ress"],["d","tv"],["e","es"],["e","per"],["g","s"],["g","ing"],["g","ment"],["g","ren"],["g","row"],["g","ments"],["g","raph"],["g","ency"],["h","ist"],["h","ie"],["h","icles"],["h","old"],["i","am"],["i","ad"],["i","os"],["i","ately"],["j","ou"],["k","ner"],["l","c"],["l","is"],["l","ess"],["l","ight"],["l","aces"],["m","in"],["m","es"],["m","as"],["m","ill"],["m","ates"],["n","y"],["n","es"],["n","ow"],["n","el"],["o","v"],["o","ly"],["o","ke"],["o","ying"],["p","ri"],["p","ass"],["p","ell"],["p","pl"],["p","read"],["r","um"],["r","ies"],["r","and"],["r","ict"],["r","ican"],["r","ane"],["s","h"],["s","es"],["s","ing"],["t","een"],["t","rack"],["t","rant"],["u","g"],["u","el"],["u","able"],["v","al"],["w","h"],["w","ent"],["y","an"],["y","th"],["z","awa"],["\u00a1","\u00e3\u0125"],["\u00a5","\u00e3\u0125"],["\u00a6","\u00e5"],["\u00aa","\u00e3\u0124"],["\u00ab","\u00e3\u0124"],["\u00ae","\u00e3\u0125"],["\u00b4","\u00e3"]],"type":"BPE","unk_token":"<unk>","vocab":{"!":1,"\"":2,"#":3,"$":4,"%":5,"&":6,"'":7,"(":8,")":9,"*":10,"+":11,",":12,",@":593,"-":13,"-@":337,".":14,"..":3015,".@":609,"/":15,"0":16,"00":404,"000":869,"1":17,"18":3446,"1822":3984,"2":18,"22":2272,"3":19,"4":20,"5":21,"50":2725,"6":22,"69":3016,"7":23,"8":24,"80":3447,"9":25,":":26,";":27,"<":28,"<unk>":0,"=":29,">":30,"?":31,"@":32,"A":33,"B":34,"C":35,"D":36,"E":37,"F":38,"G":39,"H":40,"I":41,"J":42,"K":43,"L":44,"M":45,"N":46,"O":47,"P":48,"Q":49,"R":50,"S":51,"T":52,"U":53,"V":54,"W":55,"X":56,"Y":57,"Z":58,"[":59,"\\":60,"]":61,"^":62,"_":63,"`":64,"a":65,"aan":3449,"ab":457,"ability":3665,"able":735,"ably":2192,"abor":1429,"ac":309,"ace":672,"aced":1240,"aces":1310,"ach":577,"ached":1610,"acing":1861,"ack":405,"acles":2157,"acquel":3128,"act":587,"acter":719,"acy":3584,"ad":332,"ade":618,"adel":2355,"adelphia":2479,"ades":3601,"ael":2728,"aet":4014,"aff":1822,"afs":4016,"ag":426,"age":677,"aged":1544,"ages":1183,"agn":3655,"ago":3176,"ague":1281,"ah":954,"ai":2103,"ail":985,"aim":2727,"ain":394,"ained":917,"ains":3640,"air":722,"aired":2483,"ait":2726,"ak":450,"ake":750,"aked":3663,"aken":2190,"akes":1695,"aking":1282,"al":287,"ale":1308,"aled":2325,"alers":3100,"ales":1527,"alf":1750,"aling":3552,"all":417,"alled":3175,"ally":517,"als":640,"alth":2791,"am":312,"ama":3585,"ame":395,"amed":3129,"ament":2158,"amental":3910,"ames":595,"amity":3586,"amp":931,"an":283,"ance":549,"anced":2535,"ances":1676,"and":383,"anded":2574,"ane":3096,"ang":910,"ange":1140,"ank":1016,"ann":1001,"annah":1803,"ans":467,"ansas":1056,"ant":436,"antly":2850,"ao":1582,"aos":2273,"ap":476,"app":1623,"aps":1479,"ar":290,"arao":1993,"arch":1850,"ard":451,"arded":3181,"ards":801,"are":1336,"ared":1130,"aren":2729,"arian":2142,"arily":3553,"ark":529,"arker":744,"arn":2792,"arrow":3554,"ars":1459,"art":418,"arters":3555,"arth":1849,"ary":470,"as":294,"asar":3106,"ase":847,"ased":717,"ases":3562,"ash":1234,"ask":944,"aska":2639,"ason":538,"ass":628,"ast":584,"astic":2601,"asure":3107,"asy":2796,"at":274,"ata":2310,"atch":3526,"ate":401,"ated":425,"ately":1690,"aten":3080,"ater":725,"ates":834,"ateur":2374,"atform":3527,"ath":1014,"ather":1137,"atican":2311,"ating":1047,"ation":329,"ational":653,"ations":489,"ative":1743,"atively":2770,"ator":1982,"ators":3082,"atory":970,"ats":3525,"ature":3081,"au":889,"augh":2230,"aughter":3913,"aul":3450,"ault":4015,"ause":1635,"av":403,"ave":525,"aving":1880,"avior":3646,"aw":955,"awa":2908,"away":3261,"awn":3775,"ax":3448,"ay":330,"aya":3599,"ayed":3139,"ayer":882,"ays":741,"az":2482,"b":66,"bably":3019,"back":3453,"ball":1295,"bb":2274,"bed":3452,"ber":518,"bers":1444,"bes":3017,"bia":1296,"ble":828,"bo":1658,"board":3861,"boat":3329,"br":1337,"bra":4017,"bru":1391,"bs":3451,"bum":700,"bur":3018,"c":67,"ca":2484,"cards":3457,"cc":1659,"ce":365,"ced":665,"ceed":3157,"ceeded":3967,"cend":4020,"cept":883,"ception":2900,"cer":1338,"ces":829,"cess":668,"ch":379,"chan":3159,"change":3629,"chcock":3160,"che":4018,"ched":1727,"ches":3020,"chise":1475,"cial":803,"cing":2104,"cious":2486,"cis":4019,"ck":573,"cl":1037,"clad":2063,"clus":2921,"co":2485,"cock":2730,"com":2275,"con":667,"cope":4022,"cor":504,"cording":1376,"corpor":2198,"cou":3454,"craft":548,"cret":1823,"csen":3456,"ct":341,"cted":1146,"ction":811,"ctions":1865,"ctor":1099,"ctors":2817,"cture":3144,"cure":4021,"cut":3455,"cutive":3985,"cy":1583,"d":68,"day":1954,"dd":2487,"de":3458,"ded":1445,"den":2731,"der":477,"des":2105,"dess":1067,"din":1392,"ding":494,"dition":1068,"dle":2276,"dney":3460,"dom":918,"don":1297,"dress":4023,"dron":3459,"ds":1066,"dtv":4024,"du":597,"duced":1899,"duction":3211,"e":69,"ead":1955,"ear":519,"ecess":2732,"ect":530,"ected":3194,"ed":270,"eder":1136,"edic":3075,"edy":3074,"ee":3021,"een":678,"ees":4025,"ef":1728,"eff":2277,"el":361,"eles":2361,"eless":1767,"ell":676,"ells":3730,"els":3156,"em":385,"eman":2576,"ember":2175,"ement":1770,"en":278,"ena":2779,"ence":666,"enced":1988,"ences":1841,"ency":1842,"end":462,"endar":2852,"ended":1217,"endent":2591,"ender":1885,"ending":2378,"eng":1138,"enge":3534,"engers":3805,"ens":922,"ense":1410,"ent":308,"ential":1609,"ention":1533,"ently":1534,"ents":693,"eor":1502,"ep":1660,"eper":4026,"er":262,"erated":3059,"eration":2751,"ercial":1071,"ere":362,"ered":1093,"erick":2123,"ern":1665,"erry":3507,"ers":390,"ership":2369,"erv":569,"ervation":2598,"ery":2122,"es":279,"ese":2531,"ess":398,"essential":2179,"ession":3172,"est":428,"estern":2319,"et":371,"etim":1421,"etimes":1577,"ets":710,"ety":916,"ever":1160,"ez":791,"f":70,"fact":2106,"fer":556,"ff":643,"ffer":1729,"ffic":2618,"fic":1339,"fiel":1261,"field":1937,"for":564,"ford":1283,"fore":792,"form":711,"fort":3022,"fs":3461,"ft":469,"ful":1393,"full":3023,"g":71,"ga":2488,"gan":1584,"gart":2735,"garten":3008,"ge":514,"ged":1503,"gency":4034,"ges":2734,"get":1585,"gg":1199,"gh":427,"ght":3656,"gic":3465,"ging":4028,"gl":3462,"gment":4029,"gments":4032,"go":3024,"gon":3463,"gor":1956,"gr":2733,"graph":4033,"gren":4030,"gress":1730,"ground":2107,"grow":4031,"gs":4027,"gun":3464,"gy":441,"h":72,"hab":2736,"ham":3026,"han":2278,"haps":3466,"haw":1957,"he":259,"hed":553,"heistic":2508,"hen":1593,"heon":3056,"her":370,"here":3055,"hern":3625,"hes":939,"hest":1969,"hetic":2295,"hi":3025,"hicles":4037,"hie":4036,"hip":613,"hips":1702,"hist":4035,"hl":751,"hold":4038,"i":73,"ia":510,"iad":4040,"iah":3683,"ial":446,"ially":2027,"iam":4039,"ian":409,"iate":2489,"iated":2737,"iately":4042,"iation":655,"ib":1446,"iber":1958,"ibility":2669,"ible":1340,"ic":300,"icago":3567,"ical":765,"ically":2145,"ican":1267,"ice":848,"ices":1416,"ich":435,"icide":2550,"ick":718,"icles":795,"ics":1004,"ict":764,"icted":1754,"id":345,"ide":524,"ided":1274,"idence":1867,"ident":1615,"idents":2819,"ides":2007,"idian":3606,"ie":443,"ied":669,"iel":986,"ience":2492,"ient":1447,"ier":1131,"iers":1824,"ies":356,"iest":3152,"iety":1038,"iew":870,"iews":2632,"if":376,"ifa":3628,"ife":949,"ifest":2174,"ific":769,"ification":2224,"ified":1101,"ig":339,"igh":419,"ighed":3602,"ight":466,"ighter":2585,"igin":839,"ign":475,"ii":873,"iii":2633,"ik":3027,"ike":2491,"il":307,"ilar":2345,"ild":838,"ile":576,"ilies":3583,"ilities":2346,"ility":1681,"ill":507,"illa":2859,"iller":2592,"illion":1548,"ills":2384,"ily":880,"im":340,"imately":2816,"ime":2356,"iment":3142,"imeter":3923,"imin":2815,"imoto":3143,"imum":2357,"in":260,"ination":3057,"inc":2509,"ince":1206,"inct":2510,"ind":1204,"inder":2296,"ine":447,"ined":993,"inery":3504,"ines":1304,"iness":1169,"infor":3503,"ing":286,"ingly":1848,"ings":550,"ington":3551,"ingu":3550,"ining":1205,"inition":1832,"ink":1303,"ins":1168,"int":1112,"inted":3058,"inting":3804,"io":1586,"iod":1161,"ion":299,"ional":1237,"ions":551,"ior":1587,"ios":4041,"ious":594,"ip":423,"ipp":2843,"iqu":2490,"ir":311,"irc":2808,"ire":632,"ired":890,"iring":2809,"iris":1757,"iron":1241,"is":291,"ise":943,"ised":927,"isers":2793,"ish":660,"ished":835,"ising":3556,"ision":1174,"isions":3558,"ism":972,"isod":3557,"iss":726,"ission":1788,"issipp":3739,"ist":382,"ister":1018,"istic":1367,"isticated":3831,"istics":1769,"ists":2573,"it":277,"itable":2530,"ital":2318,"ite":737,"ited":738,"iter":2778,"ites":1986,"ith":333,"ithe":2777,"ither":1597,"itical":3090,"ities":431,"ition":461,"itors":1840,"its":971,"itted":1987,"itting":3533,"itu":1048,"ity":449,"ius":3467,"iv":323,"ival":2351,"ivals":3134,"ive":433,"ived":933,"ively":1025,"iver":932,"ivers":1862,"ives":1418,"ivid":2162,"iving":2350,"ix":747,"ixed":1559,"iz":626,"ization":2611,"izations":3714,"ize":1782,"ized":962,"j":74,"ject":1009,"jects":1804,"jid":3468,"jou":4043,"just":3469,"j\u00c5":3028,"k":75,"ke":579,"ken":1731,"key":1379,"khen":3470,"ki":2493,"kner":4044,"ks":2279,"ky":619,"kyria":698,"l":76,"laces":4049,"lake":3030,"land":1132,"lant":1039,"lc":4045,"ld":393,"le":318,"lect":1611,"led":874,"ledge":2051,"ler":3471,"les":460,"less":4047,"ley":3131,"lf":1825,"lic":818,"light":4048,"line":1394,"ling":1826,"lis":4046,"lish":1827,"lished":1069,"list":3472,"ll":1227,"lo":3029,"lock":3031,"low":891,"lu":415,"luded":3174,"ludes":2584,"lustr":1774,"ly":316,"lyph":3588,"lywood":2559,"m":77,"ma":3473,"man":1133,"mann":3475,"mas":4052,"mat":3474,"mates":4054,"mb":1395,"mber":3032,"mble":1960,"me":2738,"med":1959,"ment":479,"mental":3672,"mented":3187,"ments":1103,"mes":4051,"mill":4053,"min":4050,"mission":2282,"mitted":3033,"mon":1504,"mos":2280,"most":2740,"ms":1200,"mund":2739,"munition":2281,"n":78,"na":2283,"nall":2494,"nance":1588,"nand":804,"national":1505,"nd":2741,"ne":1298,"nect":1134,"ned":771,"nel":4058,"ner":1341,"nes":4056,"ness":2108,"ney":2442,"niel":3476,"niews":3034,"ning":644,"nought":3477,"now":4057,"ns":1040,"ny":4055,"o":79,"ober":2495,"oc":406,"och":2109,"ock":902,"ocked":3768,"ockey":1425,"od":325,"odrom":976,"oen":3035,"off":1507,"og":605,"oglyph":3710,"ogn":2873,"ograph":1553,"ography":2251,"ogy":1661,"ok":614,"oke":4061,"oked":2874,"ol":348,"old":900,"olog":1420,"ological":2667,"ology":1683,"ols":3607,"olut":3608,"olved":2820,"oly":4060,"om":315,"omb":2003,"ombard":2262,"ome":493,"omena":2810,"omin":2159,"oming":3587,"ommission":3130,"on":268,"ond":2301,"one":831,"ong":464,"onom":2520,"ons":784,"ont":2760,"onto":3069,"ood":956,"ool":1396,"oot":2742,"op":434,"ope":1828,"oph":2849,"opl":3661,"ops":1320,"or":275,"orbed":3529,"ord":2312,"order":2772,"ore":580,"ored":1342,"ores":3478,"ories":2313,"ork":1265,"orm":2771,"orn":1522,"orns":3528,"oroth":2314,"ors":716,"ort":410,"orter":3083,"orth":1231,"ory":490,"os":416,"ose":830,"osed":1280,"osp":2841,"ost":1448,"ot":324,"oth":694,"other":809,"otion":2812,"oto":3135,"ots":3136,"ott":1612,"ou":310,"ough":534,"ought":1779,"ould":482,"oun":987,"ounced":2914,"ound":2284,"ount":2427,"our":515,"ous":492,"ouse":1362,"ously":3676,"out":562,"outh":776,"ov":4059,"ove":1829,"ow":350,"ower":641,"owers":2170,"own":695,"oy":1506,"oying":4062,"p":80,"pan":1962,"par":1732,"pass":4064,"pe":399,"pect":868,"ped":968,"pedo":2912,"pell":4065,"per":499,"perial":3678,"ph":611,"phia":2400,"phy":2399,"ping":3479,"pire":3036,"pite":1509,"pl":701,"play":1705,"ploy":1907,"por":1508,"porate":3844,"port":481,"ports":1375,"pos":988,"pose":3480,"posed":2645,"poses":2058,"ppl":4066,"pread":4067,"pri":4063,"pro":1041,"ps":1961,"pt":372,"ptations":3626,"pted":1215,"q":81,"qu":444,"quate":3662,"quel":2188,"r":82,"ra":357,"rack":2496,"raft":484,"raham":3617,"rain":3153,"ral":1830,"rand":4070,"rane":4073,"rant":3037,"raph":1275,"raw":1765,"ray":1201,"rays":3038,"re":267,"read":1518,"reak":1114,"ream":3517,"reat":622,"red":420,"ree":635,"reed":2759,"reek":2615,"rel":3068,"reme":3518,"ren":682,"render":3227,"rent":2044,"res":411,"resent":625,"ress":812,"ret":1517,"rew":1668,"ri":389,"ria":686,"rib":732,"ribut":1220,"ribute":2934,"ric":2110,"rican":4072,"rict":4071,"rid":1397,"ridge":1943,"ridges":3308,"ried":1245,"ries":4069,"ril":2111,"ring":1110,"rington":3802,"ript":1877,"ris":2285,"rist":1202,"rit":505,"ro":297,"rol":913,"rolight":1638,"rom":369,"ron":620,"rop":2144,"ross":1460,"rou":567,"rough":696,"round":690,"row":914,"roy":3111,"ru":728,"rum":4068,"ry":670,"s":83,"se":344,"sel":866,"self":1384,"selves":1798,"semble":3605,"sen":748,"sequ":2168,"ses":4075,"seum":1537,"sh":4074,"ship":1070,"side":1042,"sing":4076,"sion":1398,"sions":3039,"so":526,"son":1662,"sp":1343,"ss":1162,"st":319,"stand":2560,"station":2160,"stem":1312,"ster":1759,"ston":3132,"str":522,"stral":2386,"stri":3133,"stru":1891,"stry":1626,"t":84,"tah":3482,"tain":1092,"tained":2745,"tar":3041,"te":1510,"ted":656,"teen":4077,"ten":729,"tender":2112,"ter":342,"tered":3603,"tern":1365,"ters":1315,"tery":3145,"th":349,"ther":452,"thing":2169,"throp":2565,"tic":1734,"tical":3481,"til":1228,"ting":1344,"tis":2744,"tle":521,"tnall":2497,"to":1733,"ton":1010,"track":4078,"trant":4079,"ts":497,"tt":2743,"tv":3040,"ty":1163,"u":85,"uable":4082,"ual":1345,"ually":1203,"uals":3483,"uary":1400,"ub":723,"uc":1963,"uck":2498,"ud":938,"ue":557,"ued":1043,"uel":4081,"ues":1399,"ufact":2286,"ug":4080,"ul":351,"ulace":3610,"ular":685,"ulation":2566,"ule":2113,"uled":3609,"ull":578,"ult":608,"um":352,"umb":673,"umber":1006,"ume":3611,"umed":2821,"umes":3612,"umm":1538,"un":271,"und":438,"une":1406,"ung":3520,"unition":1742,"unk":288,"unning":2307,"up":1449,"ur":347,"ural":1764,"ure":568,"ured":1164,"ures":1511,"uries":2564,"uring":612,"urt":3146,"ury":1473,"us":363,"used":2826,"ussion":2011,"ust":645,"ustom":2879,"ut":364,"ute":1685,"utes":2570,"v":86,"val":4083,"ve":646,"ved":647,"vel":598,"vem":989,"vements":3262,"ven":1262,"ver":368,"verty":3624,"ves":1263,"vey":3218,"ving":1964,"vision":1965,"w":87,"wal":2746,"ward":1966,"way":1663,"ways":1512,"ween":772,"well":3042,"went":4085,"wh":4084,"wick":2747,"wide":3484,"wise":3485,"wood":2499,"work":2114,"worth":2287,"x":88,"ximately":3486,"xt":1401,"y":89,"yan":4086,"yc":3487,"ydon":1589,"ying":1299,"yl":2500,"yle":2115,"ym":1513,"ymes":3315,"yn":2288,"yot":3043,"yp":1664,"ype":3488,"yr":1831,"ys":1967,"yth":4087,"z":90,"zawa":4088,"ze":2748,"zher":1300,"zog":1301,"{":91,"|":92,"}":93,"~":94,"\u00a1":95,"\u00a1\u00e3\u0125":4089,"\u00a2":96,"\u00a3":97,"\u00a4":98,"\u00a5":99,"\u00a5\u00e3\u0125":4090,"\u00a6":100,"\u00a6st":2289,"\u00a6\u00e5":4091,"\u00a7":101,"\u00a8":102,"\u00a9":103,"\u00aa":104,"\u00aa\u00e3\u0124":4092,"\u00ab":105,"\u00ab\u00e3\u0124":4093,"\u00ac":106,"\u00ae":107,"\u00ae\u00e3\u0125":4094,"\u00af":108,"\u00afr":3489,"\u00b0":109,"\u00b1":110,"\u00b2":111,"\u00b3":112,"\u00b4":113,"\u00b4\u00e3":4095,"\u00b5":114,"\u00b6":115,"\u00b7":116,"\u00b8":117,"\u00b9":118,"\u00b9\u00afr":3490,"\u00ba":119,"\u00bb":120,"\u00bc":121,"\u00bd":122,"\u00be":123,"\u00bf":124,"\u00c0":125,"\u00c1":126,"\u00c2":127,"\u00c3":128,"\u00c3\u00a6st":2290,"\u00c4":129,"\u00c5":130,"\u00c6":131,"\u00c7":132,"\u00c8":133,"\u00c9":134,"\u00ca":135,"\u00cb":136,"\u00cc":137,"\u00cd":138,"\u00ce":139,"\u00cf":140,"\u00d0":141,"\u00d1":142,"\u00d2":143,"\u00d3":144,"\u00d4":145,"\u00d5":146,"\u00d6":147,"\u00d7":148,"\u00d8":149,"\u00d9":150,"\u00da":151,"\u00db":152,"\u00dc":153,"\u00dd":154,"\u00de":155,"\u00df":156,"\u00e0":157,"\u00e1":158,"\u00e1\u00b9\u00afr":3491,"\u00e2":159,"\u00e3":160,"\u00e3\u0124":2116,"\u00e3\u0125":1735,"\u00e4":161,"\u00e5":162,"\u00e6":163,"\u00e7":164,"\u00e8":165,"\u00e9":166,"\u00ea":167,"\u00eb":168,"\u00ec":169,"\u00ed":170,"\u00ee":171,"\u00ef":172,"\u00f0":173,"\u00f1":174,"\u00f2":175,"\u00f3":176,"\u00f4":177,"\u00f5":178,"\u00f6":179,"\u00f7":180,"\u00f8":181,"\u00f9":182,"\u00fa":183,"\u00fb":184,"\u00fc":185,"\u00fd":186,"\u00fe":187,"\u00ff":188,"\u0100":189,"\u0101":190,"\u0102":191,"\u0103":192,"\u0104":193,"\u0105":194,"\u0106":195,"\u0107":196,"\u0108":197,"\u0109":198,"\u010a":199,"\u010b":200,"\u010c":201,"\u010d":202,"\u010e":203,"\u010f":204,"\u0110":205,"\u0111":206,"\u0112":207,"\u0113":208,"\u0114":209,"\u0115":210,"\u0116":211,"\u0117":212,"\u0118":213,"\u0119":214,"\u011a":215,"\u011b":216,"\u011c":217,"\u011d":218,"\u011e":219,"\u011f":220,"\u0120":221,"\u0120!":3044,"\u0120\"":321,"\u0120$":1590,"\u0120%":3492,"\u0120&":2117,"\u0120'":334,"\u0120(":380,"\u0120)":378,"\u0120+":3493,"\u0120,":265,"\u0120-":2291,"\u0120.":273,"\u0120...":3079,"\u0120/":1165,"\u01200":1514,"\u0120000":894,"\u01201":313,"\u012010":1363,"\u0120100":2348,"\u012011":1469,"\u012012":1178,"\u012013":1269,"\u012014":2347,"\u012015":975,"\u0120151":3780,"\u012016":1758,"\u012017":1311,"\u012018":572,"\u0120186":855,"\u01201861":2416,"\u01201862":1920,"\u01201863":2897,"\u01201864":3756,"\u01201865":3757,"\u0120189":2035,"\u012019":374,"\u0120190":2828,"\u0120191":1082,"\u01201918":2925,"\u0120192":799,"\u01201920":2049,"\u01201923":2050,"\u01201925":2892,"\u01201929":2893,"\u0120193":1276,"\u01201930":3820,"\u01201933":3821,"\u0120194":1180,"\u01201940":2932,"\u01201942":3808,"\u01201943":3809,"\u01201948":3810,"\u0120195":1617,"\u0120196":1618,"\u01201960":3857,"\u01201962":3858,"\u0120197":2014,"\u01201970":3899,"\u0120198":961,"\u01201985":2909,"\u01201986":2643,"\u01201987":3779,"\u01201988":2910,"\u0120199":756,"\u01201990":2221,"\u01201991":3235,"\u01201992":3743,"\u01201997":2886,"\u01201998":2047,"\u01202":360,"\u012020":508,"\u0120200":652,"\u01202001":3723,"\u01202002":3724,"\u01202003":3725,"\u01202005":3221,"\u01202006":1904,"\u01202007":2212,"\u01202008":2213,"\u01202009":2214,"\u0120201":591,"\u01202010":1898,"\u01202011":1218,"\u01202012":1551,"\u01202013":1701,"\u01202014":2398,"\u01202015":3210,"\u012021":2010,"\u012023":1684,"\u012024":1474,"\u012025":1766,"\u012026":3155,"\u012027":2569,"\u012028":2173,"\u012029":2825,"\u01203":541,"\u012030":2595,"\u0120300":2864,"\u012031":2390,"\u012035":3198,"\u012036":3687,"\u012038":2596,"\u0120385":3939,"\u01204":565,"\u012040":3694,"\u0120400":3202,"\u0120422":3697,"\u012045":3201,"\u012048":3695,"\u012049":3696,"\u01205":615,"\u012050":2875,"\u0120500":2038,"\u012054":3212,"\u012059":3711,"\u01206":782,"\u012064":3750,"\u01207":679,"\u012071":2405,"\u012077":3731,"\u01208":760,"\u012080":3744,"\u0120800":3237,"\u012088":1560,"\u01209":892,"\u012092":3250,"\u012096":3762,"\u0120:":558,"\u0120;":437,"\u0120<":289,"\u0120=":306,"\u0120@":314,"\u0120@,@":596,"\u0120@-@":338,"\u0120@.@":610,"\u0120[":1450,"\u0120]":1451,"\u0120a":258,"\u0120ab":566,"\u0120able":2867,"\u0120about":871,"\u0120above":2033,"\u0120abraham":3698,"\u0120abs":2866,"\u0120absorbed":3956,"\u0120ac":531,"\u0120acc":1151,"\u0120accept":2201,"\u0120accepted":3372,"\u0120access":2593,"\u0120accidents":3806,"\u0120accom":3280,"\u0120accompan":3977,"\u0120according":1378,"\u0120account":3281,"\u0120acqu":2200,"\u0120acquired":3912,"\u0120across":1778,"\u0120act":532,"\u0120acting":2202,"\u0120action":1892,"\u0120actions":2862,"\u0120activ":980,"\u0120active":3195,"\u0120activities":1331,"\u0120activity":2425,"\u0120actress":2594,"\u0120ad":582,"\u0120ada":2396,"\u0120adapted":3927,"\u0120added":2600,"\u0120addition":1380,"\u0120additional":3307,"\u0120adm":2397,"\u0120ado":3207,"\u0120adopted":3971,"\u0120adv":1700,"\u0120advanced":3334,"\u0120aer":753,"\u0120aerial":2410,"\u0120aero":3740,"\u0120aerodrom":983,"\u0120aerodrome":1717,"\u0120aerodromes":1386,"\u0120aeropl":3741,"\u0120af":495,"\u0120aff":2382,"\u0120afric":3677,"\u0120africa":4007,"\u0120after":546,"\u0120ag":633,"\u0120again":936,"\u0120against":1063,"\u0120agency":2613,"\u0120aggress":3717,"\u0120agreed":3718,"\u0120aground":3716,"\u0120aid":3501,"\u0120air":421,"\u0120aircraft":552,"\u0120airfiel":2184,"\u0120airfields":2269,"\u0120airline":3650,"\u0120airports":2186,"\u0120airship":2842,"\u0120airsp":2185,"\u0120airspace":2270,"\u0120airstri":3651,"\u0120airstrips":4004,"\u0120airworth":2376,"\u0120airworthiness":2480,"\u0120akhen":3502,"\u0120akhenaten":3987,"\u0120al":343,"\u0120album":709,"\u0120albums":2407,"\u0120all":468,"\u0120allen":3666,"\u0120allow":1373,"\u0120allowed":2076,"\u0120almost":2818,"\u0120along":978,"\u0120alongside":2423,"\u0120also":540,"\u0120altern":3604,"\u0120alth":823,"\u0120although":827,"\u0120always":1866,"\u0120am":559,"\u0120amateur":2393,"\u0120amb":3691,"\u0120amer":1895,"\u0120american":2259,"\u0120ammunition":2392,"\u0120among":1550,"\u0120amun":1250,"\u0120an":282,"\u0120anal":3543,"\u0120anc":1746,"\u0120ancient":2088,"\u0120and":292,"\u0120andrew":2326,"\u0120ang":1846,"\u0120angeles":3341,"\u0120anim":1173,"\u0120animal":2931,"\u0120animals":2658,"\u0120anime":2657,"\u0120ann":1412,"\u0120announced":2949,"\u0120another":1095,"\u0120ant":3542,"\u0120any":1075,"\u0120ap":535,"\u0120app":3196,"\u0120appe":841,"\u0120appear":1188,"\u0120appearance":2244,"\u0120appearances":2933,"\u0120appeared":1632,"\u0120appl":2388,"\u0120applied":2994,"\u0120appro":1483,"\u0120approach":2952,"\u0120approximately":3843,"\u0120april":2203,"\u0120ar":397,"\u0120araya":3645,"\u0120arch":3643,"\u0120are":414,"\u0120area":2183,"\u0120arg":2021,"\u0120argued":3900,"\u0120ark":950,"\u0120arkadelphia":3260,"\u0120arkansas":1064,"\u0120arm":733,"\u0120armed":2409,"\u0120armor":2220,"\u0120armored":2885,"\u0120arms":1912,"\u0120army":1913,"\u0120arniel":3644,"\u0120around":1167,"\u0120arr":2838,"\u0120arsen":800,"\u0120arsenal":802,"\u0120art":901,"\u0120artwork":3767,"\u0120as":326,"\u0120ask":2163,"\u0120asked":3367,"\u0120aspect":1761,"\u0120aspects":2460,"\u0120ass":661,"\u0120asse":2164,"\u0120assemb":3368,"\u0120assembled":3980,"\u0120assign":2404,"\u0120assigned":2996,"\u0120assist":1905,"\u0120assistant":3345,"\u0120assoc":1104,"\u0120association":1259,"\u0120assumed":3222,"\u0120astr":3054,"\u0120astronom":3423,"\u0120at":354,"\u0120aten":1868,"\u0120atenism":2461,"\u0120atlant":1052,"\u0120atlanta":1107,"\u0120att":767,"\u0120attached":3748,"\u0120attack":2411,"\u0120attem":1488,"\u0120attempt":2451,"\u0120attempted":2452,"\u0120attended":3746,"\u0120attribut":3747,"\u0120atum":2822,"\u0120au":806,"\u0120aug":1792,"\u0120august":1948,"\u0120aust":2121,"\u0120austral":2415,"\u0120australia":2709,"\u0120austro":2981,"\u0120aut":2294,"\u0120auth":1490,"\u0120author":1579,"\u0120authorities":3321,"\u0120authority":2456,"\u0120autom":3917,"\u0120av":681,"\u0120avail":1786,"\u0120available":2089,"\u0120aver":2507,"\u0120average":2714,"\u0120aviation":856,"\u0120aw":907,"\u0120award":1710,"\u0120awarded":2963,"\u0120away":1709,"\u0120az":3053,"\u0120b":276,"\u0120ba":1672,"\u0120back":921,"\u0120background":2234,"\u0120bah":3087,"\u0120bahrain":3963,"\u0120ball":1984,"\u0120ballo":3351,"\u0120band":1353,"\u0120bann":3532,"\u0120banner":3991,"\u0120bapt":3864,"\u0120bar":2315,"\u0120barker":774,"\u0120bas":1409,"\u0120base":2529,"\u0120based":1455,"\u0120basic":2948,"\u0120bass":3086,"\u0120bat":920,"\u0120batt":2420,"\u0120battle":1189,"\u0120battlefield":2436,"\u0120battles":2997,"\u0120bay":3531,"\u0120bc":1839,"\u0120be":322,"\u0120bec":651,"\u0120became":1087,"\u0120because":1785,"\u0120becom":1784,"\u0120become":1903,"\u0120becomes":2685,"\u0120becoming":3340,"\u0120been":786,"\u0120before":899,"\u0120beg":851,"\u0120began":1255,"\u0120begin":1796,"\u0120beginning":2090,"\u0120beh":1270,"\u0120behavior":3817,"\u0120behind":1652,"\u0120being":766,"\u0120beings":2811,"\u0120bel":797,"\u0120belie":858,"\u0120belief":1492,"\u0120beliefs":2453,"\u0120believed":1256,"\u0120ben":1983,"\u0120benef":3350,"\u0120benefit":3979,"\u0120best":1354,"\u0120bet":731,"\u0120better":3233,"\u0120between":780,"\u0120bi":2773,"\u0120big":3084,"\u0120bill":2774,"\u0120billion":3088,"\u0120biography":3946,"\u0120bir":2527,"\u0120birth":2717,"\u0120bl":603,"\u0120black":759,"\u0120blackie":965,"\u0120block":2208,"\u0120blockade":3373,"\u0120blood":2209,"\u0120blu":730,"\u0120blue":779,"\u0120blues":3232,"\u0120bo":762,"\u0120board":3745,"\u0120bod":1596,"\u0120bodies":2958,"\u0120body":2675,"\u0120bol":2528,"\u0120bollywood":3395,"\u0120bon":2526,"\u0120book":1154,"\u0120books":2434,"\u0120born":2775,"\u0120boston":3239,"\u0120both":878,"\u0120bott":2776,"\u0120bottom":3009,"\u0120bought":3089,"\u0120bow":3085,"\u0120box":3238,"\u0120br":3530,"\u0120break":1744,"\u0120bri":2316,"\u0120bridge":1985,"\u0120bridgeport":2976,"\u0120brief":2706,"\u0120briefly":3007,"\u0120brit":998,"\u0120britain":3265,"\u0120british":1127,"\u0120bro":959,"\u0120broad":2642,"\u0120broke":3777,"\u0120broken":3778,"\u0120brother":1925,"\u0120brothers":3892,"\u0120brough":2317,"\u0120brought":2473,"\u0120bu":511,"\u0120buck":3684,"\u0120buil":563,"\u0120build":3693,"\u0120building":758,"\u0120buildings":3236,"\u0120built":1086,"\u0120bull":2140,"\u0120bulloch":2468,"\u0120bus":1454,"\u0120business":1578,"\u0120but":491,"\u0120by":373,"\u0120c":269,"\u0120ca":528,"\u0120caa":1323,"\u0120cal":1013,"\u0120calamity":3785,"\u0120calendar":3268,"\u0120caliber":2429,"\u0120call":877,"\u0120called":1008,"\u0120cam":2762,"\u0120camden":3409,"\u0120came":1405,"\u0120camp":2306,"\u0120can":627,"\u0120canaan":3715,"\u0120canad":2877,"\u0120cancer":1901,"\u0120cap":2521,"\u0120capital":3932,"\u0120capt":1777,"\u0120captain":2255,"\u0120car":793,"\u0120cards":2764,"\u0120care":854,"\u0120career":1224,"\u0120carey":1633,"\u0120cargo":3245,"\u0120carried":1631,"\u0120carry":3244,"\u0120cart":2763,"\u0120carter":2048,"\u0120cartridges":3410,"\u0120cas":1972,"\u0120casem":2975,"\u0120casemate":3422,"\u0120cases":3895,"\u0120cat":1349,"\u0120cau":2387,"\u0120caught":3926,"\u0120caus":3193,"\u0120cause":3925,"\u0120ce":1971,"\u0120cent":706,"\u0120center":1909,"\u0120central":2622,"\u0120centuries":2882,"\u0120century":2621,"\u0120cer":1207,"\u0120cere":3071,"\u0120ceremon":3425,"\u0120ceremonies":3983,"\u0120cert":2439,"\u0120certain":1649,"\u0120cess":3072,"\u0120cessna":3426,"\u0120ch":366,"\u0120chall":3158,"\u0120champ":2013,"\u0120champions":2099,"\u0120championship":2979,"\u0120championships":3905,"\u0120chance":2362,"\u0120chang":1686,"\u0120change":2363,"\u0120changed":3866,"\u0120changes":2681,"\u0120chaos":2364,"\u0120chap":2012,"\u0120chapel":2465,"\u0120char":637,"\u0120character":721,"\u0120characteristics":2624,"\u0120characters":1324,"\u0120charge":3214,"\u0120chart":2571,"\u0120charts":3937,"\u0120che":2133,"\u0120chicago":3623,"\u0120child":884,"\u0120children":1287,"\u0120cho":2827,"\u0120chos":3621,"\u0120chose":3622,"\u0120chosen":4001,"\u0120christ":1214,"\u0120christian":1720,"\u0120chron":852,"\u0120chronicles":859,"\u0120chur":1873,"\u0120church":2092,"\u0120circ":3073,"\u0120cit":2761,"\u0120citiz":3408,"\u0120citizens":3982,"\u0120city":1350,"\u0120civ":1045,"\u0120civil":1065,"\u0120cl":520,"\u0120claim":2861,"\u0120claimed":3955,"\u0120class":1029,"\u0120classes":3271,"\u0120cle":2303,"\u0120clock":1890,"\u0120clos":3685,"\u0120close":1889,"\u0120closed":2385,"\u0120closely":3343,"\u0120clu":1094,"\u0120club":1108,"\u0120clubs":3801,"\u0120cm":2302,"\u0120co":501,"\u0120coach":1625,"\u0120coaching":3860,"\u0120col":536,"\u0120coll":2204,"\u0120collabor":2470,"\u0120collaboration":2712,"\u0120colle":2389,"\u0120collect":3686,"\u0120color":2205,"\u0120columb":788,"\u0120columbus":857,"\u0120com":386,"\u0120comb":1278,"\u0120combin":1938,"\u0120combinations":2462,"\u0120combined":2441,"\u0120come":1876,"\u0120comeback":3882,"\u0120comedy":3633,"\u0120comes":2577,"\u0120coming":3167,"\u0120comm":509,"\u0120command":1150,"\u0120commander":2243,"\u0120commercial":1084,"\u0120commission":3682,"\u0120common":1322,"\u0120commun":1697,"\u0120communic":2459,"\u0120communication":3929,"\u0120comp":589,"\u0120compan":2871,"\u0120company":3415,"\u0120compet":1186,"\u0120competition":1571,"\u0120comple":1284,"\u0120completed":2940,"\u0120complex":2248,"\u0120compon":3209,"\u0120compos":3704,"\u0120composed":2872,"\u0120con":358,"\u0120conc":1870,"\u0120concept":1872,"\u0120concepts":3342,"\u0120concer":3154,"\u0120concur":3880,"\u0120condition":3620,"\u0120condu":1871,"\u0120conducted":1951,"\u0120conf":1179,"\u0120confeder":1648,"\u0120confederate":2086,"\u0120confer":3619,"\u0120connect":1147,"\u0120connected":1935,"\u0120connection":3279,"\u0120cons":768,"\u0120consid":1327,"\u0120considered":1574,"\u0120consist":1561,"\u0120consisted":2955,"\u0120consisting":3320,"\u0120const":3618,"\u0120constru":2360,"\u0120construction":3384,"\u0120cont":480,"\u0120contact":2856,"\u0120content":3673,"\u0120contin":952,"\u0120continue":2422,"\u0120continued":1494,"\u0120continues":3774,"\u0120contr":1026,"\u0120contract":1387,"\u0120contrast":2650,"\u0120contribut":3674,"\u0120control":1374,"\u0120controlled":3835,"\u0120conv":2824,"\u0120conver":2172,"\u0120cor":1835,"\u0120corporate":3873,"\u0120cos":2305,"\u0120cosmos":2991,"\u0120cost":2858,"\u0120could":657,"\u0120coun":1120,"\u0120count":1497,"\u0120country":1814,"\u0120cour":1974,"\u0120course":3349,"\u0120cover":1249,"\u0120covered":2936,"\u0120coyot":3188,"\u0120coyotes":3439,"\u0120cr":3070,"\u0120cre":832,"\u0120creat":1230,"\u0120create":3755,"\u0120created":2229,"\u0120creating":2935,"\u0120creation":1562,"\u0120creator":1807,"\u0120cred":2134,"\u0120credited":2984,"\u0120crew":1918,"\u0120crit":996,"\u0120critic":1440,"\u0120critical":2648,"\u0120criticized":3840,"\u0120critics":3264,"\u0120cro":1072,"\u0120cross":2923,"\u0120crow":2765,"\u0120croydon":1646,"\u0120cru":2522,"\u0120cruisers":3394,"\u0120cul":2304,"\u0120cull":761,"\u0120cullen":770,"\u0120cult":1519,"\u0120cults":2990,"\u0120cup":1975,"\u0120cur":1973,"\u0120current":3896,"\u0120curtis":3897,"\u0120custom":3519,"\u0120d":293,"\u0120da":1994,"\u0120dah":3560,"\u0120dahau":3995,"\u0120daily":3353,"\u0120dam":2794,"\u0120damaged":3948,"\u0120dar":2329,"\u0120darcsen":3921,"\u0120dark":3102,"\u0120darling":3920,"\u0120data":3103,"\u0120day":1266,"\u0120days":2143,"\u0120de":327,"\u0120dead":2561,"\u0120deadline":3004,"\u0120deal":1272,"\u0120dealership":2938,"\u0120death":1470,"\u0120deb":1863,"\u0120debut":2258,"\u0120dec":1535,"\u0120dece":2562,"\u0120december":3398,"\u0120decl":2352,"\u0120declined":3381,"\u0120decommission":3317,"\u0120decommissioned":3978,"\u0120dedic":3105,"\u0120def":865,"\u0120defense":2631,"\u0120defenseman":3402,"\u0120definition":1922,"\u0120deities":483,"\u0120deity":977,"\u0120del":1762,"\u0120deliver":3338,"\u0120dem":1271,"\u0120demo":3818,"\u0120demon":3819,"\u0120demons":2937,"\u0120den":2540,"\u0120denied":3933,"\u0120dep":798,"\u0120depart":1915,"\u0120department":3890,"\u0120depict":1916,"\u0120depicted":2414,"\u0120depicting":3891,"\u0120deploy":3592,"\u0120des":512,"\u0120desc":904,"\u0120describ":1125,"\u0120described":1388,"\u0120descript":2637,"\u0120description":3403,"\u0120design":886,"\u0120designated":2901,"\u0120designed":1634,"\u0120designs":3249,"\u0120despite":1549,"\u0120dest":1751,"\u0120destination":3867,"\u0120destroy":3868,"\u0120det":2165,"\u0120detail":3911,"\u0120deter":2004,"\u0120determ":2695,"\u0120dev":1682,"\u0120devel":810,"\u0120develop":816,"\u0120developed":1707,"\u0120development":1123,"\u0120devolved":3865,"\u0120di":1851,"\u0120diagn":3876,"\u0120did":1309,"\u0120died":2795,"\u0120dif":836,"\u0120differ":1124,"\u0120different":1293,"\u0120diffic":1563,"\u0120difficult":1581,"\u0120difficulty":3322,"\u0120dire":1176,"\u0120direct":2072,"\u0120direction":3286,"\u0120director":2659,"\u0120dis":689,"\u0120disapp":3228,"\u0120disappo":3440,"\u0120disc":1558,"\u0120disorder":3229,"\u0120disp":3733,"\u0120dist":1020,"\u0120distinct":3270,"\u0120distingu":3786,"\u0120distribut":2430,"\u0120div":575,"\u0120diver":2869,"\u0120diverse":3957,"\u0120divided":3702,"\u0120divine":697,"\u0120division":2870,"\u0120do":1019,"\u0120does":3269,"\u0120don":2328,"\u0120done":3559,"\u0120doroth":2333,"\u0120dorothy":2475,"\u0120dou":2330,"\u0120dougl":3922,"\u0120douglas":4013,"\u0120down":1143,"\u0120dr":1995,"\u0120draft":1142,"\u0120draw":2331,"\u0120dread":3561,"\u0120dreadnought":3996,"\u0120du":2327,"\u0120duat":2993,"\u0120due":1175,"\u0120dunning":2332,"\u0120dunnington":2474,"\u0120during":649,"\u0120dut":3101,"\u0120dwell":3104,"\u0120e":305,"\u0120each":850,"\u0120ear":671,"\u0120earl":1906,"\u0120earlier":2972,"\u0120earliest":3888,"\u0120early":953,"\u0120earth":2043,"\u0120eas":1268,"\u0120easa":1721,"\u0120east":1756,"\u0120econ":2156,"\u0120econom":2267,"\u0120economic":3377,"\u0120economy":3916,"\u0120ed":990,"\u0120edition":2059,"\u0120edmund":2915,"\u0120educ":2646,"\u0120education":3006,"\u0120eff":1532,"\u0120effort":2083,"\u0120efforts":3904,"\u0120egy":458,"\u0120egypt":459,"\u0120egyptian":498,"\u0120egyptians":1027,"\u0120egyptolog":3182,"\u0120egyptologist":3969,"\u0120eigh":3582,"\u0120eight":3127,"\u0120eighth":3999,"\u0120either":1860,"\u0120el":1467,"\u0120eld":2807,"\u0120elder":3012,"\u0120ele":1080,"\u0120elements":1647,"\u0120elev":3274,"\u0120elimin":3311,"\u0120eliminated":3443,"\u0120elite":3842,"\u0120em":849,"\u0120emb":2896,"\u0120emer":1795,"\u0120emerged":2686,"\u0120empire":3246,"\u0120employ":2629,"\u0120en":574,"\u0120end":860,"\u0120ended":3758,"\u0120ending":2898,"\u0120enem":3205,"\u0120eng":905,"\u0120engaged":2902,"\u0120engine":2054,"\u0120england":3769,"\u0120english":2903,"\u0120enj":3700,"\u0120enough":2599,"\u0120ensemble":3701,"\u0120ent":991,"\u0120enter":2916,"\u0120entire":2917,"\u0120entr":3263,"\u0120entry":2647,"\u0120env":3204,"\u0120environ":3970,"\u0120ep":1859,"\u0120episod":3879,"\u0120epithe":2970,"\u0120epithets":3960,"\u0120equ":1213,"\u0120equated":3290,"\u0120equip":2245,"\u0120equipment":2704,"\u0120er":957,"\u0120era":3776,"\u0120erzher":1330,"\u0120erzherzog":1335,"\u0120es":2501,"\u0120essential":2292,"\u0120est":843,"\u0120estab":1223,"\u0120establish":3291,"\u0120established":1498,"\u0120estim":1491,"\u0120estimated":2082,"\u0120estimates":2953,"\u0120eu":1361,"\u0120euro":1575,"\u0120europe":1816,"\u0120european":2257,"\u0120ev":629,"\u0120even":1219,"\u0120evening":3812,"\u0120event":2402,"\u0120events":1382,"\u0120eventually":2995,"\u0120ever":1468,"\u0120every":1944,"\u0120evidence":2612,"\u0120ex":448,"\u0120examp":1883,"\u0120example":2690,"\u0120examples":3886,"\u0120exc":2189,"\u0120except":2029,"\u0120exclus":3180,"\u0120exh":2588,"\u0120exhib":3399,"\u0120exist":1694,"\u0120existence":3333,"\u0120exp":1119,"\u0120expanded":2928,"\u0120expect":2589,"\u0120expected":3938,"\u0120exped":3179,"\u0120expedition":3437,"\u0120exper":2028,"\u0120express":2433,"\u0120expressed":3928,"\u0120ext":1372,"\u0120extended":2945,"\u0120extent":3833,"\u0120extra":3834,"\u0120ey":2155,"\u0120eye":3366,"\u0120eyes":3909,"\u0120f":272,"\u0120fac":2766,"\u0120facilities":3411,"\u0120fact":2768,"\u0120fail":2309,"\u0120failed":2992,"\u0120fair":909,"\u0120fairies":1156,"\u0120fairy":2419,"\u0120fal":2135,"\u0120falcon":2985,"\u0120fam":1046,"\u0120families":3789,"\u0120family":1258,"\u0120fans":1979,"\u0120fant":3522,"\u0120fantasy":3990,"\u0120far":1976,"\u0120farm":2694,"\u0120farmland":3945,"\u0120father":1521,"\u0120fav":1978,"\u0120favor":2261,"\u0120favorite":3376,"\u0120fe":602,"\u0120fear":3523,"\u0120feat":1381,"\u0120featured":2665,"\u0120features":2666,"\u0120febru":1431,"\u0120february":1443,"\u0120feder":1981,"\u0120federal":2095,"\u0120feed":3708,"\u0120feel":3709,"\u0120feet":1552,"\u0120fel":1520,"\u0120fell":2769,"\u0120felt":1654,"\u0120fem":1669,"\u0120female":2679,"\u0120females":3863,"\u0120fer":638,"\u0120ferdin":1556,"\u0120ferdinand":1580,"\u0120fernand":814,"\u0120fernandez":817,"\u0120fertil":3720,"\u0120fest":2767,"\u0120few":1900,"\u0120fif":1352,"\u0120fifa":2075,"\u0120fifth":2943,"\u0120fig":3077,"\u0120fight":2523,"\u0120fil":1171,"\u0120film":1294,"\u0120fin":714,"\u0120final":1706,"\u0120finally":2219,"\u0120fing":1837,"\u0120fingal":1950,"\u0120finish":2883,"\u0120finished":3231,"\u0120fir":544,"\u0120fire":2138,"\u0120fired":2525,"\u0120first":555,"\u0120fis":3521,"\u0120fit":3076,"\u0120five":1408,"\u0120fixed":2139,"\u0120fl":502,"\u0120flag":3679,"\u0120fle":1838,"\u0120fleet":2968,"\u0120flex":3874,"\u0120flight":1028,"\u0120flights":1926,"\u0120flint":2197,"\u0120flintlock":3371,"\u0120flo":2383,"\u0120flood":3680,"\u0120floor":3387,"\u0120flower":1149,"\u0120flowers":3190,"\u0120flown":3189,"\u0120fly":846,"\u0120flying":1062,"\u0120fo":755,"\u0120foc":1407,"\u0120focus":1500,"\u0120fol":833,"\u0120follow":906,"\u0120following":1035,"\u0120font":3524,"\u0120foot":1153,"\u0120football":1389,"\u0120for":320,"\u0120force":2161,"\u0120forced":3590,"\u0120forces":1760,"\u0120fore":1670,"\u0120foreign":1945,"\u0120form":545,"\u0120formal":3199,"\u0120formation":3200,"\u0120formed":2206,"\u0120former":1894,"\u0120forms":1627,"\u0120fort":2349,"\u0120forward":3591,"\u0120found":1326,"\u0120four":715,"\u0120fourth":2408,"\u0120fr":997,"\u0120frame":3781,"\u0120fran":1257,"\u0120franchise":1499,"\u0120fred":2137,"\u0120frederick":2266,"\u0120free":1671,"\u0120fri":1977,"\u0120friend":2094,"\u0120friends":3361,"\u0120from":402,"\u0120fron":2524,"\u0120front":2716,"\u0120ft":1836,"\u0120ful":3078,"\u0120full":1980,"\u0120fully":3427,"\u0120fun":1351,"\u0120function":3303,"\u0120functions":3826,"\u0120fund":2308,"\u0120fundamental":3919,"\u0120funer":2444,"\u0120funerary":2998,"\u0120fur":2136,"\u0120further":2265,"\u0120g":295,"\u0120ga":607,"\u0120gall":1604,"\u0120gallia":3326,"\u0120gallian":2458,"\u0120gam":1235,"\u0120gambia":1333,"\u0120game":496,"\u0120gameplay":1887,"\u0120games":808,"\u0120gard":2797,"\u0120garden":3949,"\u0120gasar":3109,"\u0120gave":2541,"\u0120gen":740,"\u0120gener":815,"\u0120general":1090,"\u0120generally":2227,"\u0120geor":1997,"\u0120georg":2463,"\u0120georgia":3000,"\u0120gir":1996,"\u0120girl":2097,"\u0120giv":898,"\u0120give":2334,"\u0120given":1288,"\u0120gives":3766,"\u0120giving":1799,"\u0120gl":807,"\u0120glass":3753,"\u0120glid":984,"\u0120glider":2426,"\u0120gliders":2057,"\u0120gliding":1718,"\u0120go":560,"\u0120goal":1251,"\u0120goals":1485,"\u0120goaltender":2247,"\u0120god":359,"\u0120goddess":1081,"\u0120goddesses":1931,"\u0120gods":408,"\u0120gold":3563,"\u0120good":3692,"\u0120got":1528,"\u0120gover":1057,"\u0120govern":1194,"\u0120governed":3791,"\u0120government":2437,"\u0120governor":2073,"\u0120gr":1078,"\u0120grad":2924,"\u0120grand":3796,"\u0120grant":2241,"\u0120granted":3914,"\u0120gre":1079,"\u0120great":1002,"\u0120greater":2061,"\u0120greek":3108,"\u0120green":2067,"\u0120greenaway":3360,"\u0120gregor":2652,"\u0120gregorian":2723,"\u0120grew":3273,"\u0120gross":3564,"\u0120grou":1177,"\u0120ground":2542,"\u0120groundsel":3934,"\u0120group":1198,"\u0120groups":2660,"\u0120grow":1414,"\u0120growth":2078,"\u0120gu":973,"\u0120guard":2913,"\u0120guit":1715,"\u0120guitar":1946,"\u0120gun":945,"\u0120gunboat":3772,"\u0120guns":1714,"\u0120h":298,"\u0120hab":2799,"\u0120had":471,"\u0120half":1853,"\u0120hall":2545,"\u0120hand":1462,"\u0120hands":3310,"\u0120hang":2339,"\u0120hann":2546,"\u0120hanneman":2720,"\u0120happ":2549,"\u0120happen":3936,"\u0120har":2337,"\u0120hart":2798,"\u0120hartford":3011,"\u0120has":561,"\u0120hath":2340,"\u0120hathor":2477,"\u0120have":604,"\u0120having":2801,"\u0120he":331,"\u0120head":1314,"\u0120health":3141,"\u0120heard":3600,"\u0120heav":948,"\u0120heaven":1190,"\u0120heavy":2641,"\u0120hel":1313,"\u0120held":1614,"\u0120helic":2354,"\u0120helicop":2478,"\u0120helicopter":3930,"\u0120helicopters":3931,"\u0120help":1808,"\u0120helped":2941,"\u0120hen":3140,"\u0120her":439,"\u0120hier":2800,"\u0120hieroglyph":3950,"\u0120hig":2338,"\u0120high":1003,"\u0120highest":3380,"\u0120highly":3266,"\u0120highway":2237,"\u0120him":822,"\u0120himself":2228,"\u0120hind":3113,"\u0120hindman":3432,"\u0120his":445,"\u0120hist":837,"\u0120histor":1919,"\u0120historic":2693,"\u0120history":1091,"\u0120hit":1753,"\u0120hitchcock":3337,"\u0120hockey":1464,"\u0120hol":3112,"\u0120hold":1852,"\u0120home":1529,"\u0120hon":2544,"\u0120honor":3935,"\u0120hor":928,"\u0120horn":3258,"\u0120hornung":3975,"\u0120horus":1437,"\u0120host":2547,"\u0120hour":1463,"\u0120hours":2081,"\u0120hous":3566,"\u0120house":1530,"\u0120housefull":3316,"\u0120how":794,"\u0120however":1187,"\u0120howson":2413,"\u0120hum":684,"\u0120human":888,"\u0120humans":1383,"\u0120hun":1461,"\u0120hung":2449,"\u0120hungarian":2710,"\u0120hunwick":2951,"\u0120hym":2548,"\u0120hymns":3001,"\u0120i":542,"\u0120ic":1968,"\u0120icao":3894,"\u0120ice":2502,"\u0120icon":2974,"\u0120ide":1740,"\u0120ident":2503,"\u0120if":1739,"\u0120ihl":2597,"\u0120ii":1484,"\u0120iifa":3688,"\u0120iii":1430,"\u0120il":1738,"\u0120ill":3045,"\u0120illustr":1820,"\u0120illustrated":3872,"\u0120im":543,"\u0120image":2865,"\u0120images":1699,"\u0120immed":3689,"\u0120imp":2391,"\u0120imperial":3690,"\u0120import":1085,"\u0120importance":3797,"\u0120important":1226,"\u0120impro":1893,"\u0120improvements":3344,"\u0120in":281,"\u0120inc":533,"\u0120inch":1357,"\u0120inches":1698,"\u0120inclu":745,"\u0120includ":1060,"\u0120include":1645,"\u0120included":1929,"\u0120including":1253,"\u0120incorpor":2322,"\u0120incorporated":3379,"\u0120incre":1482,"\u0120increas":2450,"\u0120increased":3314,"\u0120increasingly":2711,"\u0120ind":763,"\u0120indep":2887,"\u0120independent":3416,"\u0120india":1630,"\u0120indian":3240,"\u0120indic":2222,"\u0120individ":2223,"\u0120individual":3374,"\u0120indu":1526,"\u0120industry":1655,"\u0120inf":1208,"\u0120influ":1442,"\u0120influence":2080,"\u0120influenced":3841,"\u0120inform":2533,"\u0120inhab":2784,"\u0120init":1845,"\u0120initially":2969,"\u0120inj":1675,"\u0120injured":3330,"\u0120injury":2680,"\u0120ins":2783,"\u0120inside":3541,"\u0120insp":2534,"\u0120inst":1139,"\u0120instance":2929,"\u0120instead":2070,"\u0120instr":1307,"\u0120instru":3823,"\u0120instrum":1572,"\u0120instrument":2673,"\u0120instrumentation":3942,"\u0120instruments":2455,"\u0120int":539,"\u0120intended":3197,"\u0120inter":639,"\u0120interact":1783,"\u0120interaction":3339,"\u0120interest":3217,"\u0120international":1557,"\u0120interp":3215,"\u0120interpre":3972,"\u0120interse":3216,"\u0120interv":2042,"\u0120interview":2698,"\u0120into":688,"\u0120intro":1780,"\u0120introduced":2967,"\u0120introduction":3871,"\u0120inv":1015,"\u0120invol":1292,"\u0120involved":1722,"\u0120involving":3298,"\u0120iron":1402,"\u0120ironclad":2077,"\u0120is":377,"\u0120isis":1539,"\u0120island":2572,"\u0120iss":1316,"\u0120issue":2664,"\u0120issued":2942,"\u0120issues":3299,"\u0120it":375,"\u0120ital":2829,"\u0120italian":3414,"\u0120its":588,"\u0120itself":3627,"\u0120j":384,"\u0120jack":757,"\u0120jackets":790,"\u0120jacquel":3166,"\u0120jacqueline":3435,"\u0120james":1687,"\u0120jan":1541,"\u0120january":1815,"\u0120jap":2016,"\u0120japan":2100,"\u0120japanese":2980,"\u0120jar":3631,"\u0120jeff":2575,"\u0120jets":3165,"\u0120jo":777,"\u0120joh":1031,"\u0120john":1128,"\u0120joined":3241,"\u0120joint":3749,"\u0120jour":3632,"\u0120ju":3164,"\u0120jud":2835,"\u0120july":3968,"\u0120june":1619,"\u0120just":1277,"\u0120k":387,"\u0120kar":2368,"\u0120karl":2708,"\u0120ke":1542,"\u0120keep":3319,"\u0120kept":3318,"\u0120kerry":3634,"\u0120key":3851,"\u0120kg":2176,"\u0120khan":2579,"\u0120kick":2578,"\u0120kinder":2836,"\u0120kindergarten":3014,"\u0120king":720,"\u0120kingdom":982,"\u0120kings":1181,"\u0120km":1688,"\u0120kn":885,"\u0120know":1566,"\u0120knowledge":2085,"\u0120known":1435,"\u0120kurt":3168,"\u0120l":301,"\u0120la":1605,"\u0120lab":3119,"\u0120label":3965,"\u0120labor":2342,"\u0120lack":2341,"\u0120land":1679,"\u0120lang":3568,"\u0120langu":3997,"\u0120lank":1854,"\u0120lanka":2687,"\u0120lankan":3877,"\u0120lar":974,"\u0120larg":1716,"\u0120large":1438,"\u0120largely":3839,"\u0120larger":1947,"\u0120last":1209,"\u0120lat":2146,"\u0120late":1606,"\u0120later":946,"\u0120latter":2986,"\u0120laun":2960,"\u0120launched":3420,"\u0120lay":3116,"\u0120le":474,"\u0120lead":1083,"\u0120leade":3670,"\u0120leadeth":4006,"\u0120leading":1570,"\u0120league":1478,"\u0120least":2854,"\u0120leaving":3186,"\u0120led":2551,"\u0120left":2379,"\u0120leg":2853,"\u0120leng":3570,"\u0120length":3998,"\u0120leo":3669,"\u0120less":1417,"\u0120let":3117,"\u0120level":1477,"\u0120levels":3312,"\u0120li":749,"\u0120libr":2625,"\u0120library":2722,"\u0120lic":1050,"\u0120licence":1928,"\u0120licences":3790,"\u0120licens":1719,"\u0120licensed":3335,"\u0120licensing":2682,"\u0120lif":3118,"\u0120life":1210,"\u0120light":929,"\u0120lighter":3120,"\u0120lightning":1711,"\u0120like":842,"\u0120lim":1465,"\u0120limited":1813,"\u0120line":1680,"\u0120link":1998,"\u0120linked":3354,"\u0120list":1144,"\u0120listen":3278,"\u0120listing":2930,"\u0120lit":585,"\u0120liter":2602,"\u0120literature":3940,"\u0120little":654,"\u0120live":1116,"\u0120lived":3569,"\u0120lives":1855,"\u0120living":3572,"\u0120lo":1096,"\u0120load":3800,"\u0120loc":915,"\u0120local":1329,"\u0120located":2233,"\u0120locations":3770,"\u0120lombard":2554,"\u0120lombardo":3003,"\u0120long":1097,"\u0120look":3276,"\u0120lord":3571,"\u0120los":1021,"\u0120losing":2238,"\u0120loss":1569,"\u0120losses":3854,"\u0120lost":3275,"\u0120lot":3115,"\u0120lottery":3964,"\u0120lou":2552,"\u0120louis":3002,"\u0120love":2653,"\u0120low":2147,"\u0120lower":2553,"\u0120lt":3114,"\u0120lyr":2343,"\u0120lyrics":2707,"\u0120m":285,"\u0120ma":606,"\u0120maat":1486,"\u0120mac":1747,"\u0120macarth":2254,"\u0120macarthur":2271,"\u0120mach":2786,"\u0120machinery":3947,"\u0120made":912,"\u0120mag":1748,"\u0120magaz":2965,"\u0120magazine":3421,"\u0120main":861,"\u0120mainly":3247,"\u0120maintain":2630,"\u0120maintained":3759,"\u0120maintaining":3401,"\u0120maj":1122,"\u0120major":1159,"\u0120majority":3284,"\u0120make":1413,"\u0120makes":2790,"\u0120making":2141,"\u0120male":2539,"\u0120mall":2538,"\u0120mallory":2719,"\u0120man":488,"\u0120manag":2195,"\u0120managed":3675,"\u0120management":2988,"\u0120mand":2537,"\u0120mandatory":2718,"\u0120manifest":2196,"\u0120manifestations":2989,"\u0120manufact":2381,"\u0120manufacture":3924,"\u0120many":687,"\u0120map":2785,"\u0120maps":2788,"\u0120mar":1077,"\u0120march":2066,"\u0120marg":3795,"\u0120mark":1603,"\u0120marked":3325,"\u0120mary":2323,"\u0120mas":2536,"\u0120mask":1233,"\u0120maskray":1650,"\u0120maskrays":3814,"\u0120mason":1749,"\u0120mat":1600,"\u0120match":2959,"\u0120mater":1991,"\u0120material":2096,"\u0120max":1152,"\u0120maximum":3282,"\u0120may":821,"\u0120me":659,"\u0120mean":1704,"\u0120meaning":2253,"\u0120means":2215,"\u0120meant":3727,"\u0120measure":3728,"\u0120mechan":3729,"\u0120med":1599,"\u0120media":3324,"\u0120meet":2619,"\u0120mem":911,"\u0120member":3253,"\u0120members":1637,"\u0120memor":2232,"\u0120memorial":2471,"\u0120men":1678,"\u0120mer":1847,"\u0120meridian":3875,"\u0120mess":3097,"\u0120met":1049,"\u0120metal":2922,"\u0120meteor":3272,"\u0120meteorological":3976,"\u0120metres":1927,"\u0120mic":1601,"\u0120microlight":1656,"\u0120microlights":2677,"\u0120mid":1602,"\u0120middle":2457,"\u0120might":3098,"\u0120mil":820,"\u0120miles":2627,"\u0120milit":1033,"\u0120military":1129,"\u0120militia":3788,"\u0120million":1992,"\u0120min":1076,"\u0120minor":2240,"\u0120minutes":2651,"\u0120miss":942,"\u0120missed":3259,"\u0120mission":2905,"\u0120missions":2236,"\u0120mississipp":3771,"\u0120mississippi":4009,"\u0120mix":3547,"\u0120mixed":2789,"\u0120mm":1598,"\u0120mo":407,"\u0120mod":1115,"\u0120model":2069,"\u0120modeling":3902,"\u0120modern":2242,"\u0120mon":926,"\u0120mone":3099,"\u0120money":3431,"\u0120monitors":2056,"\u0120monot":3257,"\u0120month":1493,"\u0120mor":1677,"\u0120moral":3331,"\u0120more":623,"\u0120morning":2962,"\u0120most":624,"\u0120mostly":2401,"\u0120mother":1458,"\u0120moun":2839,"\u0120mouth":2787,"\u0120move":2023,"\u0120moved":2024,"\u0120movem":2180,"\u0120movement":2469,"\u0120moves":3173,"\u0120mu":925,"\u0120much":1436,"\u0120mult":1457,"\u0120multip":1812,"\u0120multiple":2256,"\u0120mumb":3546,"\u0120mumbai":3992,"\u0120mumm":3548,"\u0120mummies":3993,"\u0120munition":3549,"\u0120munitions":3994,"\u0120mur":3544,"\u0120mus":1017,"\u0120museum":1568,"\u0120music":1192,"\u0120must":2324,"\u0120mut":3545,"\u0120my":785,"\u0120myster":2891,"\u0120mysterious":3418,"\u0120myth":1061,"\u0120mythology":3792,"\u0120myths":2064,"\u0120n":303,"\u0120nah":3125,"\u0120nahant":3433,"\u0120nam":1023,"\u0120name":1238,"\u0120named":1495,"\u0120nameless":1805,"\u0120names":1360,"\u0120narrow":3580,"\u0120nash":1608,"\u0120nat":947,"\u0120nation":2344,"\u0120national":930,"\u0120native":2906,"\u0120natural":2640,"\u0120nature":1385,"\u0120nav":1359,"\u0120naval":3305,"\u0120navy":1940,"\u0120ne":413,"\u0120near":1247,"\u0120nearly":2246,"\u0120nebr":2583,"\u0120nebraska":2721,"\u0120necess":2182,"\u0120necessary":2702,"\u0120neck":2840,"\u0120need":1543,"\u0120needed":2672,"\u0120neg":2582,"\u0120net":3578,"\u0120never":1693,"\u0120new":601,"\u0120newly":2207,"\u0120news":3707,"\u0120next":1476,"\u0120nhl":879,"\u0120night":2558,"\u0120nile":3124,"\u0120nine":2557,"\u0120no":708,"\u0120non":2153,"\u0120nort":2805,"\u0120north":1755,"\u0120northern":3951,"\u0120not":463,"\u0120note":3183,"\u0120noted":2030,"\u0120noting":3184,"\u0120novem":1487,"\u0120november":1501,"\u0120now":1607,"\u0120nub":2806,"\u0120nubia":3952,"\u0120numb":2000,"\u0120number":1051,"\u0120numbers":2098,"\u0120n\u00e1\u00b9\u00afr":3579,"\u0120o":263,"\u0120ob":702,"\u0120object":3734,"\u0120objects":2620,"\u0120obs":981,"\u0120observ":1036,"\u0120observations":2431,"\u0120observatory":1644,"\u0120occ":1666,"\u0120occas":3862,"\u0120occur":2678,"\u0120occurred":3943,"\u0120oct":2297,"\u0120october":2705,"\u0120of":284,"\u0120off":658,"\u0120offer":1358,"\u0120offered":3830,"\u0120offerings":2249,"\u0120offic":1088,"\u0120office":3726,"\u0120officer":3798,"\u0120officers":3799,"\u0120official":1332,"\u0120often":1141,"\u0120oil":2124,"\u0120old":1170,"\u0120on":336,"\u0120once":2006,"\u0120one":523,"\u0120ones":2167,"\u0120only":742,"\u0120op":875,"\u0120open":1105,"\u0120opened":2654,"\u0120opening":1933,"\u0120oper":703,"\u0120operates":3735,"\u0120operation":2045,"\u0120operations":1059,"\u0120oppos":2417,"\u0120opposite":2481,"\u0120or":392,"\u0120oracles":3639,"\u0120ord":1246,"\u0120order":1054,"\u0120orders":3293,"\u0120ordnance":1651,"\u0120organ":1620,"\u0120organization":3859,"\u0120origin":840,"\u0120original":1222,"\u0120originally":1793,"\u0120os":1452,"\u0120osiris":1810,"\u0120other":486,"\u0120others":1624,"\u0120our":2752,"\u0120out":621,"\u0120outside":1554,"\u0120over":599,"\u0120overall":2037,"\u0120overt":3705,"\u0120ow":1011,"\u0120own":1291,"\u0120owned":2428,"\u0120p":280,"\u0120pack":3536,"\u0120page":3094,"\u0120pageant":3430,"\u0120pain":1524,"\u0120paint":2670,"\u0120painted":3845,"\u0120paintings":3405,"\u0120pair":2781,"\u0120pan":3091,"\u0120pant":3093,"\u0120pantheon":3429,"\u0120pap":2321,"\u0120par":1745,"\u0120park":1990,"\u0120part":537,"\u0120partic":935,"\u0120particip":2421,"\u0120participated":3390,"\u0120particular":1106,"\u0120particularly":2068,"\u0120parts":2863,"\u0120pass":1525,"\u0120passed":3846,"\u0120past":3537,"\u0120pat":1355,"\u0120patch":3827,"\u0120patron":2445,"\u0120pattern":3828,"\u0120pe":923,"\u0120pen":1843,"\u0120peng":1674,"\u0120pengu":1726,"\u0120penguins":1819,"\u0120peop":1157,"\u0120people":1197,"\u0120per":473,"\u0120perc":2031,"\u0120percussion":2697,"\u0120perform":934,"\u0120performance":1800,"\u0120performed":1712,"\u0120perhaps":3668,"\u0120period":1184,"\u0120periods":3287,"\u0120perman":3185,"\u0120permanent":3438,"\u0120permitted":3667,"\u0120pers":819,"\u0120person":967,"\u0120personal":1642,"\u0120personified":2911,"\u0120perspect":2895,"\u0120perspective":3958,"\u0120peter":3256,"\u0120ph":897,"\u0120pharao":2053,"\u0120pharaoh":2102,"\u0120pharaohs":3362,"\u0120phen":2782,"\u0120phenomena":3010,"\u0120phil":2418,"\u0120phoen":3252,"\u0120phoenix":3441,"\u0120phot":3765,"\u0120phys":3251,"\u0120physical":3974,"\u0120pick":1673,"\u0120pict":2532,"\u0120picture":3396,"\u0120pil":739,"\u0120pilot":746,"\u0120pilots":1089,"\u0120pist":2780,"\u0120piston":3412,"\u0120pit":2320,"\u0120pitlake":3378,"\u0120pius":3539,"\u0120pl":388,"\u0120place":1216,"\u0120placed":2177,"\u0120places":2178,"\u0120plain":1771,"\u0120plan":1423,"\u0120planned":2950,"\u0120planning":3309,"\u0120plans":3169,"\u0120platform":3635,"\u0120play":465,"\u0120played":903,"\u0120player":1148,"\u0120players":1696,"\u0120playing":1776,"\u0120playoff":1886,"\u0120playstation":2193,"\u0120ple":3535,"\u0120po":478,"\u0120poin":787,"\u0120point":1790,"\u0120points":1007,"\u0120pol":1989,"\u0120political":3352,"\u0120poly":2380,"\u0120polyt":3386,"\u0120polytheistic":3981,"\u0120poor":2855,"\u0120pop":1074,"\u0120pope":2032,"\u0120populace":3794,"\u0120popular":1496,"\u0120port":999,"\u0120portable":3782,"\u0120pos":924,"\u0120posit":2055,"\u0120position":1639,"\u0120positive":2699,"\u0120poss":2235,"\u0120post":1547,"\u0120postcards":3852,"\u0120pot":3092,"\u0120potential":3428,"\u0120pound":1480,"\u0120pounds":3313,"\u0120poverty":3671,"\u0120power":1000,"\u0120powered":3783,"\u0120powers":3538,"\u0120pr":570,"\u0120pra":1523,"\u0120pract":1896,"\u0120practice":3887,"\u0120practices":2971,"\u0120praised":1724,"\u0120pre":683,"\u0120precious":3732,"\u0120pred":1356,"\u0120predecess":2944,"\u0120predecessors":3959,"\u0120predomin":3829,"\u0120predyn":3304,"\u0120predynastic":3442,"\u0120pres":1411,"\u0120presence":3836,"\u0120present":1232,"\u0120preservation":3837,"\u0120press":3095,"\u0120prev":1058,"\u0120previous":1158,"\u0120previously":3283,"\u0120pri":1456,"\u0120pries":2394,"\u0120priests":3388,"\u0120prim":1781,"\u0120primary":2684,"\u0120princ":3699,"\u0120princip":4008,"\u0120prior":1811,"\u0120priv":1121,"\u0120private":1196,"\u0120pro":432,"\u0120probably":3178,"\u0120proble":2848,"\u0120proc":2587,"\u0120process":2026,"\u0120processions":3901,"\u0120procured":3005,"\u0120produ":1024,"\u0120produced":1806,"\u0120producing":3787,"\u0120production":2649,"\u0120prof":1546,"\u0120profess":2084,"\u0120professional":2264,"\u0120progress":2377,"\u0120project":3177,"\u0120prom":1172,"\u0120promin":2656,"\u0120prominent":3404,"\u0120promot":2071,"\u0120promote":3903,"\u0120proposed":3660,"\u0120pros":3658,"\u0120prot":1371,"\u0120protect":1576,"\u0120protection":3855,"\u0120prov":1427,"\u0120proved":3659,"\u0120provided":2079,"\u0120ptah":3540,"\u0120pub":941,"\u0120public":1289,"\u0120published":1924,"\u0120pur":1073,"\u0120purch":1930,"\u0120purchase":3348,"\u0120purchased":3347,"\u0120purpose":3793,"\u0120purposes":2065,"\u0120put":1844,"\u0120qu":893,"\u0120qual":1567,"\u0120qualif":2956,"\u0120qualified":3853,"\u0120queen":2634,"\u0120quick":3763,"\u0120r":381,"\u0120ra":680,"\u0120race":3162,"\u0120racing":3163,"\u0120rail":3224,"\u0120raised":3225,"\u0120raj":3223,"\u0120ram":3630,"\u0120ran":3161,"\u0120range":1768,"\u0120rank":2367,"\u0120rare":2216,"\u0120rarely":2703,"\u0120rather":2833,"\u0120raven":3226,"\u0120re":302,"\u0120reach":2803,"\u0120reached":2556,"\u0120read":2802,"\u0120real":1211,"\u0120realm":2661,"\u0120reason":2152,"\u0120reasons":3908,"\u0120reb":3121,"\u0120rec":862,"\u0120rece":1022,"\u0120received":1193,"\u0120recently":3760,"\u0120reception":3576,"\u0120recogn":2899,"\u0120recor":707,"\u0120record":789,"\u0120recorded":1791,"\u0120recording":2218,"\u0120records":2225,"\u0120recre":1921,"\u0120recreational":2093,"\u0120rector":3122,"\u0120red":2148,"\u0120reduced":3123,"\u0120ref":1856,"\u0120refer":1857,"\u0120referred":3878,"\u0120reflect":2688,"\u0120reflecting":3944,"\u0120reform":2804,"\u0120reg":586,"\u0120regarded":3703,"\u0120region":2603,"\u0120regional":2605,"\u0120regions":3208,"\u0120register":2036,"\u0120registered":2466,"\u0120regul":1030,"\u0120regular":2604,"\u0120regulated":2918,"\u0120regulation":2062,"\u0120regulatory":2919,"\u0120reign":2150,"\u0120reinfor":3577,"\u0120reject":3574,"\u0120rel":600,"\u0120related":3706,"\u0120relations":1628,"\u0120relationship":2676,"\u0120relationships":2961,"\u0120rele":863,"\u0120release":1565,"\u0120released":1328,"\u0120relig":813,"\u0120religion":1285,"\u0120religious":1221,"\u0120rem":650,"\u0120remain":1252,"\u0120remainder":3294,"\u0120remained":1703,"\u0120remaining":2663,"\u0120remark":3220,"\u0120remo":3219,"\u0120removed":3973,"\u0120remun":2880,"\u0120ren":1531,"\u0120renamed":3847,"\u0120rep":571,"\u0120repair":3203,"\u0120repaired":2868,"\u0120repl":2034,"\u0120replaced":3358,"\u0120report":3573,"\u0120reports":3575,"\u0120represent":778,"\u0120representative":3243,"\u0120represented":1433,"\u0120representing":3242,"\u0120represents":2888,"\u0120requ":1212,"\u0120request":3288,"\u0120require":3289,"\u0120required":2074,"\u0120res":691,"\u0120rese":1999,"\u0120research":3355,"\u0120resemble":3898,"\u0120resp":1432,"\u0120respect":2406,"\u0120respectively":3389,"\u0120respon":2448,"\u0120respons":2250,"\u0120response":2999,"\u0120responsibility":3375,"\u0120responsible":3915,"\u0120rest":2149,"\u0120restr":2151,"\u0120restrict":2987,"\u0120restrictions":3961,"\u0120result":1787,"\u0120ret":796,"\u0120retur":1032,"\u0120return":2239,"\u0120returned":1643,"\u0120returning":2920,"\u0120rev":1005,"\u0120reve":2555,"\u0120revealed":3397,"\u0120review":1290,"\u0120reviews":3297,"\u0120revolut":3784,"\u0120revolution":4010,"\u0120rh":2365,"\u0120rhymes":3385,"\u0120rich":1540,"\u0120richard":3850,"\u0120richards":2954,"\u0120rick":2366,"\u0120rif":1366,"\u0120rifle":3306,"\u0120rifles":1941,"\u0120right":2831,"\u0120ritu":1317,"\u0120ritual":3824,"\u0120rituals":1573,"\u0120river":1422,"\u0120ro":412,"\u0120road":1692,"\u0120rober":3647,"\u0120rock":727,"\u0120role":1182,"\u0120roles":1622,"\u0120roll":3649,"\u0120rom":1302,"\u0120roman":1653,"\u0120rook":3648,"\u0120rookie":4003,"\u0120room":2181,"\u0120round":1318,"\u0120rounds":3300,"\u0120route":2375,"\u0120roy":1691,"\u0120royal":2087,"\u0120rub":2832,"\u0120rubin":3013,"\u0120rul":1875,"\u0120rule":2834,"\u0120rules":3881,"\u0120rum":2015,"\u0120rumors":2263,"\u0120run":1874,"\u0120rus":2830,"\u0120s":264,"\u0120sa":712,"\u0120sab":2754,"\u0120sabres":3407,"\u0120sac":2127,"\u0120sacred":2700,"\u0120saf":1910,"\u0120safe":3889,"\u0120safety":2691,"\u0120said":964,"\u0120sajid":3737,"\u0120sak":3063,"\u0120sakimoto":3424,"\u0120sales":3511,"\u0120sam":3508,"\u0120same":995,"\u0120san":1346,"\u0120sanct":3301,"\u0120sanford":1939,"\u0120sat":3060,"\u0120sav":1594,"\u0120savannah":1817,"\u0120saw":3736,"\u0120say":3061,"\u0120says":2298,"\u0120sc":617,"\u0120scale":3713,"\u0120sch":994,"\u0120sched":2609,"\u0120scheduled":3941,"\u0120schol":1802,"\u0120scholars":2091,"\u0120school":1439,"\u0120schools":2668,"\u0120scope":2610,"\u0120scor":1595,"\u0120score":3712,"\u0120scored":2039,"\u0120scoring":1818,"\u0120scott":2876,"\u0120se":355,"\u0120sea":3613,"\u0120season":662,"\u0120seasons":2881,"\u0120secon":867,"\u0120second":872,"\u0120seconds":3248,"\u0120secret":3150,"\u0120sector":1616,"\u0120sectors":3616,"\u0120see":2823,"\u0120seem":3614,"\u0120seen":2568,"\u0120sega":3151,"\u0120sele":2359,"\u0120selected":3383,"\u0120self":2009,"\u0120sen":2125,"\u0120senj\u00c5":3363,"\u0120senj\u00c5\u012f":3444,"\u0120sense":3065,"\u0120sent":1515,"\u0120separ":2008,"\u0120separate":2696,"\u0120sept":2171,"\u0120september":2268,"\u0120sequel":3615,"\u0120ser":1113,"\u0120series":1260,"\u0120serv":895,"\u0120served":2231,"\u0120service":2635,"\u0120services":2052,"\u0120serving":3764,"\u0120set":1053,"\u0120sev":3148,"\u0120seven":1869,"\u0120sever":1100,"\u0120several":1109,"\u0120sex":3149,"\u0120sh":430,"\u0120shap":3657,"\u0120shaped":4005,"\u0120she":440,"\u0120shell":1882,"\u0120shells":3885,"\u0120shif":2187,"\u0120shift":3369,"\u0120ship":853,"\u0120ships":1797,"\u0120shoot":2847,"\u0120shootout":3954,"\u0120short":1881,"\u0120shortly":3884,"\u0120shot":1319,"\u0120shotgun":3825,"\u0120shotguns":4011,"\u0120should":2845,"\u0120show":2025,"\u0120shown":2846,"\u0120shr":2844,"\u0120side":2755,"\u0120sign":844,"\u0120signed":1564,"\u0120signific":1794,"\u0120significant":1949,"\u0120sil":2126,"\u0120silver":2982,"\u0120sim":1305,"\u0120similar":2443,"\u0120since":1306,"\u0120sing":958,"\u0120single":1126,"\u0120sister":1348,"\u0120sisters":3302,"\u0120sites":2513,"\u0120situ":2128,"\u0120situation":3364,"\u0120situations":3906,"\u0120six":1347,"\u0120size":2299,"\u0120sk":1404,"\u0120skills":2947,"\u0120skin":2946,"\u0120sky":1970,"\u0120sl":704,"\u0120slayer":963,"\u0120slow":1908,"\u0120slowly":3346,"\u0120sm":773,"\u0120small":966,"\u0120smaller":2644,"\u0120sms":2412,"\u0120so":705,"\u0120soc":1012,"\u0120social":3267,"\u0120society":1225,"\u0120sol":2753,"\u0120solar":3406,"\u0120sold":1516,"\u0120soldiers":2454,"\u0120som":1453,"\u0120some":592,"\u0120something":2607,"\u0120sometimes":1723,"\u0120song":908,"\u0120songs":1636,"\u0120soon":3230,"\u0120soph":3512,"\u0120sophisticated":3989,"\u0120sort":3062,"\u0120sou":2512,"\u0120soul":3393,"\u0120sound":2217,"\u0120south":876,"\u0120sp":634,"\u0120spe":648,"\u0120speaking":3722,"\u0120spec":937,"\u0120special":2403,"\u0120species":1640,"\u0120specific":1713,"\u0120spect":3721,"\u0120speed":2211,"\u0120spent":2614,"\u0120spir":2040,"\u0120spirits":3359,"\u0120spl":3719,"\u0120sport":3510,"\u0120sports":3064,"\u0120spread":2878,"\u0120spring":2041,"\u0120squ":1667,"\u0120squad":1725,"\u0120squadron":3336,"\u0120sri":1833,"\u0120st":328,"\u0120staff":2005,"\u0120stage":2166,"\u0120stained":3596,"\u0120stand":1098,"\u0120standard":2432,"\u0120standards":1932,"\u0120stap":3595,"\u0120staples":4000,"\u0120star":1243,"\u0120start":881,"\u0120started":1708,"\u0120starting":3761,"\u0120stat":1273,"\u0120state":960,"\u0120stated":1364,"\u0120states":1613,"\u0120station":2353,"\u0120stationed":3382,"\u0120statistics":3296,"\u0120statues":3295,"\u0120ste":1242,"\u0120steam":3292,"\u0120step":3815,"\u0120still":1472,"\u0120sting":3593,"\u0120stop":3138,"\u0120stor":3137,"\u0120stores":3598,"\u0120storrington":3966,"\u0120story":1471,"\u0120str":1419,"\u0120stra":3594,"\u0120stre":2813,"\u0120streak":1864,"\u0120street":3413,"\u0120string":3597,"\u0120strong":1809,"\u0120stru":1536,"\u0120struck":3848,"\u0120structure":3849,"\u0120strugg":2671,"\u0120stud":1244,"\u0120studio":2662,"\u0120study":2440,"\u0120style":2563,"\u0120su":400,"\u0120sub":1279,"\u0120subject":3822,"\u0120subsequ":2939,"\u0120subsequently":3419,"\u0120suc":1118,"\u0120success":1195,"\u0120successful":2438,"\u0120successfully":3391,"\u0120such":734,"\u0120suffer":1773,"\u0120suffered":2966,"\u0120suffering":3870,"\u0120sugg":1621,"\u0120suggest":1657,"\u0120suggested":3328,"\u0120suicide":2581,"\u0120summ":2129,"\u0120summer":2983,"\u0120sun":1229,"\u0120sund":3509,"\u0120sundial":3988,"\u0120sung":3813,"\u0120sup":824,"\u0120super":2022,"\u0120supp":1917,"\u0120supply":2973,"\u0120support":1254,"\u0120supporting":3816,"\u0120sur":919,"\u0120surf":3254,"\u0120surrender":3255,"\u0120surround":1923,"\u0120surrounding":2260,"\u0120sw":2511,"\u0120sy":754,"\u0120sydney":3742,"\u0120symb":1914,"\u0120symbol":1953,"\u0120symbolic":3893,"\u0120syn":2046,"\u0120syncret":2978,"\u0120system":1325,"\u0120t":257,"\u0120tail":3051,"\u0120take":1403,"\u0120taken":2750,"\u0120takes":3499,"\u0120taking":2506,"\u0120tal":3495,"\u0120tamp":3497,"\u0120tampa":3986,"\u0120tar":3048,"\u0120task":3498,"\u0120tat":2504,"\u0120tattnall":2713,"\u0120tax":3500,"\u0120te":472,"\u0120team":590,"\u0120teams":2606,"\u0120tele":2194,"\u0120television":3370,"\u0120tem":752,"\u0120temp":781,"\u0120temple":1489,"\u0120temples":1155,"\u0120ten":3047,"\u0120ter":992,"\u0120term":1801,"\u0120terms":2060,"\u0120test":3496,"\u0120tex":1248,"\u0120texts":1390,"\u0120th":304,"\u0120than":692,"\u0120that":346,"\u0120the":261,"\u0120thebes":3506,"\u0120their":442,"\u0120them":516,"\u0120theme":1481,"\u0120themed":2199,"\u0120themes":2860,"\u0120themselves":1888,"\u0120then":1264,"\u0120theories":3505,"\u0120there":616,"\u0120therefore":2608,"\u0120these":583,"\u0120they":503,"\u0120things":1858,"\u0120think":3581,"\u0120thir":1239,"\u0120third":1334,"\u0120this":487,"\u0120those":1466,"\u0120though":1117,"\u0120thought":1934,"\u0120thous":3126,"\u0120thousand":3434,"\u0120thr":2154,"\u0120threat":2002,"\u0120threaten":2464,"\u0120threatened":3392,"\u0120three":864,"\u0120thriller":2701,"\u0120through":775,"\u0120throughout":1789,"\u0120thus":2001,"\u0120tide":3049,"\u0120tied":2505,"\u0120tim":527,"\u0120time":631,"\u0120times":1377,"\u0120tit":1592,"\u0120title":2674,"\u0120titled":3856,"\u0120to":296,"\u0120today":3110,"\u0120todd":3565,"\u0120toget":2336,"\u0120together":2476,"\u0120ton":3046,"\u0120tone":2749,"\u0120tons":3050,"\u0120too":2335,"\u0120took":1236,"\u0120top":1752,"\u0120tor":1591,"\u0120toronto":3323,"\u0120torpedo":2957,"\u0120tot":1415,"\u0120total":2446,"\u0120totten":2447,"\u0120tour":2543,"\u0120tow":636,"\u0120towards":2616,"\u0120tower":736,"\u0120tr":455,"\u0120tra":805,"\u0120track":1102,"\u0120tracks":2926,"\u0120trad":951,"\u0120trade":1321,"\u0120traded":2907,"\u0120trading":3773,"\u0120tradition":1191,"\u0120traditional":1936,"\u0120traditions":3811,"\u0120traffic":2894,"\u0120training":1434,"\u0120trans":826,"\u0120transfer":2628,"\u0120transferred":3400,"\u0120transl":3754,"\u0120transport":1286,"\u0120travel":2226,"\u0120tre":2118,"\u0120tri":2119,"\u0120tribute":3052,"\u0120tro":1135,"\u0120troops":1441,"\u0120trophy":2655,"\u0120true":2851,"\u0120tur":1166,"\u0120turn":3285,"\u0120turned":3807,"\u0120turns":2435,"\u0120tw":506,"\u0120twin":3681,"\u0120two":547,"\u0120typ":2120,"\u0120types":2467,"\u0120u":453,"\u0120uk":825,"\u0120ult":3494,"\u0120un":396,"\u0120unable":3642,"\u0120under":743,"\u0120understand":3234,"\u0120unif":3641,"\u0120union":1369,"\u0120uniqu":3171,"\u0120unique":3436,"\u0120unit":2580,"\u0120united":1370,"\u0120units":2373,"\u0120univer":1879,"\u0120univers":2020,"\u0120universe":1952,"\u0120university":2977,"\u0120unl":1689,"\u0120unlike":3332,"\u0120until":1424,"\u0120up":642,"\u0120upon":1902,"\u0120upper":2617,"\u0120us":581,"\u0120use":1428,"\u0120used":887,"\u0120uses":3206,"\u0120using":1897,"\u0120usually":2395,"\u0120v":391,"\u0120val":663,"\u0120valkyria":699,"\u0120van":2371,"\u0120var":1368,"\u0120variety":3832,"\u0120various":1942,"\u0120vatican":2372,"\u0120ve":2017,"\u0120ven":2370,"\u0120ver":1111,"\u0120version":3277,"\u0120versions":3803,"\u0120very":2927,"\u0120veter":3356,"\u0120vi":2837,"\u0120via":3636,"\u0120vict":2019,"\u0120victory":3357,"\u0120vide":2018,"\u0120video":2101,"\u0120vint":3637,"\u0120vintage":4002,"\u0120vis":1772,"\u0120vision":3638,"\u0120visual":3869,"\u0120voc":1878,"\u0120vocal":3883,"\u0120vocals":2689,"\u0120vol":3170,"\u0120w":266,"\u0120wake":3515,"\u0120wal":2300,"\u0120waldron":3918,"\u0120waldrons":4012,"\u0120wall":2131,"\u0120walls":3907,"\u0120want":2517,"\u0120war":713,"\u0120warne":2623,"\u0120was":317,"\u0120wasn":3589,"\u0120water":2758,"\u0120way":969,"\u0120ways":2518,"\u0120we":724,"\u0120weap":1629,"\u0120weapon":3327,"\u0120weapons":2252,"\u0120webb":2884,"\u0120wee":1911,"\u0120weehaw":2692,"\u0120weehawken":2724,"\u0120weighed":3738,"\u0120well":1044,"\u0120went":3513,"\u0120were":367,"\u0120west":2516,"\u0120western":2519,"\u0120wh":353,"\u0120whalers":3147,"\u0120what":2358,"\u0120whe":500,"\u0120when":664,"\u0120where":979,"\u0120whereas":2424,"\u0120whether":2857,"\u0120which":456,"\u0120while":675,"\u0120white":2567,"\u0120who":513,"\u0120whole":3191,"\u0120whose":3192,"\u0120wid":3514,"\u0120wide":3066,"\u0120wife":2132,"\u0120will":1741,"\u0120win":783,"\u0120wind":2889,"\u0120window":3417,"\u0120winds":2890,"\u0120wing":2514,"\u0120wings":2757,"\u0120winner":3752,"\u0120winning":2626,"\u0120winter":3751,"\u0120wis":2130,"\u0120wisniews":3365,"\u0120wisniewski":3445,"\u0120with":335,"\u0120withd":2814,"\u0120withdraw":3953,"\u0120within":1145,"\u0120without":1763,"\u0120wom":896,"\u0120woman":2636,"\u0120women":1034,"\u0120won":1834,"\u0120wood":3067,"\u0120wooden":3962,"\u0120wor":422,"\u0120word":3652,"\u0120words":3653,"\u0120work":630,"\u0120worked":2210,"\u0120working":3213,"\u0120works":1555,"\u0120world":674,"\u0120worship":1426,"\u0120worshipped":3838,"\u0120worst":2586,"\u0120would":845,"\u0120wound":3516,"\u0120writ":940,"\u0120writing":2638,"\u0120writings":2904,"\u0120written":1641,"\u0120wro":2515,"\u0120wrote":2715,"\u0120wy":2756,"\u0120x":1736,"\u0120xiii":2964,"\u0120y":454,"\u0120year":554,"\u0120years":1185,"\u0120yet":2590,"\u0120york":1884,"\u0120you":2191,"\u0120youn":1775,"\u0120young":1821,"\u0120your":3664,"\u0120\u00c2":1737,"\u0120\u00c2\u00a3":2683,"\u0120\u00c3\u00a6st":2293,"\u0120\u00c3\u00a6sthetic":2472,"\u0120\u00e2":424,"\u0120\u00e2\u0122":429,"\u0120\u00e2\u0122\u0135":485,"\u0120\u00e2\u0122\u0136":1055,"\u0120\u00e2\u0122\u013b":1545,"\u0120\u00e2\u0124":3654,"\u0121":222,"\u0122":223,"\u0123":224,"\u0124":225,"\u0125":226,"\u0126":227,"\u0127":228,"\u0128":229,"\u0129":230,"\u012a":231,"\u012b":232,"\u012c":233,"\u012d":234,"\u012e":235,"\u012f":236,"\u0130":237,"\u0131":238,"\u0132":239,"\u0133":240,"\u0134":241,"\u0135":242,"\u0136":243,"\u0137":244,"\u0138":245,"\u0139":246,"\u013a":247,"\u013b":248,"\u013c":249,"\u013d":250,"\u013e":251,"\u013f":252,"\u0140":253,"\u0141":254,"\u0142":255,"\u0143":256}},"normalizer":null,"padding":null,"post_processor":{"add_prefix_space":true,"trim_offsets":false,"type":"ByteLevel","use_regex":true},"pre_tokenizer":{"add_prefix_space":false,"trim_offsets":true,"type":"ByteLevel","use_regex":true},"truncation":null,"version":"1.0"}