{"added_tokens":[{"content":"<unk>","id":0,"lstrip":false,"normalized":false,"rstrip":false,"single_word":false,"special":true}],"decoder":{"add_prefix_space":true,"trim_offsets":true,"type":"ByteLevel","use_regex":true},"model":{"byte_fallback":false,"continuing_subword_prefix":null,"dropout":null,"end_of_word_suffix":null,"fuse_unk":false,"ignore_merges":false,"merges":[["h","e"],["\u0120","t"],["\u0120","a"],["\u0120","s"],["\u0120","w"],["n","d"],["\u0120t","he"],["e","d"],["\u0120a","nd"],["\u0120t","o"],["\u0120","b"],["i","n"],["\u0120","h"],["\u0120w","a"],["r","e"],["\u0120","f"],["o","u"],["i","t"],["\u0120","l"],["\u0120","c"],["\u0120","d"],["e","r"],["\u0120","he"],["\u0120","m"],["\u0120","p"],["\u0120wa","s"],["o","m"],["\u0120","T"],["\u0120","o"],["a","y"],["a","r"],["i","s"],["in","g"],["i","l"],["\u0120","g"],["i","d"],["a","t"],["e","n"],["\u0120","n"],["\u0120s","a"],["\u0120h","a"],["\u0120","S"],["\u0120T","he"],["a","n"],["i","m"],["o","r"],["o","n"],["\u0120","it"],["\u0120t","h"],["l","l"],["l","e"],["\u0120","H"],["\u0120he","r"],["o","t"],["e","t"],["i","r"],["\u0120S","he"],["\u0120H","e"],["e","s"],["\u0120","in"],["v","er"],["u","t"],["o","w"],["\u0120The","y"],["c","k"],["\u0120","e"],["\u0120","u"],["l","d"],["il","y"],["\u0120","y"],["o","o"],["\u0120sa","id"],["i","g"],["\u0120","r"],["a","m"],["\u0120b","e"],["\u0120s","t"],["\u0120","\""],["c","e"],["\u0120","I"],["\u0120s","he"],["k","e"],["p","p"],["it","h"],["v","e"],["L","ily"],["\u0120w","ith"],["O","n"],["\u0120o","n"],["\u0120o","f"],["r","i"],["k","ed"],["\u0120h","is"],["\u0120y","ou"],["\u0120p","l"],["\u0120s","o"],["n","t"],["ver","y"],["a","d"],["\u0120d","ay"],["\u0120th","at"],["\u0120u","p"],["\u0120","Lily"],["\u0120pl","ay"],["\u0120ha","d"],["s","t"],["\u0120the","y"],["\u0120w","e"],["\u0120m","om"],["\u0120f","or"],["e","l"],["ou","ld"],["u","n"],["\u0120","B"],["m","y"],["'","s"],["T","he"],["\u0120l","i"],["\u0120ha","pp"],["c","h"],["en","t"],["it","t"],["\u0120wa","nt"],["he","r"],["\u0120s","h"],["ou","t"],["\u0120d","o"],["\u0120n","ot"],["\u0120","very"],["om","e"],["l","y"],["a","ll"],["ou","nd"],["e","nd"],["itt","le"],["im","e"],["s","e"],["\u0120w","h"],["\u0120","k"],["\u0120l","ittle"],["\u0120t","ime"],["\u0120the","re"],["a","l"],["\u0120n","e"],["h","t"],["\u0120happ","y"],["\u0120b","ig"],["\u0120","re"],["\u0120","M"],["\u0120","is"],["\u0120I","t"],["\u0120s","m"],["\u0120b","ut"],["r","a"],["\u0120sa","w"],["ri","end"],["\u0120f","riend"],["\u0120a","n"],["r","y"],["\u0120a","s"],["a","ck"],[".","\""],["On","e"],["id","e"],["a","ke"],["'","t"],["v","ed"],["u","g"],["t","er"],["On","ce"],["\u0120l","oo"],["\u0120l","o"],["\u0120we","re"],["o","re"],["!","\""],["e","c"],["\u0120h","im"],["\u0120b","o"],["\u0120to","o"],["\u0120T","im"],["\u0120s","e"],["\u0120g","o"],["ir","l"],["\u0120want","ed"],["\u0120up","on"],["\u0120","j"],["ar","d"],["\u0120g","irl"],["il","l"],["\u0120a","re"],["\u0120the","m"],["\u0120","out"],["\u0120a","t"],["\u0120the","ir"],["i","nd"],["\u0120s","p"],["w","ay"],["f","u"],["u","r"],["\u0120d","id"],["\u0120c","ould"],["\u0120","A"],["he","n"],["\u0120sm","il"],["a","in"],["\u0120ha","ve"],["ar","t"],["he","d"],["\u0120w","ent"],["\u0120e","x"],["r","om"],["i","c"],["r","ound"],["l","p"],["\u0120n","am"],["\u0120c","an"],["fu","l"],["\u0120friend","s"],["h","ing"],["\u0120B","en"],["\u0120","J"],["\u0120he","lp"],["\u0120k","n"],["\u0120a","ll"],["ig","ht"],["oo","d"],["?","\""],["u","m"],["ar","k"],["on","e"],["\u0120b","ack"],["\u0120f","un"],["\u0120c","l"],["a","re"],["\u0120s","ay"],["\u0120l","e"],["Y","ou"],["\u0120nam","ed"],["\u0120n","o"],["\u0120T","om"],["\u0120lo","ved"],["o","p"],["el","t"],["\u0120","One"],["ou","g"],["\u0120s","c"],["\u0120a","l"],["\u0120Tim","my"],["s","ide"],["\u0120f","elt"],["\u0120to","y"],["i","ck"],["\u0120smil","ed"],["\u0120m","an"],["\u0120f","e"],["\u0120as","ked"],["\u0120se","e"],["\u0120loo","ked"],["am","e"],["\u0120li","ke"],["\u0120a","round"],["\u0120s","ome"],["om","et"],["u","re"],["\u0120r","o"],["\u0120bo","y"],["\u0120b","r"],["\u0120w","ould"],["g","et"],["\u0120m","e"],["\u0120","W"],["\u0120b","ir"],["on","g"],["\u0120st","art"],["i","ce"],["s","s"],["\u0120s","omet"],["\u0120bir","d"],["ing","s"],["\u0120f","a"],["\u0120w","or"],["\u0120a","g"],["ad","e"],["\u0120m","ake"],["\u0120wh","at"],["d","d"],["k","ing"],["\u0120t","re"],["get","her"],["ow","n"],["\u0120B","ut"],["\u0120a","way"],["\u0120r","an"],["a","g"],["\u0120start","ed"],["ou","d"],[",","\""],["\u0120","You"],["\u0120m","ade"],["ar","ed"],["i","e"],["\u00e2","\u0122"],["\u0120to","gether"],["\u0120p","ark"],["\u0120say","s"],["\u0120c","o"],["\u0120somet","hing"],["i","f"],["\u0120c","ar"],["t","her"],["it","ed"],["\u0120sa","d"],["\u0120p","ut"],["\u0120ne","w"],["\u0120o","ther"],["\u0120p","r"],["b","le"],["\u0120ag","ain"],["\u0120f","rom"],["\u0120ex","c"],["\u0120h","ug"],["\u0120m","u"],["\u0120l","a"],["\u0120h","ome"],["e","ll"],["\u0120w","hen"],["\u0120wh","o"],["oo","k"],["\u0120g","ood"],["es","t"],["ri","ed"],["\u0120","L"],["\u0120f","ound"],["\u0120the","n"],["a","ch"],["e","p"],["\u0120d","ec"],["\u0120f","l"],["pp","ed"],["\u0120c","h"],["a","s"],["\u0120play","ing"],["oug","ht"],["\u0120wa","l"],["\u0120g","et"],["q","u"],["\u0120","E"],["all","y"],["h","at"],["\u0120th","ings"],["\u0120s","w"],["u","ck"],["\u0120g","ot"],["p","l"],["ou","s"],["\u0120li","ked"],["n","n"],["\u0120e","very"],["\u0120dec","id"],["\u0120exc","ited"],["a","ve"],["\u0120decid","ed"],["r","o"],["\u0120c","ame"],["a","x"],["\u0120b","l"],["\u0120be","c"],["\u0120d","own"],["\u0120you","r"],["\u0120f","ind"],["\u0120c","are"],["\u0120do","g"],["\u0120sc","ared"],["u","st"],["\u0120on","e"],["\u0120fe","el"],["\u0120","v"],["\u0120th","an"],["ou","se"],["is","t"],["n","y"],["\u0120d","ad"],["\u0120","D"],["a","p"],["\u0120M","om"],["\u0120a","b"],["ar","n"],["ar","a"],["u","e"],["way","s"],["\u0120did","n"],["nn","a"],["\u0120g","ra"],["u","dd"],["\u0120m","y"],["\u0120al","ways"],["\u0120too","k"],["an","t"],["er","s"],["The","y"],["\u0120","ke"],["u","s"],["es","s"],["\u0120mom","my"],["\u0120","F"],["f","e"],["ou","r"],["\u0120ab","out"],["\u0120l","ot"],["\u0120tre","e"],["\u0120toy","s"],["\u0120p","o"],["\u0120kn","e"],["\u0120loo","k"],["\u0120b","all"],["\u0120w","ill"],["nd","er"],["\u0120out","side"],["it","e"],["\u0120th","ought"],["ec","i"],["en","ed"],["\u0120t","a"],["\u0120le","arn"],["b","b"],["is","e"],["c","hed"],["\u0120m","ore"],["\u0120p","re"],["\u0120in","t"],["\u0120h","o"],["\u0120kn","ow"],["\u0120S","am"],["g","ed"],["eci","al"],["\u0120sp","ecial"],["\u0120o","ld"],["\u0120t","ake"],["\u0120s","or"],["\u0120M","ax"],["\u0120p","e"],["\u0120la","ug"],["\u0120kne","w"],["i","ve"],["m","a"],["f","ter"],["\u0120c","at"],["\u0120h","ow"],["\u0120an","y"],["udd","en"],["a","u"],["\u0120sh","ow"],["\u0120t","r"],["\u0120mu","ch"],["i","a"],["udden","ly"],["a","nd"],["\u0120sor","ry"],["\u0120s","l"],["in","k"],["B","ut"],["is","h"],["\u0120r","un"],["\u0120h","ouse"],["\u0120t","w"],["v","en"],["\u0120to","ld"],["\u0120s","k"],["\u0120o","r"],["\u0120ha","nd"],["\u0120o","p"],["\u0120s","un"],["\u0120in","side"],["\u0120g","ave"],["\u0120m","o"],["\u0120cl","o"],["\u0120t","ried"],["\u0120int","o"],["\u0120wa","ter"],["\u0120pr","oud"],["an","k"],["\u0120","qu"],["\u0120could","n"],["\u0120o","ver"],["au","se"],["at","e"],["\u0120ne","ver"],["um","p"],["\u0120E","very"],["t","y"],["\u0120","en"],["ot","her"],["\u0120e","at"],["\u0120","if"],["a","ce"],["\u0120ro","om"],["et","ter"],["\u0120play","ed"],["\u0120he","ard"],["g","e"],["\u0120ex","pl"],["\u0120e","ach"],["\u0120pre","t"],["\u0120p","ick"],["i","on"],["\u0120th","is"],["b","y"],["he","re"],["\u0120W","e"],["T","om"],["d","y"],["a","k"],["\u0120bec","ause"],["\u0120hug","ged"],["\u0120A","nna"],["\u0120st","r"],["\u0120c","om"],["\u0120wa","t"],["\u0120g","re"],["\u0120bo","x"],["\u0120j","ust"],["\u0120n","ice"],["il","e"],["\u0120S","ara"],["ot","h"],["\u0120ne","ed"],["i","z"],["M","om"],["\u0120of","f"],["\u0120j","o"],["\u0120man","y"],["\u0120be","ar"],["\u0120l","ong"],["\u0120sm","all"],["\u0120f","o"],["\u0120b","u"],["v","ing"],["\u0120s","n"],["oug","h"],["\u0120learn","ed"],["'","m"],["or","t"],["\u0120u","nt"],["u","c"],["in","e"],["im","al"],["\u0120an","imal"],["g","ry"],["\u0120t","ry"],["\u0120b","etter"],["il","d"],["s","el"],["\u0120unt","il"],["s","ed"],["\u0120lo","ve"],["ur","t"],["\u0120J","ack"],["f","t"],["\u0120","im"],["e","m"],["\u0120d","re"],["\u0120e","nd"],["\u0120k","ind"],["\u0120c","all"],["\u0120c","le"],["b","er"],["\u0120a","d"],["\u0120fl","ow"],["\u0120b","est"],["v","ent"],["ur","n"],["H","e"],["\u0120H","er"],["a","ut"],["\u0120S","o"],["\u0120A","nd"],["ar","s"],["ad","y"],["\u0120f","i"],["\u0120p","u"],["\u0120care","ful"],["\u0120fa","st"],["\u0120sk","y"],["\u0120g","r"],["v","es"],["\u0120than","ked"],["\u0120e","ven"],["\u0120be","aut"],["\u0120","C"],["Y","es"],["\u0120b","ra"],["\u0120J","o"],["ur","p"],["ard","en"],["\u0120g","arden"],["\u0120d","on"],["p","t"],["ll","y"],["\u0120c","he"],["\u0120t","e"],["\u0120b","y"],["\u0120M","ia"],["sel","f"],["T","h"],["\u0120lot","s"],["i","es"],["\u0120l","oud"],["\u0120g","l"],["in","y"],["\u0120laug","hed"],["\u0120f","am"],["\u0120j","ump"],["\u0120beaut","i"],["a","se"],["le","w"],["\u0120l","ist"],["w","n"],["\u0120st","ill"],["\u0120beauti","ful"],["r","m"],["\u0120h","ard"],["\u0120wa","y"],["\u0120F","rom"],["\u0120c","ome"],["\u0120h","urt"],["\u0120animal","s"],["\u0120w","o"],["c","t"],["I","t"],["\u0120r","a"],["\u0120H","is"],["a","st"],["he","s"],["\u0120co","l"],["\u0120The","n"],["\u00e2\u0122","\u013f"],["\u0120u","nder"],["\u00e2\u0122","\u013e"],["\u0120re","m"],["n","ing"],["\u0120sa","fe"],["\u0120st","ay"],["ec","t"],["b","e"],["\u0120l","et"],["\u0120li","ved"],["\u0120b","oth"],["oo","l"],["\u0120c","u"],["T","im"],["op","le"],["\u0120im","p"],["\u0120bra","ve"],["\u0120it","s"],["\u0120fam","ily"],["k","ay"],["o","b"],["\u0120d","an"],["\u0120b","ad"],["\u0120r","ed"],["\u0120st","or"],["is","hed"],["an","e"],["\u0120tw","o"],["\u0120b","ook"],["W","hen"],["re","e"],["\u0120f","in"],["uc","y"],["\u0120pe","ople"],["\u0120sh","ould"],["urp","r"],["\u0120call","ed"],["\u0120f","lew"],["o","ck"],["\u0120f","ly"],["\u0120p","ic"],["\u0120wal","ked"],["\u0120s","urpr"],["ig","h"],["\u0120an","gry"],["\u0120so","on"],["\u0120f","ore"],["\u0120W","hen"],["x","t"],["l","ed"],["\u0120do","ll"],["\u0120ke","pt"],["\u0120cle","an"],["\u0120sh","are"],["f","ore"],["is","ed"],["\u0120ro","ck"],["N","o"],["\u0120pret","ty"],["h","n"],["\u0120d","ra"],["\u0120go","ing"],["\u0120do","or"],["i","p"],["L","et"],["\u0120c","on"],["\u0120","\u00e2\u0122\u013e"],["\u0120","P"],["\u0120ke","ep"],["dd","ed"],["\u0120ad","vent"],["\u0120g","round"],["\u0120sh","iny"],["\u0120op","ened"],["um","my"],["\u0120n","ow"],["\u0120re","al"],["\u0120w","ind"],["il","ly"],["\u0120c","ry"],["\u0120expl","ore"],["ag","e"],["\u0120c","re"],["\u0120st","o"],["\u0120","ide"],["\u0120be","fore"],["B","en"],["\u0120no","ise"],["\u0120f","r"],["\u0120col","or"],["ar","y"],["\u0120t","urn"],["le","s"],["s","o"],["\u0120f","ar"],["t","ure"],["\u0120al","so"],["\u0120pick","ed"],["\u0120feel","ing"],["i","ed"],["\u0120wh","ile"],["\u0120e","y"],["\u0120ide","a"],["o","on"],["im","b"],["o","y"],["\u0120ne","xt"],["\u0120u","n"],["\u0120b","ed"],["t","hing"],["\u0120cl","imb"],["f","f"],["\u0120w","r"],["W","hat"],["\u0120th","r"],["\u0120wal","king"],["\u0120L","ucy"],["\u0120ha","s"],["e","et"],["\u0120smil","e"],["u","ch"],["T","hat"],["\u0120pic","ture"],["\u0120no","dded"],["g","er"],["ic","ed"],["\u0120advent","ure"],["\u0120tr","uck"],["t","h"],["\u0120m","a"],["ay","be"],["\u00e2\u0122","\u013b"],["k","es"],["\u0120","G"],["\u0120be","ing"],["em","ber"],["t","ed"],["Th","ank"],["a","c"],["j","oy"],["i","ous"],["\u0120clo","s"],["t","ing"],["\u0120g","ive"],["\u0120f","ood"],["\u0120t","ra"],["\u0120loo","king"],["\u0120wa","it"],["\u0120list","en"],["\u0120sto","pped"],["\u0120D","ad"],["\u0120bl","ue"],["ug","ht"],["iz","ed"],["\u0120d","if"],["\u0120to","w"],["\u0120a","fter"],["\u0120rem","ember"],["\u0120hand","s"],["\u0120b","re"],["\u0120br","o"],["\u0120th","ink"],["\u0120not","iced"],["\u0120S","uddenly"],["ma","z"],["\u0120ey","es"],["\u0120a","maz"],["\u0120d","el"],["\u0120wal","k"],["a","ble"],["\u0120o","wn"],["\u0120qu","ick"],["\u0120en","joy"],["\u0120d","is"],["S","he"],["\u0120fore","st"],["\u0120e","ver"],["\u0120gre","at"],["\u0120sl","ide"],["\u0120show","ed"],["\u0120re","pl"],["\u0120wat","ch"],["ir","st"],["\u0120str","ong"],["\u0120a","pp"],["\u0120flow","ers"],["bb","it"],["\u0120every","one"],["\u0120r","ain"],["\u0120wo","nder"],["\u0120imp","ort"],["\u0120f","ish"],["\u0120wor","k"],["ll","ow"],["\u0120t","al"],["\u0120bo","at"],["\u0120v","o"],["S","uddenly"],["\u0120a","c"],["\u0120ne","ar"],["\u0120st","ick"],["\u0120as","k"],["\u0120S","p"],["\u0120o","kay"],["\u0120sh","out"],["\u0120he","ad"],["\u0120w","here"],["\u0120import","ant"],["\u0120me","an"],["g","an"],["\u0120ra","bbit"],["\u0120pl","ace"],["\u0120r","ight"],["\u0120u","s"],["by","e"],["\u0120s","ound"],["bb","ed"],["\u0120quick","ly"],["\u0120y","ell"],["\u0120br","ight"],["\u0120u","se"],["\u0120B","ob"],["\u0120fo","llow"],["\u0120wat","ched"],["\u0120repl","ied"],["le","ase"],["an","ge"],["\u0120d","e"],["fe","re"],["\u0120dre","ss"],["d","ay"],["\u0120bec","ame"],["\u0120dif","fere"],["at","h"],["\u0120","N"],["\u0120m","or"],["er","ed"],["\u0120s","ure"],["c","o"],["\u0120a","r"],["W","e"],["\u0120ch","ild"],["nd","ma"],["\u0120be","en"],["\u0120cu","ri"],["\u0120c","ake"],["\u0120","R"],["\u0120h","igh"],["\u0120m","ag"],["ou","nt"],["\u0120y","e"],["\u0120wa","rm"],["\u0120","our"],["\u0120st","ore"],["a","ught"],["\u0120h","op"],["\u0120good","bye"],["\u0120fa","ce"],["\u0120s","qu"],["\u0120differe","nt"],["\u0120clos","er"],["m","ore"],["\u0120for","g"],["\u0120any","more"],["\u0120do","es"],["S","o"],["A","nna"],["L","ook"],["\u0120curi","ous"],["n","g"],["le","ep"],["\u0120t","ell"],["\u0120c","ook"],["\u0120vo","ice"],["\u0120a","m"],["it","c"],["\u0120n","ight"],["il","a"],["im","es"],["\u0120S","ue"],["\u0120p","ain"],["\u0120be","l"],["ir","ed"],["a","ched"],["\u0120Sp","ot"],["\u0120op","en"],["\u0120fa","v"],["\u0120p","a"],["\u0120but","ter"],["H","er"],["\u0120f","irst"],["\u0120help","ed"],["u","ll"],["\u0120fe","ll"],["S","ara"],["\u0120con","t"],["\u0120Mom","my"],["\u0120happ","ened"],["\u0120","z"],["\u0120T","h"],["\u0120le","a"],["J","o"],["\u0120th","ree"],["\u0120se","es"],["\u0120k","itc"],["\u0120kitc","hen"],["is","s"],["C","an"],["\u0120fi","re"],["\u0120pu","ll"],["\u0120fl","o"],["\u0120bird","s"],["\u0120b","us"],["\u0120gra","bbed"],["\u0120sw","eet"],["\u0120bl","ock"],["\u0120stor","y"],["A","fter"],["\u0120he","re"],["\u0120on","ly"],["\u0120k","id"],["\u0120d","r"],["un","ny"],["\u0120br","other"],["\u0120gl","ad"],["\u0120sa","nd"],["\u0120b","it"],["\u0120r","u"],["\u0120gra","ss"],["\u0120real","ized"],["pp","y"],["\u0120jump","ed"],["or","n"],["at","er"],["\u0120m","on"],["\u0120be","h"],["\u0120p","er"],["\u0120re","ached"],["\u0120st","op"],["\u0120dra","w"],["\u0120Every","one"],["\u0120c","ra"],["\u0120s","ing"],["in","s"],["\u0120m","ess"],["nt","s"],["z","y"],["\u0120c","r"],["\u0120ha","ving"],["\u0120b","a"],["\u0120D","o"],["\u0120re","st"],["\u0120thr","ough"],["u","ff"],["\u0120J","ane"],["\u0120t","ri"],["\u0120at","e"],["\u0120pr","in"],["is","y"],["\u0120so","ft"],["\u0120A","s"],["\u0120re","ady"],["\u0120l","ess"],["\u0120p","ap"],["\u0120y","ummy"],["w","here"],["\u0120wor","ld"],["'","re"],["\u0120g","ame"],["ak","es"],["\u0120h","at"],["\u0120L","et"],["\u0120fi","x"],["\u0120p","are"],["\u0120re","ally"],["\u0120l","ady"],["\u0120shout","ed"],["\u0120be","gan"],["\u0120fav","or"],["\u0120him","self"],["\u0120under","st"],["\u0120favor","ite"],["\u0120t","ired"],["\u0120c","ut"],["\u0120Sara","h"],["\u0120m","um"],["fu","lly"],["\u0120mag","ic"],["\u0120pret","end"],["k","en"],["\u0120u","sed"],["\u0120d","uck"],["at","her"],["\u0120ta","st"],["s","h"],["\u0120d","one"],["\u0120th","ing"],["\u0120com","ing"],["\u0120cat","ch"],["ig","n"],["\u0120ma","king"],["ill","ed"],["\u0120butter","f"],["\u0120wor","ry"],["\u0120nam","e"],["\u0120C","an"],["\u0120kid","s"],["\u0120fun","ny"],["\u0120p","us"],["\u0120se","en"],["ed","dy"],["W","ow"],["\u0120po","nd"],["st","er"],["\u0120st","e"],["\u0120look","s"],["A","s"],["o","lly"],["\u0120f","ro"],["\u0120T","hat"],["\u0120an","other"],["\u0120c","ried"],["\u0120car","s"],["\u0120wh","y"],["i","ent"],["a","ir"],["\u0120to","p"],["Tim","my"],["\u0120wa","ved"],["\u0120p","rom"],["\u0120b","unny"],["Mom","my"],["\u0120b","ag"],["\u0120flow","er"],["\u0120p","art"],["\u0120pare","nts"],["\u0120ha","ir"],["\u0120to","uch"],["ard","s"],["b","o"],["\u0120g","i"],["\u0120l","ight"],["\u0120pap","er"],["\u0120d","in"],["\u0120c","ool"],["\u0120gre","en"],["D","on"],["\u0120del","ic"],["\u0120d","ri"],["\u0120less","on"],["\u0120d","ro"],["\u0120sw","im"],["\u0120Jo","hn"],["\u0120ho","le"],["i","ver"],["\u0120Jo","e"],["\u0120tre","es"],["\u0120surpr","ise"],["\u0120yell","ow"],["\u0120flo","or"],["\u0120ho","ld"],["\u0120beh","ind"],["h","y"],["el","y"],["one","y"],["\u0120remember","ed"],["\u0120f","ull"],["u","ed"],["\u0120ho","pped"],["m","er"],["\u0120wor","ked"],["\u0120than","k"],["\u0120run","ning"],["re","l"],["at","ion"],["\u0120s","leep"],["and","y"],["ss","ed"],["\u0120w","ished"],["\u0120sp","ot"],["\u0120sm","ell"],["\u0120s","et"],["i","ke"],["\u0120happ","ily"],["\u0120co","ld"],["\u0120block","s"],["\u0120lo","st"],["\u0120s","at"],["a","isy"],["\u0120re","ad"],["\u0120m","ouse"],["\u0120we","ar"],["\u0120d","ark"],["\u0120dre","am"],["\u0120do","ing"],["\u0120need","ed"],["\u0120b","ow"],["\u0120sl","ow"],["\u0120st","re"],["\u0120w","ood"],["re","n"],["\u0120laug","h"],["\u0120care","fully"],["\u0120","-"],["\u0120cl","a"],["S","am"],["\u0120t","all"],["\u0120sh","o"],["\u0120ye","ars"],["\u0120le","ft"],["\u0120butterf","ly"],["\u0120li","kes"],["\u0120surpr","ised"],["\u0120fro","g"],["\u0120wind","ow"],["\u0120h","ill"],["\u0120sw","ing"],["\u0120enjoy","ed"],["\u0120he","ld"],["\u0120fin","ished"],["u","it"],["\u0120mo","ve"],["\"","."],["\u0120he","ar"],["\u0120sn","ow"],["\u0120A","fter"],["Jo","hn"],["\u0120wr","ong"],["\u0120bu","y"],["\u0120","ice"],["en","s"],["in","ed"],["\u0120per","f"],["\u0120li","on"],["\u0120a","ir"],["\u0120ar","ri"],["\u0120follow","ed"],["in","ally"],["u","l"],["\u0120her","self"],["\u0120Ben","ny"],["\u0120fa","ir"],["\u0120h","id"],["\u0120I","n"],["\u0120any","thing"],["\u0120clo","se"],["\u0120cont","in"],["H","ell"],["Hell","o"],["\u0120h","un"],["\u0120d","ir"],["\u0120child","ren"],["\u0120b","ug"],["\u0120re","l"],["\u0120friend","ly"],["\u0120ta","ble"],["c","ess"],["\u0120c","ast"],["as","ure"],["\u0120bu","ild"],["\u0120wonder","ful"],["\u0120forg","ot"],["\u0120a","rm"],["\u0120S","ally"],["\u0120arri","ved"],["\u0120m","ight"],["\u0120ag","re"],["\u0120underst","and"],["d","s"],["ie","ld"],["\u0120delic","ious"],["\u0120e","l"],["\u0120t","ight"],["\u0120h","ot"],["\u0120color","s"],["\u0120p","lease"],["\u0120some","one"],["\u0120gra","ndma"],["n","er"],["\u0120s","ong"],["\u0120book","s"],["\u0120f","illed"],["\u0120g","one"],["\u0120c","ount"],["The","n"],["\u0120contin","ued"],["\u0120bro","ken"],["\u0120a","ble"],["\u0120lea","ves"],["\u0120sc","re"],["\u0120g","ent"],["\u0120N","ow"],["\u0120el","se"],["a","v"],["\u0120cre","at"],["as","k"],["\u0120want","s"],["\u0120The","re"],["\u0120v","is"],["s","p"],["\u0120ba","by"],["\u0120L","ila"],["\u0120wa","ll"],["\u0120E","m"],["F","rom"],["l","f"],["e","y"],["\u0120y","es"],["at","ter"],["uff","y"],["\u0120p","ink"],["ro","om"],["\u0120bre","ak"],["m","an"],["\u0120po","in"],["i","ch"],["\u0120amaz","ing"],["g","on"],["J","ack"],["\u0120D","aisy"],["'","ll"],["\u0120get","ting"],["ri","es"],["\u0120en","ough"],["\u0120m","ar"],["\u0120picture","s"],["\u0120M","aybe"],["\u0120f","ight"],["!","\u00e2\u0122\u013f"],["ic","y"],["O","K"],["r","ow"],["\u0120agre","ed"],["ou","p"],["\u0120com","p"],["\u0120wh","ite"],["\u0120stay","ed"],["\u0120cast","le"],["\u0120mom","ent"],["\u0120mu","s"],["ro","ss"],["\u0120mor","ning"],["\u0120din","ner"],["\u0120m","other"],["ir","rel"],["c","ed"],["\u0120f","all"],["as","h"],["\u0120cook","ies"],["\u0120sc","ary"],["\u0120try","ing"],["\u0120","K"],["\u0120f","ur"],["\u0120sa","il"],["\u0120fin","ally"],["\u0120somet","imes"],["\u0120climb","ed"],["\u0120w","et"],["\u0120p","i"],["\u0120j","u"],["\u0120tal","k"],["en","ce"],["\u0120smil","es"],["\u0120other","s"],["ct","or"],["\u0120hun","gry"],["on","s"],["\u0120squ","irrel"],["\u0120cl","ot"],["\u0120m","et"],["\u0120clot","hes"],["A","t"],["\u0120br","ought"],["am","a"],[".","\u00e2\u0122\u013f"],["is","ter"],["r","ed"],["o","om"],["\u0120ro","ll"],["\u0120Th","is"],["\u0120perf","ect"],["\u0120turn","ed"],["l","c"],["\u0120fe","w"],["\u0120m","akes"],["\u0120cre","am"],["Th","is"],["\u0120B","illy"],["\u0120list","ened"],["\u0120dad","dy"],["or","ing"],["e","e"],["\u0120str","ange"],["\u0120every","thing"],["\u0120was","n"],["r","ot"],["an","ce"],["\u0120sp","l"],["\u0120ta","il"],["\u0120ball","oon"],["\u0120se","ar"],["\u0120po","l"],["\u0120jo","y"],["\u0120be","ach"],["\u0120pu","ppy"],["at","ed"],["\u0120s","it"],["ow","er"],["H","is"],["\u0120wa","ited"],["d","er"],["z","z"],["\u0120sp","ark"],["\u0120J","en"],["\u0120r","ide"],["w","l"],["\u0120W","hat"],["\u0120th","re"],["\u0120amaz","ed"],["\u0120mus","ic"],["e","ver"],["\u0120G","ra"],["\u0120al","one"],["o","s"],["\u0120Tom","my"],["\u0120vis","it"],["pp","ing"],["am","p"],["\u0120s","illy"],["\u0120dan","ger"],["\u0120t","eddy"],["ke","y"],["\u0120wood","s"],["\u0120ask","s"],["ot","t"],["\u0120p","et"],["op","e"],["\u0120T","o"],["uck","y"],["\u0120de","ep"],["\u0120h","ide"],["et","er"],["an","g"],["\u0120gr","ow"],["\u0120le","ave"],["O","h"],["\u0120s","ister"],["\u0120s","ide"],["\u0120p","ie"],["am","ed"],["\u0120cl","oud"],["m","ed"],["\u0120l","ake"],["ug","g"],["\u0120fly","ing"],["\u0120pull","ed"],["M","ax"],["\u0120fo","x"],["\u0120p","at"],["\u0120prom","ised"],["am","es"],["\u0120F","l"],["\u0120tow","ards"],["i","x"],["\u0120s","ec"],["ec","es"],["g","g"],["m","e"],["\u0120dan","ce"],["is","es"],["\u0120pi","eces"],["\u0120f","ield"],["\u0120tre","asure"],["p","h"],["\u0120pl","an"],["M","aybe"],["ck","et"],["u","p"],["\u0120run","s"],["\u0120sh","ared"],["\u0120big","ger"],["\u0120","ve"],["ain","ed"],["\u0120think","s"],["\u0120w","on"],["\u0120e","m"],["th","y"],["\u0120mor","al"],["\u0120la","nd"],["\u0120tre","at"],["O","kay"],["\u0120li","ving"],["\u0120own","er"],["\u0120A","ll"],["\u0120br","an"],["\u0120p","en"],["\u0120gr","ate"],["\u0120b","ott"],["\u0120e","le"],["\u0120bl","ank"],["\u0120doll","s"],["\u0120sh","ar"],["av","y"],["ig","g"],["\u0120c","andy"],["\u0120g","u"],["\u0120part","y"],["\u0120every","where"],["\u0120slow","ly"],["s","et"],["\u0120cu","p"],["\u0120grate","ful"],["\u0120blank","et"],["\u0120b","ike"],["c","le"],["out","h"],["\u0120pain","t"],["\u0120bel","ie"],["\u0120s","uch"],["\u0120A","my"],["\u0120jo","b"],["\u0120wor","ried"],["\u0120jo","in"],["u","ally"],["\u0120we","lc"],["f","ort"],["\u0120m","outh"],["\u0120fast","er"],["s","w"],["re","t"],["\u0120pl","ant"],["i","et"],["l","ing"],["un","ch"],["\u0120sh","ap"],["\u0120bro","ke"],["\u0120m","oney"],["\u0120an","sw"],["\u0120g","if"],["\u0120re","ach"],["\u0120magic","al"],["i","re"],["\u0120sn","ack"],["\u0120b","ar"],["\u0120color","ful"],["\u0120ch","o"],["as","ed"],["id","ent"],["\u0120do","ctor"],["\u0120J","im"],["\u0120prin","cess"],["\u0120help","ing"],["\u0120r","iver"],["S","ure"],["\u0120dra","gon"],["\u0120ac","c"],["le","ss"],["\u0120cry","ing"],["\u0120n","ap"],["\u0120qu","iet"],["\u0120s","ign"],["\u0120r","ace"],["\u0120pr","o"],["i","pped"],["a","pp"],["z","e"],["or","m"],["\u0120bl","ack"],["\u0120mo","st"],["o","l"],["\u0120ste","pped"],["\u0120tra","in"],["\u0120danger","ous"],["\u0120at","t"],["\u0120sm","art"],["\u0120bow","l"],["\u0120he","avy"],["\u0120far","mer"],["\u0120m","ix"],["e","re"],["\u0120mon","ster"],["\u0120p","ot"],["or","ed"],["m","ing"],["\u0120j","e"],["b","ble"],["\u0120tw","ins"],["\u0120wor","ds"],["\u0120ac","ross"],["\u0120mu","st"],["\u0120dis","app"],["\u0120dir","ty"],["\u0120sa","me"],["\u0120J","ill"],["e","ar"],["\u0120st","uck"],["\u0120clo","sed"],["\u0120eat","ing"],["\u0120thre","w"],["\u0120fr","uit"],["\u0120M","olly"],["\u0120would","n"],["\u0120b","uck"],["\u0120M","r"],["\u0120tow","er"],["ck","ed"],["\u0120sp","r"],["\u0120h","ig"],["\u0120mon","key"],["\u0120car","rot"],["\u0120cr","ay"],["\u0120te","ac"],["\u0120acc","ident"],["W","hy"],["\u0120w","in"],["\u0120b","ath"],["\u0120he","al"],["e","ared"],["or","d"],["\u0120feel","s"],["it","ing"],["\u0120b","ite"],["ask","et"],["H","i"],["um","b"],["\u0120p","ast"],["\u0120but","t"],["\u0120pus","hed"],["ch","ool"],["\u0120to","wn"],["\u0120b","asket"],["\u0120he","art"],["b","r"],["\u0120hop","ed"],["\u0120with","out"],["\u0120co","ll"],["\u0120belie","ve"],["\u0120cla","pped"],["\u0120h","it"],["\u0120st","and"],["\u0120p","ers"],["\u0120p","ack"],["\u0120for","get"],["\u0120s","chool"],["M","ia"],["\u0120che","ered"],["\u0120fair","y"],["\u0120f","ence"],["\u0120be","e"],["\u0120sm","o"],["\u0120l","on"],["\u0120Fl","uffy"],["\u0120br","own"],["or","row"],["ph","ant"],["d","e"],["\u0120y","ard"],["\u0120ch","air"],["vent","ually"],["\u0120c","our"],["\u0120dro","ve"],["\u0120teac","her"],["\u0120no","ises"],["\u0120Dad","dy"],["i","er"],["\u0120hig","her"],["\u0120lon","ely"],["a","ss"],["\u0120adventure","s"],["ra","ct"],["\u0120to","day"],["\u0120c","a"],["n","ey"],["or","s"],["\u0120po","cket"],["\u0120ele","phant"],["\u0120up","set"],["ve","l"],["\u0120gent","le"],["\u0120long","er"],["\u0120turn","s"],["\u0120sw","ings"],["c","y"],["\u0120w","ings"],["F","inally"],["\u0120g","ames"],["\u0120welc","ome"],["h","o"],["\u0120f","ree"],["\u0120expl","ained"],["\u0120b","en"],["t","s"],["\u0120cour","se"],["\u0120s","uddenly"],["\u0120le","g"],["\u0120j","our"],["\u0120ne","ck"],["ount","ain"],["\u0120sec","ret"],["\u0120st","ar"],["L","ila"],["e","ad"],["\u0120br","ing"],["\u0120d","ry"],["is","sed"],["\u0120c","orn"],["\u0120s","oup"],["\u0120w","he"],["\u0120in","st"],["\u0120sh","op"],["\u0120happ","en"],["\u0120pl","ac"],["\u0120dro","pped"],["\u0120m","in"],["\u0120hug","s"],["\u0120ne","igh"],["\u0120thr","ow"],["y","ard"],["\u0120pie","ce"],["\u0120tr","ou"],["\u0120sw","am"],["\u0120sa","ng"],["\u0120stor","ies"],["us","h"],["i","ble"],["itt","ing"],["\u0120neigh","b"],["\u0120rock","s"],["\u0120back","yard"],["\u0120Em","ma"],["m","ent"],["\u0120w","ish"],["pp","er"],["w","eet"],["\u0120buck","et"],["e","k"],["\u0120app","le"],["\u0120o","wl"],["\u0120l","ate"],["\u0120we","ll"],["\u0120n","aught"],["\u0120p","h"],["\u0120ta","king"],["\u0120bel","ong"],["\u0120naught","y"],["c","hes"],["\u0120al","ong"],["\u0120or","ange"],["c","es"],["fu","sed"],["\u0120l","unch"],["ock","ed"],["\u0120dr","ink"],["un","g"],["\u0120expl","oring"],["\u0120c","ou"],["\u0120j","ar"],["\u0120se","a"],["\u0120ex","p"],["\u0120you","ng"],["b","ow"],["\u0120see","med"],["\u0120","es"],["\u0120sing","ing"],["ou","n"],["\u0120d","ist"],["\u0120sh","ook"],["\u0120near","by"],["\u0120p","ig"],["\u0120mo","ved"],["\u0120c","aught"],["\u0120wa","r"],["\u0120m","at"],["?","\u00e2\u0122\u013f"],["\u0120w","ise"],["\u0120sho","es"],["\u0120ke","y"],["a","il"],["\u0120st","ars"],["\u0120t","iny"],["\u0120wo","ke"],["\u0120to","m"],["\u0120th","ough"],["\u0120d","es"],["\u0120m","iss"],["\u0120a","f"],["\u0120Gra","ndma"],["ll","o"],["ver","ed"],["\u0120ma","il"],["D","o"],["ion","s"],["\u0120rel","ie"],["\u0120ben","ch"],["co","l"],["c","er"],["\u0120Th","ank"],["\u0120car","ry"],["ap","e"],["\u0120s","ick"],["\u0120s","u"],["\u0120re","sp"],["c","ing"],["\u0120shap","es"],["\u0120n","est"],["s","y"],["\u0120rain","bow"],["\u0120arm","s"],["\u0120bran","ch"],["\u0120k","ite"],["\u0120ju","ice"],["\u0120m","ine"],["id","ge"],["itt","ens"],["\u0120bus","y"],["aught","er"],["\u0120o","b"],["\u0120ta","kes"],["\u0120dri","ver"],["ra","id"],["w","ard"],["\u0120M","ary"],["\u0120af","raid"],["\u0120m","ad"],["it","ch"],["\u0120c","ir"],["\u0120wonder","ed"],["\u0120s","itting"],["in","ing"],["le","t"],["\u0120m","il"],["es","e"],["ck","s"],["\u0120dis","co"],["\u0120c","ow"],["A","nd"],["\u0120m","ark"],["\u0120com","es"],["\u0120stre","et"],["\u0120","3"],["\u0120in","v"],["\u0120r","ound"],["\u0120k","ing"],["\u0120ye","ar"],["\u0120fore","ver"],["\u0120pe","ace"],["\u0120no","se"],["\u0120accident","ally"],["\u0120far","m"],["\u0120wh","ist"],["\u0120b","and"],["st","ing"],["\u0120d","aughter"],["\u0120li","ft"],["\u0120sound","s"],["L","ater"],["\u0120gif","t"],["\u0120st","u"],["bb","y"],["\u0120e","gg"],["\u0120cut","e"],["t","o"],["\u0120F","inally"],["th","day"],["it","y"],["\u0120exc","iting"],["\u0120w","ra"],["ad","ow"],["b","all"],["\u0120p","urp"],["\u0120co","zy"],["\u0120relie","ved"],["\u0120f","it"],["\u0120l","etter"],["\u0120In","side"],["\u0120b","oun"],["\u0120co","at"],["\u0120not","hing"],["our","s"],["\u0120int","ere"],["\u0120laug","hing"],["\u0120hug","e"],["\u0120pat","ient"],["\u0120he","llo"],["\u0120p","ower"],["\u0120hold","ing"],["\u0120jour","ney"],["\u0120m","ist"],["O","f"],["sh","ine"],["\u0120day","s"],["\u0120sp","oon"],["\u0120im","ag"],["\u0120swim","ming"],["\u0120mil","k"],["\u0120So","on"],["\u0120g","igg"],["itt","en"],["ir","t"],["\u0120li","fe"],["\u0120sun","shine"],["\u0120purp","le"],["\u0120com","fort"],["u","ched"],["\u0120to","uched"],["\u0120T","weet"],["\u0120l","ater"],["\u0120f","ing"],["\u0120C","ome"],["\u0120a","ct"],["\u0120M","ama"],["\u0120inst","ead"],["g","ged"],["\u0120bir","thday"],["f","ish"],["\u0120","O"],["et","h"],["\u0120che","ese"],["\u0120in","c"],["\u0120re","t"],["\u0120ro","ad"],["\u0120f","an"],["\u0120sun","ny"],["p","ed"],["al","m"],["\u0120e","ar"],["\u0120poin","ted"],["u","nt"],["\u0120gi","ves"],["\u0120sear","ched"],["n","ess"],["\u0120b","ought"],["\u0120any","one"],["\u0120pre","s"],["\u0120bott","le"],["\u0120on","to"],["\u0120bre","ad"],["\u0120ret","urn"],["bo","ard"],["\u0120stor","m"],["iz","e"],["s","c"],["\u0120l","ucky"],["\u0120hop","e"],["\u0120duck","s"],["\u0120creat","ure"],["o","se"],["\u0120c","ave"],["\u0120pl","ane"],["\u0120Sam","my"],["\u0120tast","y"],["\u0120gra","b"],["\u0120watch","ing"],["\u0120smil","ing"],["He","y"],["\u0120c","e"],["ble","m"],["\u0120p","udd"],["\u0120r","ope"],["\u0120pro","blem"],["nd","p"],["\u0120k","ick"],["\u0120sp","o"],["a","ur"],["\u0120cray","ons"],["\u0120e","as"],["\u0120she","ll"],["\u0120pers","on"],["o","nd"],["\u0120sp","id"],["\u0120me","et"],["\u0120prom","ise"],["\u0120shar","p"],["el","s"],["\u0120snow","man"],["\u0120intere","sting"],["\u0120dan","ced"],["\u0120pu","zz"],["\u0120h","oney"],["t","en"],["ep","end"],["\u0120butt","on"],["\u0120tal","ked"],["\u0120coll","ect"],["\u0120qu","est"],["\u0120sand","w"],["o","ve"],["\u0120z","oom"],["o","g"],["\u0120w","ide"],["B","ob"],["omet","imes"],["\u0120trou","ble"],["\u0120pres","ent"],["\u0120c","ard"],["\u0120k","iss"],["\u0120smell","ed"],["\u0120love","ly"],["\u0120a","p"],["itt","y"],["\u0120Jim","my"],["\u0120sp","in"],["\u0120ad","m"],["\u0120app","les"],["\u0120","ent"],["\u0120bus","h"],["\u0120gi","ant"],["\u0120wr","ite"],["\u0120p","ract"],["\u0120heal","thy"],["\u0120sh","ining"],["\u0120p","ar"],["\u0120p","ill"],["\u0120g","ather"],["on","t"],["\u0120cloud","s"],["iz","z"],["\u0120roll","ed"],["um","ber"],["\u0120che","er"],["Tom","my"],["\u0120plac","es"],["\u0120p","ath"],["is","a"],["G","ood"],["\u0120sa","f"],["ndp","a"],["ll","a"],["ow","ed"],["\u0120fr","ont"],["u","b"],["\u0120put","s"],["\u0120wh","ich"],["\u0120lo","ves"],["\u0120v","ill"],["\u0120spot","ted"],["\u0120s","ur"],["\u0120t","un"],["\u0120fe","ather"],["\u0120imp","re"],["\u0120wor","m"],["\u0120h","on"],["\u0120sh","r"],["\u0120cle","ver"],["b","ar"],["\u0120my","ster"],["\u0120or","gan"],["\u0120w","ild"],["\u0120l","ay"],["\u0120m","atter"],["\u0120tast","ed"],["\u0120d","i"],["\u0120e","ag"],["\u0120M","ittens"],["\u0120pr","ot"],["\u0120z","oo"],["\u0120b","ark"],["e","en"],["\u0120m","ed"],["\u0120tri","p"],["\u0120cou","ch"],["\u0120p","op"],["\u0120th","in"],["\u0120resp","ect"],["L","ucy"],["\u0120h","or"],["\u0120s","uc"],["er","ly"],["\u0120sear","ch"],["\u0120prot","ect"],["\u0120as","leep"],["\u0120who","le"],["\u0120p","ile"],["\u0120fo","ot"],["S","t"],["\u0120sp","ent"],["ul","ar"],["\u0120dir","t"],["\u0120build","ing"],["ce","an"],["\u0120o","cean"],["\u0120kne","e"],["\u0120l","ad"],["bar","ra"],["\u0120m","ountain"],["\u0120go","es"],["\u0120wear","ing"],["\u0120em","barra"],["\u0120spid","er"],["n","ic"],["\u0120W","ith"],["\u0120pretend","ed"],["e","b"],["\u0120co","in"],["E","very"],["l","a"],["\u0120pic","nic"],["\u0120scre","amed"],["\u0120sl","id"],["\u0120ph","one"],["\u0120sa","ck"],["\u0120fa","ces"],["\u0120te","ach"],["h","ile"],["\u0120se","at"],["\u0120sn","ake"],["\u0120app","eared"],["J","im"],["\u0120con","fused"],["\u0120answ","er"],["\u0120tal","king"],["C","ome"],["\u0120p","an"],["le","x"],["\u0120gent","ly"],["\u0120sa","l"],["\u0120fur","ry"],["if","e"],["e","x"],["\u0120m","ind"],["oo","se"],["\u0120mu","d"],["\u0120pa","ss"],["\u0120dri","ve"],["\u0120help","ful"],["\u0120lad","der"],["\u0120","ign"],["\u0120su","pp"],["\u0120s","er"],["ar","ge"],["\u0120w","om"],["\u0120o","ven"],["\u0120re","c"],["\u0120pus","h"],["\u0120wom","an"],["\u0120c","art"],["\u0120corn","er"],["I","n"],["\u0120when","ever"],["\u0120v","al"],["\u0120spl","as"],["M","olly"],["\u0120c","alm"],["\u0120la","st"],["\u0120cho","col"],["\u0120b","an"],["\u0120H","ow"],["un","k"],["\u0120G","o"],["J","ust"],["\u0120b","lew"],["\u0120m","ach"],["\u0120neighb","or"],["a","le"],["\u0120S","ometimes"],["re","ad"],["\u0120too","l"],["\u0120fix","ed"],["\u0120fight","ing"],["er","t"],["\u0120r","ing"],["\u0120min","ut"],["\u0120wait","ing"],["\u0120t","id"],["\u0120forg","ive"],["bble","s"],["\u0120wa","ve"],["\u0120A","l"],["\u0120fin","ish"],["\u0120sp","icy"],["\u0120fe","et"],["\u0120del","ight"],["\u0120sp","read"],["\u0120as","h"],["\u0120e","ventually"],["\u0120li","ve"],["\u0120tast","e"],["\u0120embarra","ssed"],["\u0120p","our"],["\u0120te","eth"],["\u0120tom","orrow"],["\u0120hor","se"],["S","oon"],["\u0120rem","ind"],["M","um"],["\u0120be","ll"],["\u0120sc","ar"],["\u0120cook","ie"],["\u0120smo","oth"],["on","es"],["m","o"],["\u0120a","nt"],["\u0120Em","ily"],["\u0120l","arge"],["\u0120cl","oth"],["op","h"],["\u0120chocol","ate"],["\u0120sh","y"],["\u0120fo","ld"],["\u0120col","our"],["\u0120rock","et"],["\u0120tri","es"],["\u0120Jen","ny"],["o","ld"],["\u0120sh","irt"],["\u0120C","h"],["\u0120te","a"],["\u0120song","s"],["\u0120hid","ing"],["nn","y"],["\u0120neck","l"],["\u0120ban","an"],["\u0120st","ep"],["\u0120pa","w"],["\u0120spr","ay"],["\u0120k","itten"],["\u0120p","ool"],["ur","se"],["\u0120sp","e"],["\u0120ro","b"],["\u0120h","um"],["\u0120p","le"],["\u0120was","h"],["\u0120can","n"],["get","able"],["\u0120em","p"],["\u0120ve","getable"],["ung","le"],["h","nny"],["\u0120p","izz"],["\u0120j","ungle"],["\u0120bug","s"],["\u0120creat","ive"],["\u0120vill","age"],["\u0120emp","ty"],["le","br"],["\u0120tid","y"],["\u0120S","t"],["\u0120gre","w"],["\u0120tight","ly"],["\u0120cann","ot"],["al","s"],["d","ge"],["\u0120re","p"],["\u0120whist","le"],["\u0120kn","ocked"],["ump","y"],["\u0120ce","lebr"],["\u0120so","l"],["\u0120c","oo"],["at","o"],["\u0120tr","ust"],["M","y"],["\u0120T","V"],["\u0120ch","ick"],["\u0120w","ore"],["\u0120ru","de"],["\u0120h","ar"],["d","en"],["\u0120S","ome"],["\u0120bar","ked"],["\u0120peace","ful"],["\u0120rob","ot"],["\u0120w","ip"],["air","s"],["\u0120spark","ly"],["N","ow"],["\u0120ch","ased"],["g","round"],["\u0120he","ars"],["\u0120Every","where"],["\u0120pudd","le"],["ig","hed"],["\u0120stre","t"],["\u0120neckl","ace"],["\u0120s","el"],["\u0120P","lease"],["\u0120pizz","a"],["\u0120n","et"],["\u0120st","ir"],["\u0120L","e"],["n","ed"],["\u0120b","al"],["er","a"],["\u0120m","aybe"],["\u0120p","in"],["\u0120g","un"],["\u0120me","ant"],["\u0120mo","on"],["\u0120sa","ve"],["\u0120st","ra"],["\u0120puzz","le"],["\u0120J","ust"],["i","an"],["\u0120hid","den"],["\u0120","On"],["\u0120g","en"],["\u0120me","adow"],["\u0120treat","s"],["\u0120carrot","s"],["l","ower"],["in","ted"],["bo","x"],["\u0120stick","s"],["\u0120snack","s"],["d","le"],["\u0120for","ward"],["\u0120m","ot"],["\u0120The","ir"],["\u0120car","ried"],["ust","r"],["ul","t"],["\u0120a","v"],["\u0120fl","ut"],["\u0120gr","oup"],["\u0120tell","s"],["g","ly"],["\u0120se","ed"],["\u0120s","our"],["\u0120m","issed"],["\u0120cra","b"],["\u0120prin","ce"],["\u0120spl","ash"],["\u0120mach","ine"],["\u0120sel","fish"],["\u0120b","er"],["\u0120J","ake"],["\u0120cle","ar"],["\u0120","'"],["\u0120jump","ing"],["\u0120disapp","o"],["\u0120b","at"],["\u0120she","lf"],["\u0120str","ing"],["ir","d"],["\u0120u","gly"],["\u0120go","ld"],["au","l"],["ell","y"],["D","ad"],["\u0120le","m"],["\u0120lea","f"],["\u0120fr","ustr"],["\u0120T","eddy"],["ig","er"],["\u0120yell","ed"],["\u0120pol","ice"],["\u0120b","urn"],["\u0120st","ood"],["\u0120know","ing"],["\u0120L","isa"],["mo","st"],["\u0120ro","ar"],["P","lease"],["k","in"],["y","ing"],["at","or"],["\u0120gr","ay"],["\u0120land","ed"],["\u0120leg","s"],["itt","er"],["\u0120shar","ing"],["\u0120cir","c"],["\u0120hon","est"],["\u0120p","ir"],["\u0120st","one"],["\u0120wh","is"],["\u0120M","um"],["\u0120stand","ing"],["eter","m"],["h","in"],["\u0120d","eterm"],["\u0120bl","ow"],["\u0120al","most"],["\u0120pl","ate"],["\u0120W","hy"],["\u0120dre","w"],["\u0120To","gether"],["\u0120bre","ath"],["\u0120no","ds"],["\u0120g","ar"],["\u0120frustr","ated"],["\u0120fan","cy"],["v","ous"],["it","al"],["\u0120disappo","inted"],["if","f"],["\u0120sleep","y"],["St","op"],["a","king"],["\u0120t","est"],["\u0120see","k"],["\u0120the","se"],["\u0120n","umber"],["or","ry"],["T","o"],["M","ama"],["u","ce"],["The","re"],["\u0120fe","ed"],["\u0120scre","am"],["\u0120myster","ious"],["\u0120fe","ar"],["\u0120mat","ch"],["\u0120pill","ow"],["B","e"],["\u0120ho","sp"],["\u0120power","ful"],["s","er"],["\u0120h","ours"],["\u0120pol","ite"],["\u0120gen","er"],["\u0120B","r"],["\u0120A","nn"],["\u0120hosp","ital"],["\u0120dec","or"],["\u0120f","il"],["p","ack"],["\u0120c","ro"],["\u0120ash","amed"],["\u0120l","ine"],["\u0120g","as"],["\u0120E","ven"],["\u0120plant","s"],["\u0120je","w"],["\u0120return","ed"],["f","fe"],["\u0120med","ic"],["\u0120c","ries"],["\u0120P","eter"],["ot","e"],["\u0120n","er"],["\u0120re","g"],["iss","ors"],["u","al"],["\u0120whis","p"],["\u0120she","ep"],["\u0120sc","issors"],["eci","ally"],["\u0120D","on"],["iz","zy"],["\u0120underst","ood"],["et","s"],["\u0120tw","irl"],["\u0120medic","ine"],["\u0120ner","vous"],["s","ist"],["\u0120sh","ore"],["\u0120spo","il"],["on","y"],["\u0120pack","ed"],["\u0120vegetable","s"],["ens","ive"],["\u0120scar","f"],["\u0120B","e"],["\u0120dan","cing"],["\u0120exp","ensive"],["\u0120b","ored"],["os","aur"],["\u0120p","ay"],["\u0120pa","ssed"],["p","ecially"],["\u0120sandw","ich"],["\u0120es","pecially"],["\u0120n","ut"],["\u0120v","an"],["\u0120po","or"],["\u0120ta","ught"],["\u0120gr","umpy"],["\u0120sa","ved"],["\u0120gar","age"],["us","ie"],["\u0120ta","ken"],["l","ight"],["in","a"],["\u0120bec","ome"],["\u0120clos","et"],["\u0120ru","ined"],["\u0120he","l"],["\u0120m","ummy"],["\u0120dr","um"],["\u0120mess","y"],["'","d"],["\u0120sc","r"],["\u0120comfort","able"],["\u0120fing","er"],["\u0120p","ri"],["\u0120g","ate"],["\u0120cla","ss"],["\u0120f","ill"],["\u0120bed","room"],["\u0120c","and"],["id","dle"],["\u0120R","ex"],["\u0120din","osaur"],["\u0120c","ri"],["\u0120so","ld"],["\u0120eas","y"],["\u0120ple","ased"],["\u0120gener","ous"],["oo","p"],["\u0120ex","am"],["J","ane"],["y","m"],["an","o"],["\u0120suc","cess"],["\u0120w","is"],["\u0120f","ig"],["\u0120as","king"],["\u0120your","self"],["\u0120determ","ined"],["\u0120wor","king"],["im","p"],["\u0120sh","ip"],["\u0120pr","ay"],["\u0120gl","ue"],["\u0120ho","pping"],["Jim","my"],["\u0120on","es"],["\u0120sail","ed"],["\u0120gigg","led"],["\u0120b","oring"],["\u0120Jo","hnny"],["\u0120Le","o"],["W","here"],["\u0120h","ur"],["\u0120st","uff"],["\u0120gl","ass"],["\u0120of","ten"],["\u0120k","issed"],["\u0120v","ase"],["\u0120ball","s"],["\u0120mist","ake"],["\u0120wa","gged"],["at","es"],["\u0120K","itty"],["\u0120minut","es"],["\u0120","OK"],["\u0120d","est"],["\u0120br","ush"],["\u0120tr","ue"],["\u0120s","ighed"],["\u0120exc","ite"],["\u0120mot","or"],["er","p"],["\u0120play","ground"],["\u0120whe","el"],["\u0120es","c"],["\u0120boy","s"],["\u0120mo","v"],["\u0120dr","op"],["\u0120che","w"],["\u0120answ","ered"],["\u0120wa","ves"],["\u0120we","ak"],["ill","i"],["\u0120sp","end"],["\u0120le","ad"],["\u0120gather","ed"],["in","ess"],["\u0120thank","ful"],["\u0120che","st"],["\u0120te","ars"],["Sara","h"],["\u0120mar","ch"],["\u0120f","ake"],["\u0120r","ad"],["\u0120","Z"],["\u0120t","ick"],["\u0120m","iddle"],["\u0120j","elly"],["m","b"],["\u0120ha","ng"],["\u0120e","ld"],["sel","ves"],["\u0120cont","ent"],["a","pped"],["\u0120te","am"],["\u0120cl","own"],["\u0120get","s"],["\u0120sk","ipped"],["\u0120lem","on"],["\u0120excite","ment"],["\u0120c","ap"],["ot","s"],["us","hed"],["\u0120egg","s"],["W","ho"],["\u0120lo","ck"],["\u0120ch","ange"],["\u0120quest","ions"],["ar","l"],["\u0120fl","ag"],["i","pp"],["\u0120wr","ote"],["\u0120smell","y"],["\u0120l","it"],["\u0120fr","idge"],["\u0120draw","ing"],["\u0120rel","ax"],["\u0120disco","vered"],["\u0120s","il"],["ag","ed"],["\u0120a","dd"],["ll","ie"],["\u0120r","id"],["oo","f"],["\u0120fruit","s"],["S","orry"],["\u0120t","ent"],["\u0120s","ight"],["\u0120br","idge"],["\u0120la","zy"],["et","e"],["\u0120B","l"],["\u0120m","ir"],["The","ir"],["\u0120bo","ard"],["\u0120bath","room"],["\u0120dog","s"],["J","ill"],["\u0120cl","ap"],["\u0120co","vered"],["qu","e"],["\u0120show","s"],["A","re"],["\u0120fl","uffy"],["\u0120qu","een"],["\u0120wo","lf"],["\u0120might","y"],["\u0120t","ag"],["\u0120m","ic"],["\u0120kn","ight"],["\u0120kn","ife"],["\u0120Br","own"],["\u0120b","ake"],["or","k"],["ce","pt"],["\u0120pick","s"],["\u0120che","ck"],["\u0120fam","ous"],["\u0120disapp","eared"],["\u0120de","er"],["\u0120sweet","ie"],["\u0120dr","ank"],["\u0120an","g"],["\u0120no","d"],["ell","a"],["\u0120dist","ance"],["i","pper"],["r","or"],["\u0120bo","ss"],["\u0120or","d"],["\u0120tow","el"],["\u0120l","ying"],["\u0120so","ap"],["\u0120A","t"],["\u0120cat","erp"],["\u0120walk","s"],["\u0120cr","own"],["\u0120caterp","ill"],["M","e"],["us","ual"],["\u0120un","usual"],["\u0120call","ing"],["\u0120eag","er"],["\u0120eld","erly"],["\u0120b","one"],["\u0120f","re"],["\u0120mo","ving"],["t","i"],["\u0120wa","nder"],["\u0120f","is"],["\u0120","ind"],["\u0120dec","ide"],["\u0120","ed"],["\u0120m","ap"],["\u0120I","f"],["\u0120se","ll"],["\u0120sho","ot"],["o","bby"],["at","ing"],["\u0120b","orrow"],["\u0120st","ones"],["\u0120lo","se"],["\u0120splas","hed"],["in","ation"],["\u0120d","ig"],["el","p"],["\u0120co","ver"],["bo","dy"],["\u0120we","ek"],["\u0120clean","ed"],["\u0120d","ish"],["\u0120E","nd"],["\u0120feather","s"],["\u0120cra","wl"],["umb","led"],["S","ally"],["\u0120c","am"],["art","h"],["\u0120gl","ow"],["w","ork"],["\u0120c","age"],["\u0120inc","red"],["\u0120h","unt"],["\u0120f","ather"],["\u0120off","ered"],["\u0120c","her"],["\u0120br","illi"],["\u0120banan","a"],["\u0120caterpill","ar"],["as","ing"],["\u0120ju","icy"],["im","ed"],["al","ous"],["\u0120your","s"],["\u0120kind","ness"],["\u0120co","ins"],["\u0120ey","e"],["\u0120je","alous"],["\u0120bran","ches"],["\u0120brilli","ant"],["\u0120co","st"],["\u0120mir","ror"],["\u0120t","ape"],["\u0120bo","dy"],["\u0120l","amp"],["\u0120bott","om"],["\u0120organ","ized"],["\u0120r","are"],["\u0120t","ie"],["\u0120cra","w"],["f","ast"],["\u0120","No"],["\u0120h","orn"],["\u0120th","ick"],["\u0120hurt","s"],["\u0120craw","led"],["en","ny"],["\u0120tun","n"],["p","ort"],["\u0120d","epend"],["\u0120colour","ful"],["\u0120to","ug"],["\u0120me","asure"],["\u0120bu","bbles"],["\u0120impre","ssed"],["\u0120bal","ance"],["H","elp"],["\u0120on","ce"],["\u0120ex","t"],["\u0120break","fast"],["ug","ar"],["\u0120incred","ible"],["\u0120her","o"],["\u0120r","ough"],["\u0120li","cked"],["\u0120tw","ist"],["\u0120f","ine"],["\u0120f","ool"],["\u0120fav","our"],["ol","og"],["\u0120wa","gon"],["\u0120li","br"],["\u0120truck","s"],["\u0120c","ross"],["\u0120man","aged"],["\u0120jo","ke"],["a","ppy"],["?\"","."],["\u0120advent","ur"],["\u0120real","ised"],["\u0120smo","ke"],["\u0120happen","ing"],["b","in"],["\u0120ca","bin"],["\u0120t","iger"],["\u0120s","ugar"],["il","t"],["am","ond"],["\u0120fl","ash"],["\u0120wra","pped"],["\u0120ap","olog"],["\u0120favour","ite"],["M","ummy"],["\u0120b","itter"],["\u0120box","es"],["\u0120toug","h"],["H","ow"],["\u0120a","w"],["\u0120adventur","ous"],["ra","g"],["h","ip"],["\u0120no","isy"],["\u0120jo","g"],["\u0120fall","s"],["\u0120flut","e"],["\u0120Bl","ue"],["\u0120a","dded"],["\u0120s","ugg"],["\u0120j","am"],["\u0120ch","ase"],["\u0120har","m"],["\u0120sugg","est"],["\u0120o","k"],["\u0120S","usie"],["ke","ep"],["\u0120circ","les"],["S","p"],["\u0120m","elt"],["ur","ed"],["\u0120tr","unk"],["\u0120sun","f"],["\u0120di","amond"],["\u0120rec","ord"],["\u0120mix","ed"],["A","l"],["\u0120d","izzy"],["\u0120loud","er"],["\u0120fool","ish"],["at","ely"],["\u0120ac","cept"],["\u0120mark","et"],["\u0120saf","ely"],["\u0120wa","nd"],["\u0120lo","g"],["\u0120need","s"],["\u0120gu","ess"],["\u0120ext","ra"],["l","and"],["y","al"],["ed","ient"],["or","y"],["\u0120wor","d"],["\u0120ar","g"],["\u0120poin","ting"],["\u0120lift","ed"],["l","ies"],["er","y"],["\u0120M","ark"],["\u0120wra","p"],["\u0120cheer","ful"],["\u0120t","er"],["\u0120S","n"],["\u0120sh","ark"],["\u0120p","il"],["\u0120p","ump"],["\u0120e","ars"],["\u0120again","st"],["ugg","led"],["\u0120depend","able"],["\u0120j","ack"],["\u0120gr","own"],["\u0120ber","ries"],["\u0120fig","ure"],["\u0120t","urt"],["\u0120mom","s"],["\u0120gra","ndpa"],["\u0120pe","e"],["\u0120dream","ed"],["\u0120jew","el"],["S","ue"],["\u0120ha","m"],["ir","a"],["\u0120gi","ving"],["W","ell"],["\u0120we","al"],["\u0120gra","ce"],["\u0120fr","own"],["i","que"],["\u0120sw","an"],["\u0120learn","ing"],["\u0120tw","ig"],["\u0120bag","s"],["\u0120strong","er"],["\u0120balloon","s"],["\u0120belong","ed"],["\u0120cam","era"],["G","ra"],["o","ppy"],["he","ad"],["\u0120mag","n"],["om","ed"],["\u0120do","lp"],["\u0120un","ique"],["\u0120enjoy","ing"],["\u0120dream","s"],["\u0120ed","ge"],["\u0120loud","ly"],["\u0120mov","ie"],["\u0120y","arn"],["\u0120ch","oose"],["\u0120E","lla"],[",","\u00e2\u0122\u013f"],["f","ic"],["ra","ge"],["\u0120lo","yal"],["\u0120sw","ord"],["\u0120sl","ipped"],["em","o"],["\u0120squ","ee"],["\u0120hat","s"],["\u0120ob","edient"],["an","ged"],["\u0120happ","iness"],["\u0120sh","ake"],["\u0120mo","d"],["\u0120sp","un"],["ia","ble"],["la","imed"],["B","illy"],["\u0120mar","ble"],["\u0120Mr","s"],["an","ut"],["\u0120exc","laimed"],["\u0120laugh","s"],["\u0120wall","s"],["re","ady"],["\u0120tool","s"],["i","v"],["\u0120le","an"],["\u0120bu","ll"],["\u0120te","le"],["\u0120rel","iable"],["u","nd"],["\u0120f","our"],["\u0120r","ich"],["\u0120F","red"],["\u0120dif","fic"],["e","xt"],["at","ure"],["\u0120clean","ing"],["\u0120ter","ri"],["\u0120al","ready"],["\u0120un","l"],["\u0120use","ful"],["\u0120ang","el"],["g","y"],["o","ot"],["\u0120cl","ay"],["\u0120mean","s"],["\u0120cray","on"],["\u0120M","y"],["\u0120go","at"],["ip","e"],["\u0120us","ing"],["\u0120pain","ting"],["\u0120butt","ons"],["keep","er"],["\u0120L","ittle"],["He","re"],["\u0120b","arn"],["ent","ion"],["ag","es"],["\u0120stra","w"],["\u0120comp","et"],["umb","ers"],["\u0120diffic","ult"],["\u0120bl","oom"],["\u0120thought","ful"],["\u0120stu","bb"],["\u0120tunn","el"],["\u0120t","ank"],["\u0120help","s"],["\u0120sc","are"],["\u0120cir","cle"],["\u0120ind","epend"],["c","il"],["\u0120n","orm"],["\u0120th","u"],["\u0120fi","er"],["Jo","e"],["\u0120pen","cil"],["z","ed"],["\u0120re","f"],["\u0120fr","ight"],["\u0120sound","ed"],["\u0120pain","ted"],["\u0120par","rot"],["\u0120turt","le"],["\u0120li","z"],["\u0120off","ice"],["\u0120no","sy"],["\u0120pe","anut"],["\u0120bus","hes"],["\u0120t","imes"],["\u0120g","uit"],["\u0120sk","in"],["\u0120stre","am"],["\u0120g","em"],["\u0120do","ve"],["A","my"],["\u0120know","s"],["\u0120ba","ld"],["\u0120stubb","orn"],["\u0120fier","ce"],["w","ards"],["\u0120count","ed"],["\u0120compet","it"],["y","e"],["\u0120to","ast"],["ad","o"],["\u0120B","u"],["\u0120expl","ored"],["\u0120jo","ined"],["\u0120r","ug"],["\u0120is","land"],["\u0120say","ing"],["\u0120When","ever"],["\u0120inv","ited"],["\u0120weal","thy"],["\u0120norm","al"],["\u0120c","op"],["\u0120sw","e"],["\u0120mo","le"],["j","ect"],["\u0120f","rag"],["\u0120cra","ck"],["\u0120sunf","lower"],["\u0120","icy"],["or","ge"],["\u0120we","ird"],["\u0120not","ice"],["\u0120n","umbers"],["\u0120so","ar"],["\u0120independ","ent"],["c","ient"],["\u0120f","ountain"],["\u0120bird","ie"],["\u0120po","st"],["\u0120brother","s"],["\u0120des","ign"],["\u0120Tweet","y"],["\u0120pir","ate"],["\u0120boss","y"],["er","ry"],["\u0120wh","ale"],["\u0120gra","p"],["\u0120f","at"],["\u0120st","umbled"],["\u0120small","er"],["in","es"],["\u0120st","airs"],["\u0120bu","ilt"],["\u0120spoil","ed"],["in","ary"],["\u0120st","ri"],["ous","es"],["\u0120hard","er"],["\u0120light","s"],["\u0120To","day"],["\u0120guit","ar"],["\u0120see","m"],["\u0120sa","uce"],["\u0120en","orm"],["ac","he"],["\u0120chick","en"],["\u0120s","uit"],["\u0120be","et"],["\u0120an","cient"],["\u0120ro","de"],["\u0120pick","ing"],["\u0120ca","ct"],["\u0120val","u"],["\u0120pour","ed"],["\u0120esc","ape"],["\u0120frag","ile"],["\u0120enorm","ous"],["\u0120re","sc"],["\u0120h","ouses"],["\u0120ch","ar"],["\u0120kind","s"],["\u0120seed","s"],["\u0120fre","sh"],["\u0120me","m"],["\u0120P","ete"],["ir","p"],["\u0120ho","se"],["\u0120en","vel"],["\u0120remind","ed"],["\u0120c","udd"],["\u0120p","ow"],["up","id"],["n","a"],["it","her"],["\u0120for","k"],["\u0120tr","ump"],["\u0120boun","ce"],["\u0120b","ump"],["\u0120proud","ly"],["\u0120pract","ice"],["\u0120c","ity"],["\u0120pe","pper"],["\u0120way","s"],["\u0120cho","se"],["\u0120adm","ired"],["\u0120sal","ad"],["\u0120Al","ice"],["\u0120cost","um"],["\u0120fright","ened"],["a","id"],["\u0120t","ummy"],["\u0120wa","ke"],["\u0120st","age"],["\u0120fing","ers"],["\u0120shell","s"],["\u0120search","ing"],["\u0120delight","ed"],["Sp","ot"],["\u0120liz","ard"],["\u0120cact","us"],["\u0120th","irst"],["\u0120r","oof"],["\u0120ab","ove"],["\u0120show","ing"],["\u0120pen","ny"],["ol","a"],["\u0120c","one"],["\u0120d","ull"],["an","ger"],["ill","ie"],["\u0120excited","ly"],["\u0120pre","p"],["\u0120boat","s"],["\u0120sol","ve"],["d","om"],["\u0120n","urse"],["\u0120be","ak"],["al","k"],["\u0120bar","ber"],["e","orge"],["\u0120c","ere"],["\u0120st","upid"],["\u0120sh","one"],["ber","ry"],["ars","h"],["\u0120b","atter"],["\u0120ha","lf"],["\u0120sp","ace"],["\u0120comp","ass"],["\u0120stu","dy"],["\u0120suggest","ed"],["in","al"],["\u0120sp","illed"],["\u0120shap","e"],["\u0120flash","light"],["t","ime"],["\u0120h","oop"],["\u0120or","ig"],["\u0120att","ic"],["\u0120reg","ular"],["\u0120terri","ble"],["E","m"],["\u0120to","oth"],["\u0120N","emo"],["\u0120valu","able"],["\u0120trump","et"],["c","orn"],["\u0120l","ow"],["ar","ry"],["\u0120y","et"],["\u0120ar","row"],["v","ice"],["re","ss"],["\u0120p","ant"],["\u0120e","arth"],["\u0120B","ella"],["\u0120che","ap"],["\u0120des","k"],["\u0120kick","ed"],["\u0120ser","ious"],["\u0120thirst","y"],["\u0120D","ave"],["\u0120success","ful"],["\u0120lo","cked"],["\u0120la","b"],["he","t"],["\u0120cl","um"],["\u0120scr","at"],["\u0120orig","inal"],["c","om"],["\u0120o","w"],["\u0120r","at"],["\u0120sto","ve"],["\u0120bright","ly"],["\u0120impre","ss"],["\u0120av","o"],["\u0120envel","ope"],["\u0120","er"],["\u0120s","on"],["\u0120w","itch"],["\u0120M","ar"],["\u0120M","ummy"],["\u0120them","selves"],["ie","w"],["\u0120Bob","o"],["\u0120thu","nder"],["\u0120com","b"],["\u0120sn","iff"],["\u0120stop","s"],["\u0120dream","ing"],["\u0120h","ay"],["\u0120be","es"],["\u0120st","amp"],["ag","het"],["\u0120la","w"],["\u0120ch","anged"],["\u0120v","iew"],["\u0120ra","ced"],["\u0120scre","en"],["aghet","ti"],["\u0120","U"],["\u0120m","is"],["\u0120was","hed"],["\u0120care","less"],["\u0120delic","ate"],["\u0120pop","corn"],["\u0120W","hile"],["\u0120You","r"],["\u0120end","ing"],["\u0120wip","ed"],["ut","h"],["\u0120sp","aghetti"],["\u0120gra","nd"],["\u0120stick","ers"],["\u0120hel","m"],["\u0120r","ushed"],["\u0120war","ned"],["\u0120beet","le"],["g","est"],["i","ence"],["!\"","."],["\u0120ste","al"],["\u0120compass","ion"],["\u0120w","ire"],["is","k"],["is","ion"],["\u0120y","og"],["\u0120big","gest"],["ber","ries"],["\u0120tra","vel"],["\u0120lea","ving"],["\u0120pers","ist"],["\u0120to","r"],["\u0120th","ose"],["\u0120car","p"],["\u0120de","ad"],["\u0120disco","ver"],["\u0120clum","sy"],["\u0120be","an"],["\u0120find","ing"],["\u0120en","c"],["oom","y"],["\u0120","ing"],["\u0120f","lex"],["\u0120d","ough"],["\u0120sn","e"],["\u0120del","iver"],["\u0120tom","ato"],["\u0120cere","al"],["\u0120","\u00e2\u0122"],["an","ny"],["ur","ing"],["\u0120libr","ary"],["W","hile"],["\u0120me","al"],["ro","be"],["\u0120sn","ee"],["\u0120comp","let"],["red","ient"],["\u0120grace","ful"],["\u0120ing","redient"],["\u0120un","k"],["\u0120imag","ined"],["\u0120ear","ly"],["\u0120pee","ked"],["\u0120sor","ts"],["\u0120un","cle"],["\u0120pump","kin"],["\u0120kn","ock"],["\u0120jo","lly"],["\u0120tra","p"],["\u0120tell","ing"],["\u0120hair","y"],["\u0120t","ask"],["\u0120pu","p"],["up","er"],["\u0120miss","ing"],["\u0120ingredient","s"],["\u0120pa","le"],["\u0120s","udden"],["\u0120m","el"],["\u0120z","ip"],["\u0120pig","e"],["\u0120hum","ble"],["\u0120dest","ro"],["\u0120for","th"],["\u0120str","anger"],["\u0120gu","ard"],["\u0120jack","et"],["\u0120h","ipp"],["\u0120play","ful"],["\u0120B","obby"],["\u0120sh","iver"],["\u0120ad","vice"],["\u0120squ","are"],["\u0120count","ing"],["\u0120quest","ion"],["\u0120D","ucky"],["\u0120does","n"],["\u0120dri","ving"],["\u0120thin","king"],["\u0120impress","ive"],["\u0120a","unt"],["il","ty"],["\u0120all","owed"],["\u0120gu","ilty"],["\u0120coll","ar"],["\u0120carry","ing"],["\u0120whisp","ered"],["\u0120c","ur"],["\u0120nice","ly"],["\u0120cre","ate"],["\u0120open","s"],["\u0120spark","led"],["\u0120slid","es"],["\u0120flex","ible"],["n","own"],["\u0120hand","le"],["co","d"],["\u0120twirl","ed"],["\u0120c","ards"],["em","ent"],["\u0120prin","t"],["ation","s"],["\u0120hunt","er"],["\u0120an","x"],["ill","a"],["\u0120stick","er"],["\u0120spe","ed"],["a","wn"],["u","d"],["\u0120c","ush"],["\u0120u","mb"],["\u0120ru","b"],["ho","st"],["\u0120pop","ular"],["\u0120umb","re"],["f","a"],["\u0120t","ap"],["\u0120t","ied"],["\u0120dis","g"],["\u0120ru","bb"],["\u0120w","ing"],["\u0120b","ase"],["\u0120en","v"],["\u0120ru","bbed"],["com","fort"],["b","led"],["\u0120friends","hip"],["\u0120char","ming"],["\u0120disg","ust"],["t","ter"],["\u0120re","fused"],["\u0120un","comfort"],["\u0120past","a"],["\u0120persist","ent"],["\u0120carp","et"],["\u0120anx","ious"],["\u0120uncomfort","able"],["ar","ian"],["\u0120g","um"],["\u0120sh","ocked"],["\u0120bra","ce"],["\u0120R","ose"],["\u0120hold","s"],["\u0120g","ira"],["\u0120g","host"],["\u0120A","lex"],["ell","ig"],["\u0120R","ed"],["\u0120coo","king"],["\u0120p","atter"],["\u0120ne","at"],["\u0120sc","atter"],["\u0120int","ellig"],["\u0120pat","ch"],["\u0120stret","ch"],["\u0120gas","ped"],["\u0120dolp","hin"],["l","oo"],["\u0120s","ink"],["ug","ged"],["\u0120set","t"],["\u0120met","al"],["\u0120cro","cod"],["\u0120unk","nown"],["\u0120sc","oot"],["\u0120en","g"],["\u0120per","m"],["\u0120comp","ut"],["\u0120pant","s"],["\u0120patter","n"],["\u0120d","ust"],["ar","oo"],["\u0120she","l"],["\u0120butterf","lies"],["ang","aroo"],["\u0120l","ed"],["\u0120n","ature"],["\u0120k","angaroo"],["\u0120ch","asing"],["\u0120celebr","ate"],["\u0120re","sist"],["\u0120whe","els"],["\u0120ph","ot"],["\u0120hipp","o"],["re","am"],["\u0120nam","es"],["\u0120tr","uth"],["\u0120spin","ning"],["\u0120cri","cket"],["\u0120ham","mer"],["\u0120m","ask"],["\u0120tor","n"],["\u0120enc","ou"],["O","w"],["\u0120co","co"],["udd","y"],["\u0120mo","der"],["\u0120imp","at"],["\u0120Gra","ndpa"],["\u0120coco","a"],["S","ee"],["\u0120st","at"],["\u0120rest","aur"],["\u0120ord","inary"],["\u0120restaur","ant"],["\u0120E","llie"],["\u0120sk","ip"],["\u0120ac","orn"],["\u0120sur","f"],["r","ay"],["\u0120harm","less"],["\u0120b","ent"],["\u0120p","and"],["\u0120o","tter"],["\u0120sn","uggled"],["\u0120cra","zy"],["\u0120K","im"],["\u0120grow","ing"],["\u0120impat","ient"],["\u0120m","ath"],["or","ant"],["\u0120W","h"],["\u0120sleep","ing"],["ffe","e"],["\u0120o","at"],["\u0120sh","ine"],["\u0120re","ce"],["ic","hes"],["\u0120sc","ale"],["\u0120hand","ed"],["\u0120un","pack"],["\u0120fire","man"],["\u0120cr","ane"],["\u0120perf","orm"],["\u0120pri","ze"],["\u0120destro","y"],["ind","e"],["\u0120beaut","y"],["\u0120tra","sh"],["\u0120window","s"],["\u0120att","ract"],["\u0120pot","ato"],["\u0120moder","n"],["\u0120F","r"],["\u0120sho","e"],["\u0120spl","it"],["\u0120plac","ed"],["\u0120intellig","ent"],["\u0120g","oose"],["\u0120He","re"],["\u0120M","ike"],["\u0120L","ook"],["\u0120spo","ke"],["\u0120compassion","ate"],["\u0120disgust","ing"],["G","o"],["n","oon"],["ll","ip"],["\u0120j","ug"],["\u0120after","noon"],["llip","op"],["c","ut"],["\u0120so","fa"],["\u0120re","inde"],["oph","one"],["\u0120magn","et"],["\u0120umbre","lla"],["\u0120a","head"],["\u0120s","uper"],["\u0120lo","llipop"],["\u0120start","s"],["in","ce"],["\u0120ch","ance"],["\u0120draw","er"],["\u0120ign","orant"],["\u0120cand","le"],["\u0120wa","ff"],["\u0120he","dge"],["\u0120S","m"],["ac","hes"],["\u0120sandw","iches"],["\u0120lo","ad"],["\u0120F","in"],["ip","s"],["\u0120tri","ang"],["\u0120supp","ort"],["\u0120Sn","ow"],["i","kes"],["o","e"],["\u0120t","em"],["\u0120b","in"],["\u0120d","ug"],["er","able"],["\u0120y","awn"],["\u0120C","l"],["\u0120ru","les"],["\u0120spr","ing"],["\u0120dist","ant"],["\u0120sil","ver"],["\u0120pige","on"],["a","by"],["\u0120sh","ield"],["\u0120re","co"],["\u0120fl","our"],["\u0120hun","g"],["\u0120whe","at"],["\u0120mis","erable"],["a","f"],["\u0120h","ook"],["\u0120p","urse"],["\u0120sh","ut"],["\u0120co","ffee"],["\u0120reinde","er"],["\u0120rest","less"],["\u0120count","ry"],["\u0120cup","board"],["\u0120t","ire"],["\u0120c","ord"],["\u0120m","ay"],["\u0120o","l"],["\u0120or","der"],["\u0120Tweet","ie"],["g","u"],["\u0120s","ym"],["\u0120h","arsh"],["ic","t"],["\u0120sad","ly"],["us","ed"],["\u0120clo","ck"],["\u0120jump","s"],["oph","ie"],["\u0120brace","let"],["\u0120not","e"],["ic","es"],["\u0120cat","s"],["lc","ano"],["\u0120shr","imp"],["s","hed"],["\u0120s","end"],["\u0120sh","adow"],["\u0120mu","sh"],["\u0120cou","rage"],["\u0120mail","box"],["\u0120fil","m"],["\u0120hur","ry"],["\u0120crocod","ile"],["\u0120a","x"],["\u0120it","self"],["\u0120le","op"],["as","er"],["\u0120P","olly"],["\u0120pretend","ing"],["gg","ing"],["\u0120gif","ted"],["\u0120eng","ine"],["Y","ay"],["i","bb"],["uc","t"],["bo","l"],["\u0120creature","s"],["\u0120mel","on"],["I","f"],["c","u"],["\u0120m","ill"],["\u0120ro","se"],["\u0120mu","ff"],["\u0120any","where"],["\u0120imp","ro"],["\u0120fur","ther"],["\u0120ob","ject"],["\u0120comput","er"],["\u0120sym","bol"],["g","n"],["\u0120b","ri"],["\u0120f","u"],["\u0120go","al"],["\u0120v","ine"],["\u0120tri","ck"],["al","ed"],["\u0120com","pl"],["\u0120tow","ers"],["\u0120je","ep"],["\u0120rep","e"],["\u0120tr","op"],["\u0120pain","ter"],["\u0120sec","ond"],["cy","cle"],["\u0120ent","h"],["\u0120pract","iced"],["\u0120r","ice"],["\u0120re","ward"],["\u0120cool","er"],["\u0120read","ing"],["Al","ice"],["\u0120c","amp"],["\u0120p","ony"],["\u0120S","andy"],["\u0120k","ay"],["\u0120par","ade"],["\u0120stret","ched"],["\u0120wis","hes"],["\u0120env","ious"],["a","z"],["\u0120st","ation"],["\u0120need","le"],["\u0120cry","st"],["\u0120bright","er"],["\u0120forg","ave"],["\u0120cart","oon"],["\u0120trop","hy"],["ir","on"],["st","ri"],["\u0120A","re"],["\u0120To","by"],["\u0120ax","e"],["\u0120st","ack"],["\u0120help","less"],["\u0120E","ventually"],["\u0120now","here"],["\u0120treasure","s"],["\u0120mic","r"],["\u0120helm","et"],["\u0120attract","ive"],["\u0120enth","us"],["ri","c"],["\u0120j","et"],["\u0120sc","old"],["\u0120la","ser"],["\u0120old","er"],["\u0120G","ive"],["\u0120trou","bled"],["\u0120letter","s"],["\u0120swe","ater"],["\u0120o","y"],["\u0120so","ck"],["\u0120de","af"],["\u0120mess","age"],["\u0120vis","ited"],["\u0120past","ry"],["\u0120competit","ive"],["\u0120tra","ck"],["\u0120pack","age"],["\u0120Brown","ie"],["\u0120cush","ion"],["\u0120scoot","er"],["\u0120pand","a"],["\u0120micr","ophone"],["\u0120t","en"],["\u0120W","here"],["\u0120gigg","le"],["\u0120adm","ire"],["\u0120val","ue"],["\u0120pil","ot"],["\u0120reco","gn"],["\u0120mush","room"],["\u0120the","ater"],["\u0120p","or"],["\u0120T","r"],["\u0120ha","ll"],["\u0120sp","ell"],["\u0120al","ert"],["\u0120pre","ssed"],["\u0120bad","ly"],["\u0120tri","cks"],["eb","ra"],["\u0120sal","t"],["ht","ub"],["\u0120sw","itch"],["\u0120gl","oomy"],["\u0120P","e"],["\u0120band","age"],["\u0120hum","an"],["\u0120be","ep"],["\u0120any","way"],["\u0120en","er"],["\u0120te","ar"],["\u0120P","aul"],["\u0120shout","s"],["\u0120pen","gu"],["\u0120cow","s"],["\u0120foot","ball"],["\u0120bat","htub"],["\u0120fear","ful"],["\u0120er","aser"],["e","f"],["or","able"],["ke","let"],["\u0120vo","lcano"],["\u0120z","ebra"],["\u0120bar","rel"],["R","e"],["or","illa"],["op","us"],["ct","opus"],["\u0120swing","ing"],["\u0120thre","ad"],["\u0120ro","ared"],["c","ream"],["\u0120o","ctopus"],["\u0120ra","ven"],["\u0120P","at"],["\u0120boun","ced"],["hin","o"],["\u0120sold","ier"],["\u0120avo","c"],["\u0120stat","ue"],["\u0120leop","ard"],["\u0120tr","ay"],["\u0120s","ize"],["\u0120h","ive"],["\u0120start","ing"],["\u0120ho","les"],["\u0120ob","ser"],["\u0120nut","s"],["isk","ers"],["\u0120Sm","ith"],["c","i"],["y","ear"],["\u0120s","ent"],["\u0120L","ola"],["\u0120pe","ach"],["\u0120squ","ash"],["eb","ook"],["\u0120mod","est"],["kelet","on"],["M","ary"],["\u0120m","ug"],["\u0120li","p"],["\u0120not","ebook"],["\u0120ad","orable"],["\u0120respect","ful"],["\u0120c","urt"],["st","airs"],["\u0120sh","aking"],["\u0120str","ugg"],["Ben","ny"],["\u0120curt","ain"],["\u0120a","nts"],["\u0120m","op"],["\u0120g","orilla"],["\u0120qu","ar"],["\u0120expl","ain"],["\u0120hair","cut"],["\u0120shop","keeper"],["\u0120rid","ing"],["\u0120f","ive"],["er","c"],["ar","nt"],["\u0120back","pack"],["\u0120le","arnt"],["\u0120ch","ain"],["\u0120R","o"],["\u0120wall","et"],["cer","os"],["\u0120stir","red"],["\u0120decor","ate"],["\u0120fil","thy"],["stri","ch"],["hino","ceros"],["i","pping"],["\u0120p","ad"],["ck","ey"],["\u0120u","r"],["ce","ed"],["\u0120ho","ckey"],["\u0120che","cked"],["\u0120pull","s"],["\u0120beh","ave"],["\u0120pap","ers"],["\u0120step","s"],["G","ive"],["\u0120e","ither"],["\u0120M","andy"],["\u0120bo","ots"],["\u0120no","body"],["\u0120sand","box"],["\u0120av","ail"],["c","col"],["\u0120me","as"],["\u0120sor","t"],["\u0120sun","set"],["\u0120tri","pped"],["\u0120pus","hing"],["ccol","i"],["i","est"],["p","ar"],["\u0120d","ess"],["\u0120p","un"],["\u0120st","ared"],["\u0120go","lf"],["\u0120some","where"],["\u0120G","eorge"],["\u0120cla","pping"],["\u0120cryst","al"],["\u0120r","hinoceros"],["\u0120se","par"],["\u0120v","est"],["\u0120pe","bble"],["\u0120ar","t"],["\u0120light","ning"],["\u0120sail","or"],["\u0120roll","ing"],["\u0120exp","er"],["\u0120resc","ue"],["\u0120pow","der"],["\u0120B","uddy"],["\u0120se","al"],["\u0120ex","erc"],["\u0120v","i"],["\u0120Every","thing"],["\u0120por","ch"],["s","es"],["\u0120s","keleton"],["re","nder"],["\u0120sh","ort"],["ie","f"],["\u0120qu","ite"],["sel","y"],["\u0120coo","ked"],["\u0120gira","ffe"],["\u0120avail","able"],["\u0120b","et"],["\u0120happ","ier"],["\u0120jo","kes"],["\u0120tra","ins"],["\u0120inc","l"],["\u0120kay","ak"],["re","ci"],["\u0120c","omet"],["oo","ped"],["\u0120had","n"],["\u0120dis","hes"],["\u0120poin","t"],["\u0120organ","ize"],["\u0120bark","ing"],["\u0120suc","ceed"],["se","um"],["uck","ed"],["\u0120motor","cycle"],["\u0120frown","ed"],["\u0120unl","ock"],["\u0120dess","ert"],["en","ry"],["\u0120st","om"],["\u0120B","unny"],["\u0120la","und"],["\u0120pe","ek"],["ast","ic"],["\u0120climb","ing"],["\u0120listen","ing"],["os","ie"],["\u0120paw","s"],["h","ood"],["u","be"],["\u0120t","ur"],["\u0120to","il"],["el","ery"],["\u0120mu","seum"],["\u0120col","ours"],["\u0120un","h"],["\u0120app","reci"],["\u0120Mar","ia"],["\u0120complet","e"],["\u0120triang","le"],["\u0120c","ase"],["um","mer"],["\u0120z","ipper"],["\u0120laund","ry"],["L","ittle"]],"type":"BPE","unk_token":"<unk>","vocab":{"!":1,"!\"":431,"!\".":3425,"!\u00e2\u0122\u013f":1521,"\"":2,"\".":1415,"#":3,"$":4,"%":5,"&":6,"'":7,"'d":2675,"'ll":1513,"'m":797,"'re":1260,"'s":372,"'t":422,"(":8,")":9,"*":10,"+":11,",":12,",\"":553,",\u00e2\u0122\u013f":3087,"-":13,".":14,".\"":418,".\u00e2\u0122\u013f":1567,"/":15,"0":16,"1":17,"2":18,"3":19,"4":20,"5":21,"6":22,"7":23,"8":24,"9":25,":":26,";":27,"<":28,"<unk>":0,"=":29,">":30,"?":31,"?\"":483,"?\".":2963,"?\u00e2\u0122\u013f":1966,"@":32,"A":33,"After":1210,"Al":3010,"Alice":3820,"Amy":3185,"And":2028,"Anna":1159,"Are":2818,"As":1309,"At":1564,"B":34,"Be":2598,"Ben":979,"Benny":3962,"Billy":3104,"Bob":2183,"But":717,"C":35,"Can":1200,"Come":2304,"D":36,"Dad":2532,"Do":1983,"Don":1339,"E":37,"Em":3346,"Every":2287,"F":38,"Finally":1877,"From":1497,"G":39,"Give":3997,"Go":3682,"Good":2217,"Gra":3072,"H":40,"He":828,"Hell":1440,"Hello":1441,"Help":2942,"Her":1182,"Here":3144,"Hey":2147,"Hi":1816,"His":1601,"How":2982,"I":41,"If":3788,"In":2330,"It":885,"J":42,"Jack":1511,"Jane":2695,"Jill":2813,"Jim":2300,"Jimmy":2710,"Jo":1194,"Joe":3165,"John":1419,"Just":2342,"K":43,"L":44,"Later":2048,"Let":957,"Lila":1893,"Lily":342,"Little":4095,"Look":1160,"Lucy":2257,"M":45,"Mama":2589,"Mary":3952,"Max":1649,"Maybe":1668,"Me":2854,"Mia":1837,"Molly":2334,"Mom":784,"Mommy":1324,"Mum":2377,"Mummy":2978,"My":2445,"N":46,"No":950,"Now":2459,"O":47,"OK":1523,"Of":2081,"Oh":1638,"Okay":1683,"On":344,"Once":426,"One":419,"Ow":3620,"P":48,"Please":2546,"Q":49,"R":50,"Re":3917,"S":51,"Sally":2891,"Sam":1398,"Sara":1187,"Sarah":2756,"See":3627,"She":1067,"So":1158,"Soon":2375,"Sorry":2801,"Sp":3002,"Spot":3302,"St":2267,"Stop":2581,"Suddenly":1090,"Sue":3055,"Sure":1746,"T":52,"Th":860,"Thank":1030,"That":1014,"The":373,"Their":2809,"Then":1477,"There":2591,"They":656,"This":1579,"Tim":906,"Timmy":1320,"To":2588,"Tom":766,"Tommy":2213,"U":53,"V":54,"W":55,"We":1133,"Well":3059,"What":1006,"When":922,"Where":2717,"While":3458,"Who":2780,"Why":1806,"Wow":1304,"X":56,"Y":57,"Yay":3782,"Yes":846,"You":493,"Z":58,"[":59,"\\":60,"]":61,"^":62,"_":63,"`":64,"a":65,"able":1062,"aby":3727,"ac":1031,"ace":751,"ach":591,"ache":3249,"ached":1176,"aches":3706,"ack":417,"ad":355,"ade":539,"ado":3195,"adow":2060,"ady":834,"af":3734,"ag":550,"age":974,"aged":2795,"ages":3147,"aghet":3398,"aghetti":3404,"aid":3294,"ail":1970,"ain":461,"ained":1675,"air":1318,"airs":2457,"aisy":1381,"ak":768,"ake":421,"akes":1262,"aking":2582,"al":399,"ale":2346,"aled":3805,"alk":3322,"all":388,"ally":604,"alm":2117,"alous":2908,"als":2434,"am":331,"ama":1566,"ame":515,"amed":1642,"ames":1653,"amond":2973,"amp":1620,"an":300,"ance":1589,"and":713,"andy":1369,"ane":919,"ang":1635,"angaroo":3601,"ange":1119,"anged":3097,"anger":3313,"ank":737,"anny":3455,"ano":2697,"ant":654,"anut":3107,"ap":640,"ape":1991,"app":1757,"apped":2769,"appy":2962,"ar":287,"ara":644,"ard":443,"arden":850,"ards":1331,"are":490,"ared":556,"arge":2322,"arian":3564,"ark":485,"arl":2784,"arn":643,"arnt":3974,"aroo":3598,"arry":3353,"ars":833,"arsh":3329,"art":463,"arth":2893,"ary":983,"as":597,"ase":870,"ased":1739,"aser":3776,"ash":1540,"asing":2905,"ask":1488,"asket":1815,"ass":1860,"ast":888,"astic":4074,"asure":1451,"at":293,"ate":742,"ated":1598,"ately":3014,"ater":1226,"ates":2727,"ath":1126,"ather":1285,"ating":2874,"ation":1367,"ations":3528,"ato":2443,"ator":2549,"atter":1501,"ature":3124,"au":707,"aught":1147,"aughter":2008,"aul":2530,"aur":2156,"ause":741,"aut":830,"av":1486,"ave":617,"avy":1695,"awn":3534,"ax":621,"ay":286,"aybe":1023,"az":3829,"b":66,"ball":2061,"bar":2237,"barra":2276,"bb":681,"bbed":1109,"bbit":1079,"bble":1778,"bbles":2358,"bby":2051,"be":900,"ber":822,"berries":3433,"berry":3328,"bin":2968,"ble":573,"bled":3552,"blem":2149,"bo":1332,"board":2131,"body":2883,"bol":3785,"bow":1953,"box":2495,"br":1825,"by":763,"bye":1107,"c":67,"ccol":4004,"ccoli":4010,"ce":335,"cean":2272,"ced":1538,"ceed":3990,"cept":2830,"cer":1988,"ceros":3980,"ces":1941,"cess":1449,"ch":376,"ched":683,"ches":1938,"chool":1821,"ci":3943,"cient":3220,"cil":3161,"cing":1995,"ck":321,"cked":1798,"cket":1669,"ckey":3988,"cks":2025,"cle":1707,"co":1131,"cod":3523,"col":1987,"com":3374,"comfort":3551,"corn":3351,"cream":3924,"ct":884,"ctopus":3920,"ctor":1557,"cu":3789,"cut":3688,"cy":1875,"cycle":3813,"d":68,"day":1123,"dd":542,"dded":962,"de":1848,"den":2451,"der":1603,"dge":2435,"dle":2498,"dom":3319,"ds":1461,"dy":767,"e":69,"ead":1894,"ear":1787,"eared":1810,"eb":2285,"ebook":3949,"ebra":3891,"ec":432,"eces":1658,"eci":677,"ecial":691,"ecially":2631,"ect":899,"ed":264,"eddy":1303,"edient":3025,"ee":1584,"een":2250,"eet":1011,"ef":3911,"ek":1928,"el":367,"elery":4083,"ell":581,"ella":2840,"ellig":3573,"elly":2531,"elp":2881,"els":2166,"elt":499,"ely":1356,"em":816,"ember":1028,"ement":3526,"emo":3093,"en":294,"ence":1554,"end":390,"ened":678,"enny":2932,"enry":4069,"ens":1423,"ensive":2645,"ent":377,"ention":3146,"eorge":3324,"ep":592,"epend":2173,"er":278,"era":2476,"erable":3719,"erc":3973,"ere":1772,"ered":1129,"erly":2260,"erp":2737,"erry":3229,"ers":655,"ert":2352,"ery":3032,"es":315,"ese":2024,"ess":659,"est":586,"et":311,"ete":2806,"eter":1634,"eterm":2562,"eth":2109,"ets":2635,"etter":753,"ever":1613,"ex":2311,"ext":3123,"ey":1499,"f":70,"fa":3542,"fast":2926,"fe":662,"fere":1121,"ff":1004,"ffe":2619,"ffee":3650,"fic":3088,"fish":2107,"fore":947,"fort":1718,"ft":814,"fter":702,"fu":454,"ful":473,"fully":1279,"fused":1942,"g":71,"gan":1102,"ge":756,"ged":690,"ger":1017,"gest":3423,"get":525,"getable":2417,"gether":545,"gg":1659,"gged":2105,"gging":3779,"gly":2509,"gn":3799,"gon":1510,"ground":2461,"gry":804,"gu":3749,"gy":3131,"h":72,"hat":605,"he":257,"head":3074,"hed":464,"hen":459,"her":380,"here":764,"hes":889,"het":3370,"hile":2296,"hin":2563,"hing":475,"hino":3929,"hinoceros":3985,"hip":2986,"hn":952,"hnny":2421,"ho":1880,"hood":4079,"host":3539,"ht":401,"htub":3893,"hy":1355,"i":73,"ia":711,"iable":3102,"ian":2486,"ibb":3783,"ible":1917,"ic":468,"ice":531,"iced":1018,"ices":3760,"ich":1508,"iches":3654,"ick":508,"ict":3752,"icy":1522,"id":292,"iddle":2685,"ide":420,"ident":1740,"idge":2005,"ie":557,"ied":992,"ief":4042,"ield":1462,"ience":3424,"ient":1317,"ier":1857,"ies":862,"iest":4011,"iet":1724,"iew":3388,"if":564,"ife":2310,"iff":2579,"ig":329,"iger":2537,"igg":1696,"igh":936,"ighed":2465,"ight":481,"ign":1292,"ike":1375,"ikes":3714,"il":290,"ila":1170,"ild":807,"ile":779,"ill":445,"illa":3531,"illed":1294,"illi":2748,"illie":3314,"illy":971,"ilt":2972,"ilty":3508,"ily":325,"im":301,"imal":802,"imb":997,"ime":392,"imed":2907,"imes":1171,"imp":2705,"in":268,"ina":2667,"inal":3336,"inally":1430,"inary":3239,"ination":2879,"ince":3698,"ind":451,"inde":3663,"ine":801,"ined":1424,"ines":3235,"iness":2752,"ing":289,"ings":535,"ining":2021,"ink":716,"ins":1236,"inted":2494,"iny":865,"ion":761,"ions":1984,"ious":1033,"ip":956,"ipe":3138,"ipp":2786,"ipped":1756,"ipper":2842,"ipping":3986,"ips":3710,"ique":3063,"ir":312,"ira":3057,"ird":2527,"ire":1734,"ired":1175,"irl":439,"iron":3837,"irp":3270,"irrel":1537,"irst":1075,"irt":2091,"is":288,"isa":2216,"ise":682,"ised":948,"ises":1662,"ish":718,"ished":918,"ision":3430,"isk":3429,"iskers":3941,"iss":1199,"issed":1897,"issors":2626,"ist":636,"ister":1568,"isy":1251,"it":274,"ital":2577,"itc":1168,"itch":2017,"ite":675,"ited":567,"ith":340,"ither":3278,"iting":1813,"itt":378,"itten":2090,"ittens":2006,"itter":2553,"itting":1918,"ittle":391,"itty":2192,"ity":2057,"iv":3113,"ive":700,"iver":1347,"ix":1656,"iz":783,"ize":2133,"ized":1046,"izz":2209,"izzy":2633,"j":74,"ject":3209,"joy":1032,"k":75,"kay":912,"ke":338,"ked":348,"keep":3000,"keeper":3142,"kelet":3913,"keleton":3951,"ken":1282,"kes":1025,"key":1624,"kin":2547,"king":543,"l":76,"la":2288,"laimed":3103,"land":3023,"lc":1575,"lcano":3762,"ld":324,"le":307,"lease":1118,"lebr":2428,"led":942,"leep":1163,"les":985,"less":1749,"let":2022,"lew":871,"lex":2306,"lf":1498,"lies":3031,"light":2666,"ling":1725,"ll":306,"lla":2220,"llie":2797,"llip":3684,"llipop":3687,"llo":1980,"llow":1086,"lly":854,"loo":3584,"lower":2493,"lp":470,"ly":387,"m":77,"ma":701,"man":1506,"maz":1057,"mb":2764,"me":1660,"med":1644,"ment":1923,"mer":1362,"ming":1776,"mo":2383,"more":1154,"most":2544,"my":371,"n":78,"na":3277,"nd":262,"nder":673,"ndma":1135,"ndp":2153,"ndpa":2219,"ned":2474,"ner":1471,"ness":2123,"ney":1865,"ng":1162,"nic":2282,"ning":896,"nn":613,"nna":648,"nny":2402,"noon":3683,"nown":3521,"nt":353,"nts":1238,"ny":637,"o":79,"ob":913,"obby":2873,"ock":931,"ocked":1944,"oe":3715,"og":2181,"ol":1762,"ola":3310,"old":2396,"olly":1310,"olog":2955,"om":283,"ome":386,"omed":3076,"omet":519,"ometimes":2184,"on":303,"ond":2161,"one":486,"ones":2382,"oney":1357,"ong":529,"ons":1559,"ont":2207,"ony":2642,"oo":327,"ood":482,"oof":2799,"ook":584,"ool":904,"oom":1570,"oomy":3446,"oon":996,"oop":2693,"ooped":4056,"oose":2313,"oot":3132,"op":498,"ope":1629,"oph":2388,"ophie":3757,"ophone":3691,"ople":907,"oppy":3073,"opus":3919,"or":302,"orable":3912,"orant":3647,"ord":1811,"ore":430,"ored":1775,"orge":3214,"orilla":3918,"oring":1583,"ork":2829,"orm":1759,"orn":1225,"orrow":1846,"orry":2587,"ors":1866,"ort":798,"ory":3026,"os":1616,"osaur":2651,"ose":2139,"osie":4077,"ot":310,"ote":2623,"oth":781,"other":748,"ots":2777,"ott":1627,"ou":273,"oud":552,"oug":501,"ough":795,"ought":599,"ould":368,"oun":1957,"ound":389,"ount":1142,"ountain":1890,"oup":1526,"our":663,"ours":2071,"ous":611,"ouse":635,"ouses":3241,"out":382,"outh":1708,"ove":2179,"ow":319,"owed":2221,"ower":1600,"own":546,"oy":998,"p":80,"pack":2610,"par":4012,"pecially":2654,"ped":2116,"ph":1666,"phant":1847,"pl":610,"port":2934,"pp":339,"pped":595,"pper":1925,"pping":1619,"ppy":1223,"pt":853,"q":81,"qu":602,"que":2816,"r":82,"ra":410,"ract":1862,"rag":2985,"rage":3089,"raid":2012,"ray":3636,"re":271,"read":2348,"ready":3111,"ream":3611,"reci":4054,"red":1569,"redient":3463,"ree":923,"rel":1366,"ren":1393,"render":4040,"ress":3357,"ret":1722,"ri":347,"ric":3851,"ried":587,"riend":412,"ries":1515,"rm":876,"ro":619,"robe":3460,"rom":467,"room":1504,"ror":2843,"ross":1533,"rot":1588,"round":469,"row":1524,"ry":415,"s":83,"sc":2134,"se":393,"sed":810,"sel":808,"self":859,"selves":2767,"sely":4044,"ser":2601,"ses":4038,"set":1702,"seum":4063,"sh":1287,"shed":3764,"shine":2082,"side":505,"sist":2639,"so":986,"sp":1492,"ss":532,"ssed":1370,"st":362,"stairs":3959,"ster":1306,"sting":2044,"stri":3838,"strich":3984,"sw":1721,"sy":1998,"t":84,"ted":1029,"ten":2172,"ter":425,"th":1021,"thday":2056,"ther":566,"thing":1002,"thy":1679,"ti":2863,"time":3340,"ting":1035,"to":2054,"ts":1884,"tter":3556,"ture":988,"ty":746,"u":85,"ual":2627,"ually":1716,"ub":2223,"ube":4080,"uc":800,"uce":2590,"uch":1013,"uched":2096,"uck":608,"ucked":4064,"ucky":1631,"uct":3784,"ucy":925,"ud":3535,"udd":650,"udden":706,"uddenly":712,"uddy":3622,"ue":645,"ued":1360,"uff":1246,"uffy":1502,"ug":424,"ugar":2946,"ugg":1646,"ugged":3586,"uggled":3043,"ught":1045,"uit":1413,"ul":1431,"ular":2269,"ull":1185,"ult":2504,"um":484,"umb":1817,"umber":2211,"umbers":3150,"umbled":2890,"ummer":4092,"ummy":967,"ump":744,"umpy":2439,"un":369,"unch":1726,"und":3118,"ung":1946,"ungle":2420,"unk":2340,"unny":1215,"unt":2120,"up":1670,"uper":3480,"upid":3276,"ur":455,"ure":520,"ured":3004,"uring":3456,"urn":827,"urp":849,"urpr":928,"urse":2410,"urt":812,"us":658,"used":3754,"ush":1916,"ushed":2778,"usie":2664,"ust":630,"ustr":2503,"usual":2855,"ut":318,"uth":3415,"v":86,"ve":341,"ved":423,"vel":1870,"ven":722,"vent":826,"ventually":1851,"ver":317,"vered":1981,"very":354,"ves":841,"vice":3356,"ving":793,"vous":2576,"w":87,"ward":2013,"wards":3190,"way":453,"ways":646,"weet":1926,"where":1258,"wl":1608,"wn":873,"work":2895,"x":88,"xt":941,"y":89,"yal":3024,"yard":1910,"ye":3193,"year":3944,"ying":2548,"ym":2696,"z":90,"ze":1758,"zed":3167,"zy":1239,"zz":1604,"{":91,"|":92,"}":93,"~":94,"\u00a1":95,"\u00a2":96,"\u00a3":97,"\u00a4":98,"\u00a5":99,"\u00a6":100,"\u00a7":101,"\u00a8":102,"\u00a9":103,"\u00aa":104,"\u00ab":105,"\u00ac":106,"\u00ae":107,"\u00af":108,"\u00b0":109,"\u00b1":110,"\u00b2":111,"\u00b3":112,"\u00b4":113,"\u00b5":114,"\u00b6":115,"\u00b7":116,"\u00b8":117,"\u00b9":118,"\u00ba":119,"\u00bb":120,"\u00bc":121,"\u00bd":122,"\u00be":123,"\u00bf":124,"\u00c0":125,"\u00c1":126,"\u00c2":127,"\u00c3":128,"\u00c4":129,"\u00c5":130,"\u00c6":131,"\u00c7":132,"\u00c8":133,"\u00c9":134,"\u00ca":135,"\u00cb":136,"\u00cc":137,"\u00cd":138,"\u00ce":139,"\u00cf":140,"\u00d0":141,"\u00d1":142,"\u00d2":143,"\u00d3":144,"\u00d4":145,"\u00d5":146,"\u00d6":147,"\u00d7":148,"\u00d8":149,"\u00d9":150,"\u00da":151,"\u00db":152,"\u00dc":153,"\u00dd":154,"\u00de":155,"\u00df":156,"\u00e0":157,"\u00e1":158,"\u00e2":159,"\u00e2\u0122":558,"\u00e2\u0122\u013b":1024,"\u00e2\u0122\u013e":894,"\u00e2\u0122\u013f":892,"\u00e3":160,"\u00e4":161,"\u00e5":162,"\u00e6":163,"\u00e7":164,"\u00e8":165,"\u00e9":166,"\u00ea":167,"\u00eb":168,"\u00ec":169,"\u00ed":170,"\u00ee":171,"\u00ef":172,"\u00f0":173,"\u00f1":174,"\u00f2":175,"\u00f3":176,"\u00f4":177,"\u00f5":178,"\u00f6":179,"\u00f7":180,"\u00f8":181,"\u00f9":182,"\u00fa":183,"\u00fb":184,"\u00fc":185,"\u00fd":186,"\u00fe":187,"\u00ff":188,"\u0100":189,"\u0101":190,"\u0102":191,"\u0103":192,"\u0104":193,"\u0105":194,"\u0106":195,"\u0107":196,"\u0108":197,"\u0109":198,"\u010a":199,"\u010b":200,"\u010c":201,"\u010d":202,"\u010e":203,"\u010f":204,"\u0110":205,"\u0111":206,"\u0112":207,"\u0113":208,"\u0114":209,"\u0115":210,"\u0116":211,"\u0117":212,"\u0118":213,"\u0119":214,"\u011a":215,"\u011b":216,"\u011c":217,"\u011d":218,"\u011e":219,"\u011f":220,"\u0120":221,"\u0120\"":334,"\u0120'":2521,"\u0120-":1396,"\u01203":2032,"\u0120A":458,"\u0120After":1418,"\u0120Al":2360,"\u0120Alex":3572,"\u0120Alice":3291,"\u0120All":1686,"\u0120Amy":1712,"\u0120And":832,"\u0120Ann":2606,"\u0120Anna":771,"\u0120Are":3839,"\u0120As":1253,"\u0120At":2849,"\u0120B":370,"\u0120Be":2647,"\u0120Bella":3360,"\u0120Ben":476,"\u0120Benny":1433,"\u0120Billy":1580,"\u0120Bl":2807,"\u0120Blue":2991,"\u0120Bob":1114,"\u0120Bobby":3496,"\u0120Bobo":3389,"\u0120Br":2605,"\u0120Brown":2827,"\u0120Brownie":3869,"\u0120Bu":3196,"\u0120Buddy":4032,"\u0120Bunny":4071,"\u0120But":547,"\u0120C":845,"\u0120Can":1298,"\u0120Ch":2398,"\u0120Cl":3721,"\u0120Come":2101,"\u0120D":639,"\u0120Dad":1043,"\u0120Daddy":1856,"\u0120Daisy":1512,"\u0120Dave":3366,"\u0120Do":1243,"\u0120Don":2632,"\u0120Ducky":3502,"\u0120E":603,"\u0120Ella":3086,"\u0120Ellie":3632,"\u0120Em":1496,"\u0120Emily":2385,"\u0120Emma":1922,"\u0120End":2887,"\u0120Even":2615,"\u0120Eventually":3844,"\u0120Every":745,"\u0120Everyone":1233,"\u0120Everything":4036,"\u0120Everywhere":2463,"\u0120F":661,"\u0120Fin":3709,"\u0120Finally":2055,"\u0120Fl":1654,"\u0120Fluffy":1844,"\u0120Fr":3670,"\u0120Fred":3121,"\u0120From":879,"\u0120G":1026,"\u0120George":4018,"\u0120Give":3856,"\u0120Go":2341,"\u0120Gra":1614,"\u0120Grandma":1979,"\u0120Grandpa":3625,"\u0120H":308,"\u0120He":314,"\u0120Her":829,"\u0120Here":3676,"\u0120His":887,"\u0120How":2339,"\u0120I":336,"\u0120If":2870,"\u0120In":1436,"\u0120Inside":2067,"\u0120It":407,"\u0120J":477,"\u0120Jack":813,"\u0120Jake":2519,"\u0120Jane":1247,"\u0120Jen":1606,"\u0120Jenny":2395,"\u0120Jill":1786,"\u0120Jim":1742,"\u0120Jimmy":2193,"\u0120Jo":848,"\u0120Joe":1348,"\u0120John":1345,"\u0120Johnny":2715,"\u0120Just":2485,"\u0120K":1544,"\u0120Kim":3643,"\u0120Kitty":2728,"\u0120L":588,"\u0120Le":2473,"\u0120Leo":2716,"\u0120Let":1264,"\u0120Lila":1494,"\u0120Lily":359,"\u0120Lisa":2543,"\u0120Little":3143,"\u0120Lola":3946,"\u0120Look":3678,"\u0120Lucy":1009,"\u0120M":405,"\u0120Mama":2103,"\u0120Mandy":3999,"\u0120Mar":3385,"\u0120Maria":4088,"\u0120Mark":3033,"\u0120Mary":2014,"\u0120Max":696,"\u0120Maybe":1519,"\u0120Mia":858,"\u0120Mike":3677,"\u0120Mittens":2246,"\u0120Molly":1793,"\u0120Mom":641,"\u0120Mommy":1189,"\u0120Mr":1796,"\u0120Mrs":3106,"\u0120Mum":2560,"\u0120Mummy":3386,"\u0120My":3136,"\u0120N":1127,"\u0120Nemo":3348,"\u0120No":2927,"\u0120Now":1484,"\u0120O":2108,"\u0120OK":2730,"\u0120On":2488,"\u0120One":500,"\u0120P":960,"\u0120Pat":3927,"\u0120Paul":3903,"\u0120Pe":3896,"\u0120Pete":3269,"\u0120Peter":2622,"\u0120Please":2469,"\u0120Polly":3777,"\u0120R":1139,"\u0120Red":3574,"\u0120Rex":2686,"\u0120Ro":3978,"\u0120Rose":3568,"\u0120S":298,"\u0120Sally":1456,"\u0120Sam":689,"\u0120Sammy":2142,"\u0120Sandy":3823,"\u0120Sara":780,"\u0120Sarah":1277,"\u0120She":313,"\u0120Sm":3705,"\u0120Smith":3942,"\u0120Sn":3037,"\u0120Snow":3713,"\u0120So":831,"\u0120Some":2452,"\u0120Sometimes":2347,"\u0120Soon":2088,"\u0120Sp":1095,"\u0120Spot":1177,"\u0120St":2430,"\u0120Suddenly":1056,"\u0120Sue":1172,"\u0120Susie":2999,"\u0120T":284,"\u0120TV":2446,"\u0120Teddy":2536,"\u0120Th":1192,"\u0120Thank":1989,"\u0120That":1312,"\u0120The":299,"\u0120Their":2501,"\u0120Then":891,"\u0120There":1490,"\u0120They":320,"\u0120This":1572,"\u0120Tim":436,"\u0120Timmy":504,"\u0120To":1630,"\u0120Toby":3840,"\u0120Today":3244,"\u0120Together":2570,"\u0120Tom":496,"\u0120Tommy":1617,"\u0120Tr":3884,"\u0120Tweet":2098,"\u0120Tweetie":3748,"\u0120Tweety":3226,"\u0120U":3405,"\u0120W":527,"\u0120We":765,"\u0120Wh":3648,"\u0120What":1609,"\u0120When":940,"\u0120Whenever":3202,"\u0120Where":3875,"\u0120While":3411,"\u0120Why":2568,"\u0120With":2283,"\u0120You":554,"\u0120Your":3412,"\u0120Z":2760,"\u0120a":259,"\u0120ab":642,"\u0120able":1480,"\u0120about":664,"\u0120above":3307,"\u0120ac":1091,"\u0120acc":1748,"\u0120accept":3015,"\u0120accident":1805,"\u0120accidentally":2040,"\u0120acorn":3634,"\u0120across":1781,"\u0120act":2102,"\u0120ad":823,"\u0120add":2796,"\u0120added":2992,"\u0120adm":2195,"\u0120admire":3877,"\u0120admired":3289,"\u0120adorable":3956,"\u0120advent":963,"\u0120adventur":2964,"\u0120adventure":1019,"\u0120adventures":1861,"\u0120adventurous":2984,"\u0120advice":3498,"\u0120af":1978,"\u0120afraid":2015,"\u0120after":1049,"\u0120afternoon":3686,"\u0120ag":538,"\u0120again":574,"\u0120against":3042,"\u0120agre":1459,"\u0120agreed":1525,"\u0120ahead":3694,"\u0120air":1427,"\u0120al":503,"\u0120alert":3887,"\u0120all":480,"\u0120allowed":3509,"\u0120almost":2566,"\u0120alone":1615,"\u0120along":1939,"\u0120already":3127,"\u0120also":989,"\u0120always":652,"\u0120am":1167,"\u0120amaz":1059,"\u0120amazed":1611,"\u0120amazing":1509,"\u0120an":414,"\u0120ancient":3253,"\u0120and":265,"\u0120ang":2838,"\u0120angel":3130,"\u0120angry":937,"\u0120animal":803,"\u0120animals":882,"\u0120another":1313,"\u0120answ":1730,"\u0120answer":2302,"\u0120answered":2745,"\u0120ant":2384,"\u0120ants":3964,"\u0120anx":3530,"\u0120anxious":3562,"\u0120any":705,"\u0120anymore":1156,"\u0120anyone":2125,"\u0120anything":1437,"\u0120anyway":3900,"\u0120anywhere":3793,"\u0120ap":2191,"\u0120apolog":2976,"\u0120app":1077,"\u0120appeared":2299,"\u0120apple":1929,"\u0120apples":2196,"\u0120appreci":4087,"\u0120ar":1132,"\u0120are":446,"\u0120arg":3028,"\u0120arm":1455,"\u0120arms":2000,"\u0120around":517,"\u0120arri":1428,"\u0120arrived":1457,"\u0120arrow":3355,"\u0120art":4025,"\u0120as":416,"\u0120ash":2366,"\u0120ashamed":2612,"\u0120ask":1094,"\u0120asked":512,"\u0120asking":2701,"\u0120asks":1626,"\u0120asleep":2263,"\u0120at":449,"\u0120ate":1249,"\u0120att":1766,"\u0120attic":3343,"\u0120attract":3667,"\u0120attractive":3849,"\u0120aunt":3507,"\u0120av":2505,"\u0120avail":4003,"\u0120available":4047,"\u0120avo":3380,"\u0120avoc":3931,"\u0120aw":2983,"\u0120away":548,"\u0120ax":3773,"\u0120axe":3841,"\u0120b":267,"\u0120ba":1242,"\u0120baby":1493,"\u0120back":487,"\u0120backpack":3975,"\u0120backyard":1921,"\u0120bad":915,"\u0120badly":3889,"\u0120bag":1325,"\u0120bags":3067,"\u0120bake":2828,"\u0120bal":2475,"\u0120balance":2941,"\u0120bald":3187,"\u0120ball":671,"\u0120balloon":1592,"\u0120balloons":3069,"\u0120balls":2724,"\u0120ban":2338,"\u0120banan":2404,"\u0120banana":2903,"\u0120band":2043,"\u0120bandage":3897,"\u0120bar":1736,"\u0120barber":3323,"\u0120bark":2249,"\u0120barked":2453,"\u0120barking":4061,"\u0120barn":3145,"\u0120barrel":3916,"\u0120base":3548,"\u0120basket":1823,"\u0120bat":2524,"\u0120bath":1808,"\u0120bathroom":2811,"\u0120bathtub":3908,"\u0120batter":3330,"\u0120be":332,"\u0120beach":1596,"\u0120beak":3321,"\u0120bean":3443,"\u0120bear":788,"\u0120beaut":844,"\u0120beauti":869,"\u0120beautiful":875,"\u0120beauty":3664,"\u0120bec":623,"\u0120became":1124,"\u0120because":769,"\u0120become":2668,"\u0120bed":1001,"\u0120bedroom":2683,"\u0120bee":1841,"\u0120been":1136,"\u0120beep":3899,"\u0120bees":3396,"\u0120beet":3252,"\u0120beetle":3422,"\u0120before":978,"\u0120began":1270,"\u0120beh":1228,"\u0120behave":3994,"\u0120behind":1354,"\u0120being":1027,"\u0120bel":1174,"\u0120belie":1710,"\u0120believe":1829,"\u0120bell":2378,"\u0120belong":1936,"\u0120belonged":3070,"\u0120ben":1883,"\u0120bench":1986,"\u0120bent":3638,"\u0120ber":2518,"\u0120berries":3047,"\u0120best":825,"\u0120bet":4048,"\u0120better":806,"\u0120big":403,"\u0120bigger":1673,"\u0120biggest":3432,"\u0120bike":1706,"\u0120bin":3717,"\u0120bir":528,"\u0120bird":534,"\u0120birdie":3222,"\u0120birds":1204,"\u0120birthday":2106,"\u0120bit":1219,"\u0120bite":1814,"\u0120bitter":2979,"\u0120bl":622,"\u0120black":1760,"\u0120blank":1692,"\u0120blanket":1705,"\u0120blew":2343,"\u0120block":1208,"\u0120blocks":1378,"\u0120bloom":3152,"\u0120blow":2565,"\u0120blue":1044,"\u0120bo":434,"\u0120board":2810,"\u0120boat":1088,"\u0120boats":3317,"\u0120body":2919,"\u0120bone":2860,"\u0120book":921,"\u0120books":1473,"\u0120boots":4000,"\u0120bored":2650,"\u0120boring":2714,"\u0120borrow":2875,"\u0120boss":2844,"\u0120bossy":3228,"\u0120both":903,"\u0120bott":1690,"\u0120bottle":2127,"\u0120bottom":2921,"\u0120bought":2124,"\u0120boun":2068,"\u0120bounce":3281,"\u0120bounced":3928,"\u0120bow":1389,"\u0120bowl":1768,"\u0120box":776,"\u0120boxes":2980,"\u0120boy":522,"\u0120boys":2741,"\u0120br":523,"\u0120bra":847,"\u0120brace":3567,"\u0120bracelet":3758,"\u0120bran":1687,"\u0120branch":2001,"\u0120branches":2914,"\u0120brave":909,"\u0120bre":1052,"\u0120bread":2129,"\u0120break":1505,"\u0120breakfast":2945,"\u0120breath":2571,"\u0120bri":3800,"\u0120bridge":2804,"\u0120bright":1112,"\u0120brighter":3833,"\u0120brightly":3378,"\u0120brilli":2902,"\u0120brilliant":2915,"\u0120bring":1895,"\u0120bro":1053,"\u0120broke":1728,"\u0120broken":1479,"\u0120brother":1216,"\u0120brothers":3224,"\u0120brought":1565,"\u0120brown":1845,"\u0120brush":2732,"\u0120bu":792,"\u0120bubbles":2939,"\u0120buck":1795,"\u0120bucket":1927,"\u0120bug":1445,"\u0120bugs":2424,"\u0120build":1452,"\u0120building":2271,"\u0120built":3237,"\u0120bull":3115,"\u0120bump":3282,"\u0120bunny":1323,"\u0120burn":2540,"\u0120bus":1205,"\u0120bush":2198,"\u0120bushes":3178,"\u0120busy":2007,"\u0120but":409,"\u0120butt":1819,"\u0120butter":1181,"\u0120butterf":1295,"\u0120butterflies":3600,"\u0120butterfly":1403,"\u0120button":2174,"\u0120buttons":3141,"\u0120buy":1421,"\u0120by":857,"\u0120c":276,"\u0120ca":1864,"\u0120cabin":2969,"\u0120cact":3256,"\u0120cactus":3304,"\u0120cage":2896,"\u0120cake":1138,"\u0120call":820,"\u0120called":929,"\u0120calling":2857,"\u0120calm":2335,"\u0120cam":2892,"\u0120came":620,"\u0120camera":3071,"\u0120camp":3821,"\u0120can":472,"\u0120cand":2684,"\u0120candle":3702,"\u0120candy":1697,"\u0120cann":2416,"\u0120cannot":2433,"\u0120cap":2776,"\u0120car":565,"\u0120card":2187,"\u0120cards":3525,"\u0120care":627,"\u0120careful":837,"\u0120carefully":1395,"\u0120careless":3408,"\u0120carp":3439,"\u0120carpet":3561,"\u0120carried":2502,"\u0120carrot":1802,"\u0120carrots":2492,"\u0120carry":1990,"\u0120carrying":3512,"\u0120cars":1315,"\u0120cart":2328,"\u0120cartoon":3835,"\u0120case":4091,"\u0120cast":1450,"\u0120castle":1530,"\u0120cat":703,"\u0120catch":1291,"\u0120caterp":2850,"\u0120caterpill":2853,"\u0120caterpillar":2904,"\u0120cats":3761,"\u0120caught":1963,"\u0120cave":2140,"\u0120ce":2148,"\u0120celebr":2440,"\u0120celebrate":3606,"\u0120cere":3325,"\u0120cereal":3453,"\u0120ch":596,"\u0120chain":3977,"\u0120chair":1850,"\u0120chance":3699,"\u0120change":2782,"\u0120changed":3400,"\u0120char":3264,"\u0120charming":3554,"\u0120chase":2995,"\u0120chased":2460,"\u0120chasing":3605,"\u0120che":855,"\u0120cheap":3361,"\u0120check":2832,"\u0120checked":3992,"\u0120cheer":2212,"\u0120cheered":1838,"\u0120cheerful":3035,"\u0120cheese":2110,"\u0120cher":2901,"\u0120chest":2754,"\u0120chew":2744,"\u0120chick":2447,"\u0120chicken":3250,"\u0120child":1134,"\u0120children":1444,"\u0120cho":1738,"\u0120chocol":2337,"\u0120chocolate":2389,"\u0120choose":3085,"\u0120chose":3288,"\u0120cir":2018,"\u0120circ":2555,"\u0120circle":3159,"\u0120circles":3001,"\u0120city":3285,"\u0120cl":489,"\u0120cla":1397,"\u0120clap":2814,"\u0120clapped":1830,"\u0120clapping":4019,"\u0120class":2681,"\u0120clay":3133,"\u0120cle":821,"\u0120clean":945,"\u0120cleaned":2885,"\u0120cleaning":3125,"\u0120clear":2520,"\u0120clever":2236,"\u0120climb":1003,"\u0120climbed":1549,"\u0120climbing":4075,"\u0120clo":732,"\u0120clock":3755,"\u0120clos":1034,"\u0120close":1438,"\u0120closed":1789,"\u0120closer":1153,"\u0120closet":2669,"\u0120clot":1561,"\u0120cloth":2387,"\u0120clothes":1563,"\u0120cloud":1643,"\u0120clouds":2208,"\u0120clown":2771,"\u0120clum":3371,"\u0120clumsy":3442,"\u0120co":562,"\u0120coat":2069,"\u0120coco":3621,"\u0120cocoa":3626,"\u0120coffee":3738,"\u0120coin":2286,"\u0120coins":2911,"\u0120col":890,"\u0120cold":1377,"\u0120coll":1828,"\u0120collar":3511,"\u0120collect":2176,"\u0120color":982,"\u0120colorful":1737,"\u0120colors":1467,"\u0120colour":2392,"\u0120colourful":2936,"\u0120colours":4085,"\u0120com":773,"\u0120comb":3391,"\u0120come":880,"\u0120comes":2030,"\u0120comet":4055,"\u0120comfort":2095,"\u0120comfortable":2677,"\u0120coming":1290,"\u0120comp":1527,"\u0120compass":3333,"\u0120compassion":3427,"\u0120compassionate":3680,"\u0120compet":3149,"\u0120competit":3192,"\u0120competitive":3866,"\u0120compl":3806,"\u0120complet":3462,"\u0120complete":4089,"\u0120comput":3594,"\u0120computer":3797,"\u0120con":958,"\u0120cone":3311,"\u0120confused":2301,"\u0120cont":1188,"\u0120content":2768,"\u0120contin":1439,"\u0120continued":1478,"\u0120coo":2442,"\u0120cook":1165,"\u0120cooked":4045,"\u0120cookie":2380,"\u0120cookies":1541,"\u0120cooking":3575,"\u0120cool":1337,"\u0120cooler":3818,"\u0120cop":3206,"\u0120cord":3744,"\u0120corn":1898,"\u0120corner":2329,"\u0120cost":2916,"\u0120costum":3292,"\u0120cou":1948,"\u0120couch":2253,"\u0120could":457,"\u0120couldn":739,"\u0120count":1476,"\u0120counted":3191,"\u0120counting":3500,"\u0120country":3741,"\u0120cour":1852,"\u0120courage":3768,"\u0120course":1885,"\u0120cover":2882,"\u0120covered":2815,"\u0120cow":2027,"\u0120cows":3906,"\u0120cozy":2063,"\u0120cr":1240,"\u0120cra":1234,"\u0120crab":2513,"\u0120crack":3211,"\u0120crane":3659,"\u0120craw":2925,"\u0120crawl":2889,"\u0120crawled":2931,"\u0120cray":1803,"\u0120crayon":3135,"\u0120crayons":2157,"\u0120crazy":3642,"\u0120cre":975,"\u0120cream":1578,"\u0120creat":1487,"\u0120create":3516,"\u0120creative":2425,"\u0120creature":2138,"\u0120creatures":3786,"\u0120cri":2688,"\u0120cricket":3615,"\u0120cried":1314,"\u0120cries":2621,"\u0120cro":2611,"\u0120crocod":3589,"\u0120crocodile":3772,"\u0120cross":2959,"\u0120crown":2852,"\u0120cry":972,"\u0120crying":1750,"\u0120cryst":3832,"\u0120crystal":4020,"\u0120cu":905,"\u0120cudd":3274,"\u0120cup":1703,"\u0120cupboard":3742,"\u0120cur":3514,"\u0120curi":1137,"\u0120curious":1161,"\u0120curt":3958,"\u0120curtain":3963,"\u0120cush":3536,"\u0120cushion":3870,"\u0120cut":1276,"\u0120cute":2053,"\u0120d":277,"\u0120dad":638,"\u0120daddy":1582,"\u0120dan":914,"\u0120dance":1661,"\u0120danced":2169,"\u0120dancing":2648,"\u0120danger":1622,"\u0120dangerous":1765,"\u0120dark":1385,"\u0120daughter":2045,"\u0120day":356,"\u0120days":2083,"\u0120de":1120,"\u0120dead":3440,"\u0120deaf":3862,"\u0120dec":593,"\u0120decid":615,"\u0120decide":2867,"\u0120decided":618,"\u0120decor":2608,"\u0120decorate":3982,"\u0120deep":1632,"\u0120deer":2835,"\u0120del":1060,"\u0120delic":1340,"\u0120delicate":3409,"\u0120delicious":1463,"\u0120delight":2364,"\u0120delighted":3301,"\u0120deliver":3451,"\u0120depend":2935,"\u0120dependable":3044,"\u0120des":1976,"\u0120design":3225,"\u0120desk":3362,"\u0120dess":4013,"\u0120dessert":4068,"\u0120dest":2731,"\u0120destro":3489,"\u0120destroy":3662,"\u0120determ":2564,"\u0120determined":2703,"\u0120di":2244,"\u0120diamond":3007,"\u0120did":456,"\u0120didn":647,"\u0120dif":1047,"\u0120differe":1125,"\u0120different":1152,"\u0120diffic":3122,"\u0120difficult":3151,"\u0120dig":2880,"\u0120din":1336,"\u0120dinner":1535,"\u0120dinosaur":2687,"\u0120dir":1443,"\u0120dirt":2270,"\u0120dirty":1784,"\u0120dis":1066,"\u0120disapp":1783,"\u0120disappeared":2834,"\u0120disappo":2523,"\u0120disappointed":2578,"\u0120disco":2026,"\u0120discover":3441,"\u0120discovered":2793,"\u0120disg":3545,"\u0120disgust":3555,"\u0120disgusting":3681,"\u0120dish":2886,"\u0120dishes":4058,"\u0120dist":1958,"\u0120distance":2841,"\u0120distant":3724,"\u0120dizzy":3011,"\u0120do":383,"\u0120doctor":1741,"\u0120does":1157,"\u0120doesn":3503,"\u0120dog":628,"\u0120dogs":2812,"\u0120doing":1387,"\u0120doll":943,"\u0120dolls":1693,"\u0120dolp":3077,"\u0120dolphin":3583,"\u0120don":852,"\u0120done":1288,"\u0120door":955,"\u0120dough":3449,"\u0120dove":3184,"\u0120down":624,"\u0120dr":1214,"\u0120dra":953,"\u0120dragon":1747,"\u0120drank":2837,"\u0120draw":1232,"\u0120drawer":3700,"\u0120drawing":2791,"\u0120dre":817,"\u0120dream":1386,"\u0120dreamed":3053,"\u0120dreaming":3394,"\u0120dreams":3080,"\u0120dress":1122,"\u0120drew":2569,"\u0120dri":1341,"\u0120drink":1945,"\u0120drive":2316,"\u0120driver":2011,"\u0120driving":3504,"\u0120dro":1343,"\u0120drop":2743,"\u0120dropped":1905,"\u0120drove":1853,"\u0120drum":2673,"\u0120dry":1896,"\u0120duck":1284,"\u0120ducks":2137,"\u0120dug":3718,"\u0120dull":3312,"\u0120dust":3597,"\u0120e":322,"\u0120each":758,"\u0120eag":2245,"\u0120eager":2858,"\u0120ear":2118,"\u0120early":3468,"\u0120ears":3041,"\u0120earth":3359,"\u0120eas":2158,"\u0120easy":2690,"\u0120eat":749,"\u0120eating":1790,"\u0120ed":2868,"\u0120edge":3081,"\u0120egg":2052,"\u0120eggs":2779,"\u0120either":3998,"\u0120el":1464,"\u0120eld":2766,"\u0120elderly":2859,"\u0120ele":1691,"\u0120elephant":1868,"\u0120else":1485,"\u0120em":1678,"\u0120embarra":2280,"\u0120embarrassed":2370,"\u0120emp":2418,"\u0120empty":2427,"\u0120en":747,"\u0120enc":3445,"\u0120encou":3619,"\u0120end":818,"\u0120ending":3413,"\u0120ener":3901,"\u0120eng":3592,"\u0120engine":3781,"\u0120enjoy":1065,"\u0120enjoyed":1410,"\u0120enjoying":3079,"\u0120enorm":3248,"\u0120enormous":3261,"\u0120enough":1516,"\u0120ent":2197,"\u0120enth":3814,"\u0120enthus":3850,"\u0120env":3549,"\u0120envel":3272,"\u0120envelope":3381,"\u0120envious":3828,"\u0120er":3382,"\u0120eraser":3910,"\u0120es":1955,"\u0120esc":2740,"\u0120escape":3259,"\u0120especially":2656,"\u0120even":843,"\u0120eventually":2367,"\u0120ever":1069,"\u0120every":614,"\u0120everyone":1080,"\u0120everything":1586,"\u0120everywhere":1700,"\u0120ex":466,"\u0120exam":2694,"\u0120exc":576,"\u0120excite":2735,"\u0120excited":616,"\u0120excitedly":3315,"\u0120excitement":2775,"\u0120exciting":2058,"\u0120exclaimed":3108,"\u0120exerc":4034,"\u0120exp":1951,"\u0120expensive":2649,"\u0120exper":4029,"\u0120expl":757,"\u0120explain":3968,"\u0120explained":1882,"\u0120explore":973,"\u0120explored":3197,"\u0120exploring":1947,"\u0120ext":2944,"\u0120extra":3022,"\u0120ey":994,"\u0120eye":2912,"\u0120eyes":1058,"\u0120f":272,"\u0120fa":536,"\u0120face":1150,"\u0120faces":2294,"\u0120fair":1434,"\u0120fairy":1839,"\u0120fake":2758,"\u0120fall":1539,"\u0120falls":2989,"\u0120fam":867,"\u0120family":911,"\u0120famous":2833,"\u0120fan":2114,"\u0120fancy":2575,"\u0120far":987,"\u0120farm":2041,"\u0120farmer":1770,"\u0120fast":838,"\u0120faster":1720,"\u0120fat":3232,"\u0120father":2899,"\u0120fav":1179,"\u0120favor":1271,"\u0120favorite":1274,"\u0120favour":2954,"\u0120favourite":2977,"\u0120fe":511,"\u0120fear":2595,"\u0120fearful":3909,"\u0120feather":2231,"\u0120feathers":2888,"\u0120feed":2592,"\u0120feel":632,"\u0120feeling":991,"\u0120feels":1812,"\u0120feet":2363,"\u0120fell":1186,"\u0120felt":506,"\u0120fence":1840,"\u0120few":1576,"\u0120fi":835,"\u0120field":1664,"\u0120fier":3164,"\u0120fierce":3189,"\u0120fig":2700,"\u0120fight":1520,"\u0120fighting":2351,"\u0120figure":3048,"\u0120fil":2609,"\u0120fill":2682,"\u0120filled":1474,"\u0120film":3770,"\u0120filthy":3983,"\u0120fin":924,"\u0120finally":1547,"\u0120find":626,"\u0120finding":3444,"\u0120fine":2952,"\u0120fing":2100,"\u0120finger":2678,"\u0120fingers":3298,"\u0120finish":2361,"\u0120finished":1412,"\u0120fire":1201,"\u0120fireman":3658,"\u0120first":1183,"\u0120fis":2865,"\u0120fish":1084,"\u0120fit":2065,"\u0120five":3972,"\u0120fix":1265,"\u0120fixed":2350,"\u0120fl":594,"\u0120flag":2785,"\u0120flash":2974,"\u0120flashlight":3339,"\u0120flew":930,"\u0120flex":3448,"\u0120flexible":3520,"\u0120flo":1203,"\u0120floor":1352,"\u0120flour":3730,"\u0120flow":824,"\u0120flower":1326,"\u0120flowers":1078,"\u0120fluffy":2819,"\u0120flut":2506,"\u0120flute":2990,"\u0120fly":932,"\u0120flying":1647,"\u0120fo":791,"\u0120fold":2391,"\u0120follow":1115,"\u0120followed":1429,"\u0120food":1037,"\u0120fool":2953,"\u0120foolish":3013,"\u0120foot":2266,"\u0120football":3907,"\u0120for":366,"\u0120fore":939,"\u0120forest":1068,"\u0120forever":2037,"\u0120forg":1155,"\u0120forgave":3834,"\u0120forget":1835,"\u0120forgive":2357,"\u0120forgot":1454,"\u0120fork":3279,"\u0120forth":3490,"\u0120forward":2499,"\u0120found":589,"\u0120fountain":3221,"\u0120four":3119,"\u0120fox":1650,"\u0120fr":981,"\u0120frag":3210,"\u0120fragile":3260,"\u0120fre":2861,"\u0120free":1881,"\u0120fresh":3267,"\u0120fridge":2790,"\u0120friend":413,"\u0120friendly":1447,"\u0120friends":474,"\u0120friendship":3553,"\u0120fright":3169,"\u0120frightened":3293,"\u0120fro":1311,"\u0120frog":1406,"\u0120from":575,"\u0120front":2222,"\u0120frown":3062,"\u0120frowned":4066,"\u0120fruit":1792,"\u0120fruits":2800,"\u0120frustr":2535,"\u0120frustrated":2574,"\u0120fu":3801,"\u0120full":1359,"\u0120fun":488,"\u0120funny":1300,"\u0120fur":1545,"\u0120furry":2309,"\u0120further":3795,"\u0120g":291,"\u0120game":1261,"\u0120games":1878,"\u0120gar":2573,"\u0120garage":2663,"\u0120garden":851,"\u0120gas":2614,"\u0120gasped":3582,"\u0120gate":2680,"\u0120gather":2206,"\u0120gathered":2751,"\u0120gave":730,"\u0120gem":3183,"\u0120gen":2489,"\u0120gener":2604,"\u0120generous":2692,"\u0120gent":1483,"\u0120gentle":1871,"\u0120gently":2307,"\u0120get":601,"\u0120gets":2772,"\u0120getting":1514,"\u0120ghost":3571,"\u0120gi":1333,"\u0120giant":2199,"\u0120gif":1731,"\u0120gift":2049,"\u0120gifted":3780,"\u0120gigg":2089,"\u0120giggle":3876,"\u0120giggled":2713,"\u0120gira":3570,"\u0120giraffe":4046,"\u0120girl":444,"\u0120give":1036,"\u0120gives":2121,"\u0120giving":3058,"\u0120gl":864,"\u0120glad":1217,"\u0120glass":2720,"\u0120gloomy":3895,"\u0120glow":2894,"\u0120glue":2708,"\u0120go":438,"\u0120goal":3802,"\u0120goat":3137,"\u0120goes":2278,"\u0120going":954,"\u0120gold":2529,"\u0120golf":4016,"\u0120gone":1475,"\u0120good":585,"\u0120goodbye":1149,"\u0120goose":3675,"\u0120gorilla":3966,"\u0120got":609,"\u0120gr":840,"\u0120gra":649,"\u0120grab":2144,"\u0120grabbed":1206,"\u0120grace":3061,"\u0120graceful":3464,"\u0120grand":3417,"\u0120grandma":1470,"\u0120grandpa":3051,"\u0120grap":3231,"\u0120grass":1221,"\u0120grate":1689,"\u0120grateful":1704,"\u0120gray":2550,"\u0120gre":775,"\u0120great":1070,"\u0120green":1338,"\u0120grew":2431,"\u0120ground":964,"\u0120group":2507,"\u0120grow":1636,"\u0120growing":3644,"\u0120grown":3046,"\u0120grumpy":2661,"\u0120gu":1698,"\u0120guard":3492,"\u0120guess":3021,"\u0120guilty":3510,"\u0120guit":3180,"\u0120guitar":3245,"\u0120gum":3565,"\u0120gun":2479,"\u0120h":269,"\u0120ha":297,"\u0120had":361,"\u0120hadn":4057,"\u0120hair":1329,"\u0120haircut":3969,"\u0120hairy":3477,"\u0120half":3331,"\u0120hall":3885,"\u0120ham":3056,"\u0120hammer":3616,"\u0120hand":726,"\u0120handed":3656,"\u0120handle":3522,"\u0120hands":1051,"\u0120hang":2765,"\u0120happ":375,"\u0120happen":1903,"\u0120happened":1190,"\u0120happening":2967,"\u0120happier":4049,"\u0120happily":1376,"\u0120happiness":3098,"\u0120happy":402,"\u0120har":2450,"\u0120hard":877,"\u0120harder":3242,"\u0120harm":2996,"\u0120harmless":3637,"\u0120harsh":3751,"\u0120has":1010,"\u0120hat":1263,"\u0120hats":3095,"\u0120have":462,"\u0120having":1241,"\u0120hay":3395,"\u0120he":279,"\u0120head":1098,"\u0120heal":1809,"\u0120healthy":2202,"\u0120hear":1416,"\u0120heard":755,"\u0120hears":2462,"\u0120heart":1824,"\u0120heavy":1769,"\u0120hedge":3704,"\u0120hel":2671,"\u0120held":1411,"\u0120hello":2076,"\u0120helm":3419,"\u0120helmet":3848,"\u0120help":478,"\u0120helped":1184,"\u0120helpful":2317,"\u0120helping":1744,"\u0120helpless":3843,"\u0120helps":3157,"\u0120her":309,"\u0120here":1211,"\u0120hero":2948,"\u0120herself":1432,"\u0120hid":1435,"\u0120hidden":2487,"\u0120hide":1633,"\u0120hiding":2401,"\u0120hig":1800,"\u0120high":1140,"\u0120higher":1858,"\u0120hill":1408,"\u0120him":433,"\u0120himself":1272,"\u0120hipp":3494,"\u0120hippo":3610,"\u0120his":349,"\u0120hit":1831,"\u0120hive":3936,"\u0120ho":687,"\u0120hockey":3991,"\u0120hold":1353,"\u0120holding":2078,"\u0120holds":3569,"\u0120hole":1346,"\u0120holes":3938,"\u0120home":580,"\u0120hon":2234,"\u0120honest":2556,"\u0120honey":2171,"\u0120hook":3735,"\u0120hoop":3341,"\u0120hop":1148,"\u0120hope":2136,"\u0120hoped":1826,"\u0120hopped":1361,"\u0120hopping":2709,"\u0120hor":2258,"\u0120horn":2928,"\u0120horse":2374,"\u0120hose":3271,"\u0120hosp":2599,"\u0120hospital":2607,"\u0120hot":1466,"\u0120hours":2602,"\u0120house":720,"\u0120houses":3263,"\u0120how":704,"\u0120hug":577,"\u0120huge":2074,"\u0120hugged":770,"\u0120hugs":1907,"\u0120hum":2413,"\u0120human":3898,"\u0120humble":3488,"\u0120hun":1442,"\u0120hung":3731,"\u0120hungry":1558,"\u0120hunt":2898,"\u0120hunter":3529,"\u0120hur":2718,"\u0120hurry":3771,"\u0120hurt":881,"\u0120hurts":2930,"\u0120ice":1422,"\u0120icy":3213,"\u0120ide":977,"\u0120idea":995,"\u0120if":750,"\u0120ign":2319,"\u0120ignorant":3701,"\u0120im":815,"\u0120imag":2085,"\u0120imagined":3467,"\u0120imp":908,"\u0120impat":3624,"\u0120impatient":3645,"\u0120import":1083,"\u0120important":1100,"\u0120impre":2232,"\u0120impress":3379,"\u0120impressed":2940,"\u0120impressive":3506,"\u0120impro":3794,"\u0120in":316,"\u0120inc":2111,"\u0120incl":4052,"\u0120incred":2897,"\u0120incredible":2947,"\u0120ind":2866,"\u0120independ":3160,"\u0120independent":3219,"\u0120ing":3447,"\u0120ingredient":3465,"\u0120ingredients":3482,"\u0120inside":729,"\u0120inst":1901,"\u0120instead":2104,"\u0120int":686,"\u0120intellig":3579,"\u0120intelligent":3674,"\u0120intere":2072,"\u0120interesting":2168,"\u0120into":734,"\u0120inv":2033,"\u0120invited":3203,"\u0120is":406,"\u0120island":3200,"\u0120it":304,"\u0120its":910,"\u0120itself":3774,"\u0120j":442,"\u0120jack":3045,"\u0120jacket":3493,"\u0120jam":2994,"\u0120jar":1949,"\u0120je":1777,"\u0120jealous":2913,"\u0120jeep":3808,"\u0120jelly":2763,"\u0120jet":3852,"\u0120jew":2617,"\u0120jewel":3054,"\u0120jo":786,"\u0120job":1713,"\u0120jog":2988,"\u0120join":1715,"\u0120joined":3198,"\u0120joke":2961,"\u0120jokes":4050,"\u0120jolly":3474,"\u0120jour":1888,"\u0120journey":2079,"\u0120joy":1595,"\u0120ju":1552,"\u0120jug":3685,"\u0120juice":2003,"\u0120juicy":2906,"\u0120jump":868,"\u0120jumped":1224,"\u0120jumping":2522,"\u0120jumps":3756,"\u0120jungle":2423,"\u0120just":777,"\u0120k":395,"\u0120kangaroo":3604,"\u0120kay":3824,"\u0120kayak":4053,"\u0120ke":657,"\u0120keep":961,"\u0120kept":944,"\u0120key":1969,"\u0120kick":2154,"\u0120kicked":3363,"\u0120kid":1213,"\u0120kids":1299,"\u0120kind":819,"\u0120kindness":2910,"\u0120kinds":3265,"\u0120king":2035,"\u0120kiss":2188,"\u0120kissed":2722,"\u0120kitc":1197,"\u0120kitchen":1198,"\u0120kite":2002,"\u0120kitten":2408,"\u0120kn":479,"\u0120kne":669,"\u0120knee":2274,"\u0120knew":699,"\u0120knife":2826,"\u0120knight":2825,"\u0120knock":3473,"\u0120knocked":2438,"\u0120know":688,"\u0120knowing":2542,"\u0120knows":3186,"\u0120l":275,"\u0120la":579,"\u0120lab":3369,"\u0120lad":2275,"\u0120ladder":2318,"\u0120lady":1268,"\u0120lake":1645,"\u0120lamp":2920,"\u0120land":1681,"\u0120landed":2551,"\u0120large":2386,"\u0120laser":3854,"\u0120last":2336,"\u0120late":1931,"\u0120later":2099,"\u0120laug":698,"\u0120laugh":1394,"\u0120laughed":866,"\u0120laughing":2073,"\u0120laughs":3109,"\u0120laund":4072,"\u0120laundry":4094,"\u0120law":3399,"\u0120lay":2241,"\u0120lazy":2805,"\u0120le":492,"\u0120lea":1193,"\u0120lead":2750,"\u0120leaf":2534,"\u0120lean":3114,"\u0120learn":680,"\u0120learned":796,"\u0120learning":3065,"\u0120learnt":3976,"\u0120leave":1637,"\u0120leaves":1481,"\u0120leaving":3435,"\u0120led":3602,"\u0120left":1402,"\u0120leg":1887,"\u0120legs":2552,"\u0120lem":2533,"\u0120lemon":2774,"\u0120leop":3775,"\u0120leopard":3933,"\u0120less":1255,"\u0120lesson":1342,"\u0120let":901,"\u0120letter":2066,"\u0120letters":3858,"\u0120li":374,"\u0120libr":2957,"\u0120library":3457,"\u0120licked":2950,"\u0120life":2092,"\u0120lift":2046,"\u0120lifted":3030,"\u0120light":1334,"\u0120lightning":4026,"\u0120lights":3243,"\u0120like":516,"\u0120liked":612,"\u0120likes":1404,"\u0120line":2613,"\u0120lion":1426,"\u0120lip":3954,"\u0120list":872,"\u0120listen":1041,"\u0120listened":1581,"\u0120listening":4076,"\u0120lit":2789,"\u0120little":396,"\u0120live":2368,"\u0120lived":902,"\u0120living":1684,"\u0120liz":3174,"\u0120lizard":3303,"\u0120lo":428,"\u0120load":3708,"\u0120lock":2781,"\u0120locked":3368,"\u0120log":3019,"\u0120lollipop":3696,"\u0120lon":1843,"\u0120lonely":1859,"\u0120long":789,"\u0120longer":1872,"\u0120loo":427,"\u0120look":670,"\u0120looked":514,"\u0120looking":1039,"\u0120looks":1308,"\u0120lose":2877,"\u0120lost":1379,"\u0120lot":665,"\u0120lots":861,"\u0120loud":863,"\u0120louder":3012,"\u0120loudly":3082,"\u0120love":811,"\u0120loved":497,"\u0120lovely":2190,"\u0120loves":2226,"\u0120low":3352,"\u0120loyal":3090,"\u0120lucky":2135,"\u0120lunch":1943,"\u0120lying":2847,"\u0120m":280,"\u0120ma":1022,"\u0120mach":2344,"\u0120machine":2516,"\u0120mad":2016,"\u0120made":555,"\u0120mag":1141,"\u0120magic":1280,"\u0120magical":1733,"\u0120magn":3075,"\u0120magnet":3692,"\u0120mail":1982,"\u0120mailbox":3769,"\u0120make":540,"\u0120makes":1577,"\u0120making":1293,"\u0120man":510,"\u0120managed":2960,"\u0120many":787,"\u0120map":2869,"\u0120mar":1517,"\u0120marble":3105,"\u0120march":2757,"\u0120mark":2029,"\u0120market":3016,"\u0120mask":3617,"\u0120mat":1965,"\u0120match":2596,"\u0120math":3646,"\u0120matter":2242,"\u0120may":3745,"\u0120maybe":2477,"\u0120me":526,"\u0120meadow":2490,"\u0120meal":3459,"\u0120mean":1101,"\u0120means":3134,"\u0120meant":2480,"\u0120meas":4005,"\u0120measure":2938,"\u0120med":2251,"\u0120medic":2620,"\u0120medicine":2637,"\u0120meet":2163,"\u0120mel":3485,"\u0120melon":3787,"\u0120melt":3003,"\u0120mem":3268,"\u0120mess":1237,"\u0120message":3863,"\u0120messy":2674,"\u0120met":1562,"\u0120metal":3588,"\u0120mic":2824,"\u0120micr":3847,"\u0120microphone":3873,"\u0120middle":2762,"\u0120might":1458,"\u0120mighty":2822,"\u0120mil":2023,"\u0120milk":2087,"\u0120mill":3790,"\u0120min":1906,"\u0120mind":2312,"\u0120mine":2004,"\u0120minut":2354,"\u0120minutes":2729,"\u0120mir":2808,"\u0120mirror":2917,"\u0120mis":3406,"\u0120miserable":3733,"\u0120miss":1977,"\u0120missed":2512,"\u0120missing":3481,"\u0120mist":2080,"\u0120mistake":2725,"\u0120mix":1771,"\u0120mixed":3009,"\u0120mo":731,"\u0120mod":3100,"\u0120moder":3623,"\u0120modern":3669,"\u0120modest":3950,"\u0120mole":3208,"\u0120mom":365,"\u0120moment":1531,"\u0120mommy":660,"\u0120moms":3050,"\u0120mon":1227,"\u0120money":1729,"\u0120monkey":1801,"\u0120monster":1773,"\u0120moon":2481,"\u0120mop":3965,"\u0120mor":1128,"\u0120moral":1680,"\u0120more":684,"\u0120morning":1534,"\u0120most":1761,"\u0120mot":2500,"\u0120mother":1536,"\u0120motor":2736,"\u0120motorcycle":4065,"\u0120mountain":2277,"\u0120mouse":1383,"\u0120mouth":1719,"\u0120mov":2742,"\u0120move":1414,"\u0120moved":1962,"\u0120movie":3083,"\u0120moving":2862,"\u0120mu":578,"\u0120much":710,"\u0120mud":2314,"\u0120muff":3792,"\u0120mug":3953,"\u0120mum":1278,"\u0120mummy":2672,"\u0120mus":1532,"\u0120museum":4084,"\u0120mush":3767,"\u0120mushroom":3881,"\u0120music":1612,"\u0120must":1782,"\u0120my":651,"\u0120myster":2238,"\u0120mysterious":2594,"\u0120n":295,"\u0120nam":471,"\u0120name":1297,"\u0120named":494,"\u0120names":3612,"\u0120nap":1751,"\u0120nature":3603,"\u0120naught":1933,"\u0120naughty":1937,"\u0120ne":400,"\u0120near":1092,"\u0120nearby":1960,"\u0120neat":3577,"\u0120neck":1889,"\u0120neckl":2403,"\u0120necklace":2467,"\u0120need":782,"\u0120needed":1388,"\u0120needle":3831,"\u0120needs":3020,"\u0120neigh":1908,"\u0120neighb":1919,"\u0120neighbor":2345,"\u0120ner":2624,"\u0120nervous":2638,"\u0120nest":1997,"\u0120net":2471,"\u0120never":743,"\u0120new":570,"\u0120next":999,"\u0120nice":778,"\u0120nicely":3515,"\u0120night":1169,"\u0120no":495,"\u0120nobody":4001,"\u0120nod":2839,"\u0120nodded":1016,"\u0120nods":2572,"\u0120noise":980,"\u0120noises":1855,"\u0120noisy":2987,"\u0120norm":3162,"\u0120normal":3205,"\u0120nose":2039,"\u0120nosy":3176,"\u0120not":384,"\u0120note":3759,"\u0120notebook":3955,"\u0120nothing":2070,"\u0120notice":3216,"\u0120noticed":1055,"\u0120now":968,"\u0120nowhere":3845,"\u0120number":2586,"\u0120numbers":3217,"\u0120nurse":3320,"\u0120nut":2657,"\u0120nuts":3940,"\u0120o":285,"\u0120oat":3651,"\u0120ob":2009,"\u0120obedient":3096,"\u0120object":3796,"\u0120obser":3939,"\u0120ocean":2273,"\u0120octopus":3925,"\u0120of":346,"\u0120off":785,"\u0120offered":2900,"\u0120office":3175,"\u0120often":2721,"\u0120ok":2998,"\u0120okay":1096,"\u0120ol":3746,"\u0120old":693,"\u0120older":3855,"\u0120on":345,"\u0120once":2943,"\u0120one":631,"\u0120ones":2711,"\u0120only":1212,"\u0120onto":2128,"\u0120op":727,"\u0120open":1178,"\u0120opened":966,"\u0120opens":3517,"\u0120or":725,"\u0120orange":1940,"\u0120ord":2845,"\u0120order":3747,"\u0120ordinary":3630,"\u0120organ":2239,"\u0120organize":4060,"\u0120organized":2922,"\u0120orig":3342,"\u0120original":3373,"\u0120other":571,"\u0120others":1556,"\u0120otter":3640,"\u0120our":1145,"\u0120out":448,"\u0120outside":674,"\u0120oven":2324,"\u0120over":740,"\u0120ow":3375,"\u0120owl":1930,"\u0120own":1063,"\u0120owner":1685,"\u0120oy":3860,"\u0120p":281,"\u0120pa":1180,"\u0120pack":1834,"\u0120package":3868,"\u0120packed":2643,"\u0120pad":3987,"\u0120pain":1173,"\u0120paint":1709,"\u0120painted":3171,"\u0120painter":3811,"\u0120painting":3140,"\u0120pale":3483,"\u0120pan":2305,"\u0120pand":3639,"\u0120panda":3872,"\u0120pant":3358,"\u0120pants":3595,"\u0120pap":1256,"\u0120paper":1335,"\u0120papers":3995,"\u0120par":2204,"\u0120parade":3825,"\u0120pare":1266,"\u0120parents":1328,"\u0120park":560,"\u0120parrot":3172,"\u0120part":1327,"\u0120party":1699,"\u0120pass":2315,"\u0120passed":2653,"\u0120past":1818,"\u0120pasta":3559,"\u0120pastry":3865,"\u0120pat":1651,"\u0120patch":3580,"\u0120path":2215,"\u0120patient":2075,"\u0120patter":3576,"\u0120pattern":3596,"\u0120paw":2406,"\u0120paws":4078,"\u0120pay":2652,"\u0120pe":697,"\u0120peace":2038,"\u0120peaceful":2454,"\u0120peach":3947,"\u0120peanut":3177,"\u0120pebble":4024,"\u0120pee":3052,"\u0120peek":4073,"\u0120peeked":3469,"\u0120pen":1688,"\u0120pencil":3166,"\u0120pengu":3905,"\u0120penny":3309,"\u0120people":926,"\u0120pepper":3286,"\u0120per":1229,"\u0120perf":1425,"\u0120perfect":1573,"\u0120perform":3660,"\u0120perm":3593,"\u0120pers":1833,"\u0120persist":3436,"\u0120persistent":3560,"\u0120person":2160,"\u0120pet":1628,"\u0120ph":1934,"\u0120phone":2292,"\u0120phot":3609,"\u0120pi":1551,"\u0120pic":933,"\u0120pick":760,"\u0120picked":990,"\u0120picking":3255,"\u0120picks":2831,"\u0120picnic":2289,"\u0120picture":1015,"\u0120pictures":1518,"\u0120pie":1641,"\u0120piece":1911,"\u0120pieces":1663,"\u0120pig":1961,"\u0120pige":3487,"\u0120pigeon":3726,"\u0120pil":3039,"\u0120pile":2265,"\u0120pill":2205,"\u0120pillow":2597,"\u0120pilot":3879,"\u0120pin":2478,"\u0120pink":1503,"\u0120pir":2557,"\u0120pirate":3227,"\u0120pizz":2422,"\u0120pizza":2470,"\u0120pl":351,"\u0120plac":1904,"\u0120place":1104,"\u0120placed":3673,"\u0120places":2214,"\u0120plan":1667,"\u0120plane":2141,"\u0120plant":1723,"\u0120plants":2616,"\u0120plate":2567,"\u0120play":360,"\u0120played":754,"\u0120playful":3495,"\u0120playground":2738,"\u0120playing":598,"\u0120ple":2414,"\u0120please":1468,"\u0120pleased":2691,"\u0120po":668,"\u0120pocket":1867,"\u0120poin":1507,"\u0120point":4059,"\u0120pointed":2119,"\u0120pointing":3029,"\u0120pol":1594,"\u0120police":2539,"\u0120polite":2603,"\u0120pond":1305,"\u0120pony":3822,"\u0120pool":2409,"\u0120poor":2659,"\u0120pop":2254,"\u0120popcorn":3410,"\u0120popular":3540,"\u0120por":3883,"\u0120porch":4037,"\u0120post":3223,"\u0120pot":1774,"\u0120potato":3668,"\u0120pour":2371,"\u0120poured":3258,"\u0120pow":3275,"\u0120powder":4031,"\u0120power":2077,"\u0120powerful":2600,"\u0120pr":572,"\u0120pract":2201,"\u0120practice":3284,"\u0120practiced":3815,"\u0120pray":2707,"\u0120pre":685,"\u0120prep":3316,"\u0120pres":2126,"\u0120present":2186,"\u0120pressed":3888,"\u0120pret":759,"\u0120pretend":1281,"\u0120pretended":2284,"\u0120pretending":3778,"\u0120pretty":951,"\u0120pri":2679,"\u0120prin":1250,"\u0120prince":2514,"\u0120princess":1743,"\u0120print":3527,"\u0120prize":3661,"\u0120pro":1755,"\u0120problem":2152,"\u0120prom":1322,"\u0120promise":2164,"\u0120promised":1652,"\u0120prot":2247,"\u0120protect":2262,"\u0120proud":736,"\u0120proudly":3283,"\u0120pu":836,"\u0120pudd":2150,"\u0120puddle":2464,"\u0120pull":1202,"\u0120pulled":1648,"\u0120pulls":3993,"\u0120pump":3040,"\u0120pumpkin":3472,"\u0120pun":4014,"\u0120pup":3479,"\u0120puppy":1597,"\u0120purp":2062,"\u0120purple":2094,"\u0120purse":3736,"\u0120pus":1301,"\u0120push":2326,"\u0120pushed":1820,"\u0120pushing":4009,"\u0120put":569,"\u0120puts":2224,"\u0120puzz":2170,"\u0120puzzle":2484,"\u0120qu":738,"\u0120quar":3967,"\u0120queen":2820,"\u0120quest":2177,"\u0120question":3501,"\u0120questions":2783,"\u0120quick":1064,"\u0120quickly":1110,"\u0120quiet":1752,"\u0120quite":4043,"\u0120r":330,"\u0120ra":886,"\u0120rabbit":1103,"\u0120race":1754,"\u0120raced":3402,"\u0120rad":2759,"\u0120rain":1081,"\u0120rainbow":1999,"\u0120ran":549,"\u0120rare":2923,"\u0120rat":3376,"\u0120raven":3926,"\u0120re":404,"\u0120reach":1732,"\u0120reached":1230,"\u0120read":1382,"\u0120reading":3819,"\u0120ready":1254,"\u0120real":969,"\u0120realised":2965,"\u0120realized":1222,"\u0120really":1267,"\u0120rec":2325,"\u0120rece":3653,"\u0120reco":3729,"\u0120recogn":3880,"\u0120record":3008,"\u0120red":916,"\u0120ref":3168,"\u0120refused":3557,"\u0120reg":2625,"\u0120regular":3344,"\u0120reinde":3690,"\u0120reindeer":3739,"\u0120rel":1446,"\u0120relax":2792,"\u0120reliable":3117,"\u0120relie":1985,"\u0120relieved":2064,"\u0120rem":895,"\u0120remember":1050,"\u0120remembered":1358,"\u0120remind":2376,"\u0120reminded":3273,"\u0120rep":2436,"\u0120repe":3809,"\u0120repl":1073,"\u0120replied":1117,"\u0120resc":3262,"\u0120rescue":4030,"\u0120resist":3607,"\u0120resp":1994,"\u0120respect":2256,"\u0120respectful":3957,"\u0120rest":1244,"\u0120restaur":3629,"\u0120restaurant":3631,"\u0120restless":3740,"\u0120ret":2112,"\u0120return":2130,"\u0120returned":2618,"\u0120reward":3817,"\u0120rhinoceros":4021,"\u0120rice":3816,"\u0120rich":3120,"\u0120rid":2798,"\u0120ride":1607,"\u0120riding":3971,"\u0120right":1105,"\u0120ring":2353,"\u0120river":1745,"\u0120ro":521,"\u0120road":2113,"\u0120roar":2545,"\u0120roared":3923,"\u0120rob":2412,"\u0120robot":2455,"\u0120rock":949,"\u0120rocket":2393,"\u0120rocks":1920,"\u0120rode":3254,"\u0120roll":1571,"\u0120rolled":2210,"\u0120rolling":4028,"\u0120roof":3306,"\u0120room":752,"\u0120rope":2151,"\u0120rose":3791,"\u0120rough":2949,"\u0120round":2034,"\u0120ru":1220,"\u0120rub":3538,"\u0120rubb":3546,"\u0120rubbed":3550,"\u0120rude":2449,"\u0120rug":3199,"\u0120ruined":2670,"\u0120rules":3722,"\u0120run":719,"\u0120running":1365,"\u0120runs":1671,"\u0120rushed":3420,"\u0120s":260,"\u0120sa":296,"\u0120sack":2293,"\u0120sad":568,"\u0120sadly":3753,"\u0120saf":2218,"\u0120safe":897,"\u0120safely":3017,"\u0120said":328,"\u0120sail":1546,"\u0120sailed":2712,"\u0120sailor":4027,"\u0120sal":2308,"\u0120salad":3290,"\u0120salt":3892,"\u0120same":1785,"\u0120sand":1218,"\u0120sandbox":4002,"\u0120sandw":2178,"\u0120sandwich":2655,"\u0120sandwiches":3707,"\u0120sang":1914,"\u0120sat":1380,"\u0120sauce":3247,"\u0120save":2482,"\u0120saved":2662,"\u0120saw":411,"\u0120say":491,"\u0120saying":3201,"\u0120says":561,"\u0120sc":502,"\u0120scale":3655,"\u0120scar":2379,"\u0120scare":3158,"\u0120scared":629,"\u0120scarf":2646,"\u0120scary":1542,"\u0120scatter":3578,"\u0120school":1836,"\u0120scissors":2630,"\u0120scold":3853,"\u0120scoot":3591,"\u0120scooter":3871,"\u0120scr":2676,"\u0120scrat":3372,"\u0120scre":1482,"\u0120scream":2593,"\u0120screamed":2290,"\u0120screen":3403,"\u0120se":437,"\u0120sea":1950,"\u0120seal":4033,"\u0120sear":1593,"\u0120search":2261,"\u0120searched":2122,"\u0120searching":3300,"\u0120seat":2297,"\u0120sec":1657,"\u0120second":3812,"\u0120secret":1891,"\u0120see":513,"\u0120seed":2510,"\u0120seeds":3266,"\u0120seek":2584,"\u0120seem":3246,"\u0120seemed":1954,"\u0120seen":1302,"\u0120sees":1196,"\u0120sel":2468,"\u0120selfish":2517,"\u0120sell":2871,"\u0120send":3765,"\u0120sent":3945,"\u0120separ":4022,"\u0120ser":2321,"\u0120serious":3364,"\u0120set":1374,"\u0120sett":3587,"\u0120sh":381,"\u0120shadow":3766,"\u0120shake":3099,"\u0120shaking":3960,"\u0120shap":1727,"\u0120shape":3338,"\u0120shapes":1996,"\u0120shar":1694,"\u0120share":946,"\u0120shared":1672,"\u0120sharing":2554,"\u0120shark":3038,"\u0120sharp":2165,"\u0120she":337,"\u0120sheep":2629,"\u0120shel":3599,"\u0120shelf":2525,"\u0120shell":2159,"\u0120shells":3299,"\u0120shield":3728,"\u0120shine":3652,"\u0120shining":2203,"\u0120shiny":965,"\u0120ship":2706,"\u0120shirt":2397,"\u0120shiver":3497,"\u0120sho":1400,"\u0120shocked":3566,"\u0120shoe":3671,"\u0120shoes":1968,"\u0120shone":3327,"\u0120shook":1959,"\u0120shoot":2872,"\u0120shop":1902,"\u0120shopkeeper":3970,"\u0120shore":2640,"\u0120short":4041,"\u0120should":927,"\u0120shout":1097,"\u0120shouted":1269,"\u0120shouts":3904,"\u0120show":708,"\u0120showed":1072,"\u0120showing":3308,"\u0120shows":2817,"\u0120shr":2235,"\u0120shrimp":3763,"\u0120shut":3737,"\u0120shy":2390,"\u0120sick":1992,"\u0120side":1640,"\u0120sighed":2734,"\u0120sight":2803,"\u0120sign":1753,"\u0120sil":2794,"\u0120silly":1621,"\u0120silver":3725,"\u0120sing":1235,"\u0120singing":1956,"\u0120sink":3585,"\u0120sister":1639,"\u0120sit":1599,"\u0120sitting":2020,"\u0120size":3935,"\u0120sk":724,"\u0120skeleton":4039,"\u0120skin":3181,"\u0120skip":3633,"\u0120skipped":2773,"\u0120sky":839,"\u0120sl":715,"\u0120sleep":1368,"\u0120sleeping":3649,"\u0120sleepy":2580,"\u0120slid":2291,"\u0120slide":1071,"\u0120slides":3519,"\u0120slipped":3092,"\u0120slow":1390,"\u0120slowly":1701,"\u0120sm":408,"\u0120small":790,"\u0120smaller":3234,"\u0120smart":1767,"\u0120smell":1373,"\u0120smelled":2189,"\u0120smelly":2788,"\u0120smil":460,"\u0120smile":1012,"\u0120smiled":509,"\u0120smiles":1555,"\u0120smiling":2146,"\u0120smo":1842,"\u0120smoke":2966,"\u0120smooth":2381,"\u0120sn":794,"\u0120snack":1735,"\u0120snacks":2497,"\u0120snake":2298,"\u0120sne":3450,"\u0120snee":3461,"\u0120sniff":3392,"\u0120snow":1417,"\u0120snowman":2167,"\u0120snuggled":3641,"\u0120so":352,"\u0120soap":2848,"\u0120soar":3218,"\u0120sock":3861,"\u0120sofa":3689,"\u0120soft":1252,"\u0120sol":2441,"\u0120sold":2689,"\u0120soldier":3930,"\u0120solve":3318,"\u0120some":518,"\u0120someone":1469,"\u0120somet":533,"\u0120something":563,"\u0120sometimes":1548,"\u0120somewhere":4017,"\u0120son":3383,"\u0120song":1472,"\u0120songs":2400,"\u0120soon":938,"\u0120sor":695,"\u0120sorry":714,"\u0120sort":4006,"\u0120sorts":3470,"\u0120sound":1108,"\u0120sounded":3170,"\u0120sounds":2047,"\u0120soup":1899,"\u0120sour":2511,"\u0120sp":452,"\u0120space":3332,"\u0120spaghetti":3416,"\u0120spark":1605,"\u0120sparkled":3518,"\u0120sparkly":2458,"\u0120spe":2411,"\u0120special":692,"\u0120speed":3533,"\u0120spell":3886,"\u0120spend":2749,"\u0120spent":2268,"\u0120spicy":2362,"\u0120spid":2162,"\u0120spider":2281,"\u0120spilled":3337,"\u0120spin":2194,"\u0120spinning":3614,"\u0120spl":1590,"\u0120splas":2333,"\u0120splash":2515,"\u0120splashed":2878,"\u0120split":3672,"\u0120spo":2155,"\u0120spoil":2641,"\u0120spoiled":3238,"\u0120spoke":3679,"\u0120spoon":2084,"\u0120spot":1372,"\u0120spotted":2228,"\u0120spr":1799,"\u0120spray":2407,"\u0120spread":2365,"\u0120spring":3723,"\u0120spun":3101,"\u0120squ":1151,"\u0120square":3499,"\u0120squash":3948,"\u0120squee":3094,"\u0120squirrel":1560,"\u0120st":333,"\u0120stack":3842,"\u0120stage":3297,"\u0120stairs":3236,"\u0120stamp":3397,"\u0120stand":1832,"\u0120standing":2561,"\u0120star":1892,"\u0120stared":4015,"\u0120stars":1971,"\u0120start":530,"\u0120started":551,"\u0120starting":3937,"\u0120starts":3697,"\u0120stat":3628,"\u0120station":3830,"\u0120statue":3932,"\u0120stay":898,"\u0120stayed":1529,"\u0120ste":1307,"\u0120steal":3426,"\u0120step":2405,"\u0120stepped":1763,"\u0120steps":3996,"\u0120stick":1093,"\u0120sticker":3532,"\u0120stickers":3418,"\u0120sticks":2496,"\u0120still":874,"\u0120stir":2472,"\u0120stirred":3981,"\u0120sto":976,"\u0120stom":4070,"\u0120stone":2558,"\u0120stones":2876,"\u0120stood":2541,"\u0120stop":1231,"\u0120stopped":1042,"\u0120stops":3393,"\u0120stor":917,"\u0120store":1146,"\u0120stories":1915,"\u0120storm":2132,"\u0120story":1209,"\u0120stove":3377,"\u0120str":772,"\u0120stra":2483,"\u0120strange":1585,"\u0120stranger":3491,"\u0120straw":3148,"\u0120stre":1391,"\u0120stream":3182,"\u0120street":2031,"\u0120stret":2466,"\u0120stretch":3581,"\u0120stretched":3826,"\u0120stri":3240,"\u0120string":2526,"\u0120strong":1076,"\u0120stronger":3068,"\u0120strugg":3961,"\u0120stu":2050,"\u0120stubb":3154,"\u0120stubborn":3188,"\u0120stuck":1788,"\u0120study":3334,"\u0120stuff":2719,"\u0120stumbled":3233,"\u0120stupid":3326,"\u0120su":1993,"\u0120suc":2259,"\u0120succeed":4062,"\u0120success":2698,"\u0120successful":3367,"\u0120such":1711,"\u0120sudden":3484,"\u0120suddenly":1886,"\u0120sugar":2971,"\u0120sugg":2993,"\u0120suggest":2997,"\u0120suggested":3335,"\u0120suit":3251,"\u0120sun":728,"\u0120sunf":3006,"\u0120sunflower":3212,"\u0120sunny":2115,"\u0120sunset":4007,"\u0120sunshine":2093,"\u0120super":3695,"\u0120supp":2320,"\u0120support":3712,"\u0120sur":2229,"\u0120sure":1130,"\u0120surf":3635,"\u0120surpr":935,"\u0120surprise":1350,"\u0120surprised":1405,"\u0120sw":607,"\u0120swam":1913,"\u0120swan":3064,"\u0120swe":3207,"\u0120sweater":3859,"\u0120sweet":1207,"\u0120sweetie":2836,"\u0120swim":1344,"\u0120swimming":2086,"\u0120swing":1409,"\u0120swinging":3921,"\u0120swings":1874,"\u0120switch":3894,"\u0120sword":3091,"\u0120sym":3750,"\u0120symbol":3798,"\u0120t":258,"\u0120ta":679,"\u0120table":1448,"\u0120tag":2823,"\u0120tail":1591,"\u0120take":694,"\u0120taken":2665,"\u0120takes":2010,"\u0120taking":1935,"\u0120tal":1087,"\u0120talk":1553,"\u0120talked":2175,"\u0120talking":2303,"\u0120tall":1399,"\u0120tank":3156,"\u0120tap":3543,"\u0120tape":2918,"\u0120task":3478,"\u0120tast":1286,"\u0120taste":2369,"\u0120tasted":2243,"\u0120tasty":2143,"\u0120taught":2660,"\u0120te":856,"\u0120tea":2399,"\u0120teac":1804,"\u0120teach":2295,"\u0120teacher":1854,"\u0120team":2770,"\u0120tear":3902,"\u0120tears":2755,"\u0120teddy":1623,"\u0120teeth":2372,"\u0120tele":3116,"\u0120tell":1164,"\u0120telling":3476,"\u0120tells":2508,"\u0120tem":3716,"\u0120ten":3874,"\u0120tent":2802,"\u0120ter":3036,"\u0120terri":3126,"\u0120terrible":3345,"\u0120test":2583,"\u0120th":305,"\u0120than":634,"\u0120thank":1364,"\u0120thanked":842,"\u0120thankful":2753,"\u0120that":357,"\u0120the":263,"\u0120theater":3882,"\u0120their":450,"\u0120them":447,"\u0120themselves":3387,"\u0120then":590,"\u0120there":398,"\u0120these":2585,"\u0120they":363,"\u0120thick":2929,"\u0120thin":2255,"\u0120thing":1289,"\u0120things":606,"\u0120think":1054,"\u0120thinking":3505,"\u0120thinks":1676,"\u0120thirst":3305,"\u0120thirsty":3365,"\u0120this":762,"\u0120those":3438,"\u0120though":1975,"\u0120thought":676,"\u0120thoughtful":3153,"\u0120thr":1007,"\u0120thre":1610,"\u0120thread":3922,"\u0120three":1195,"\u0120threw":1791,"\u0120through":1245,"\u0120throw":1909,"\u0120thu":3163,"\u0120thunder":3390,"\u0120tick":2761,"\u0120tid":2356,"\u0120tidy":2429,"\u0120tie":2924,"\u0120tied":3544,"\u0120tiger":2970,"\u0120tight":1465,"\u0120tightly":2432,"\u0120time":397,"\u0120times":3179,"\u0120tiny":1972,"\u0120tire":3743,"\u0120tired":1275,"\u0120to":266,"\u0120toast":3194,"\u0120today":1863,"\u0120together":559,"\u0120toil":4082,"\u0120told":723,"\u0120tom":1974,"\u0120tomato":3452,"\u0120tomorrow":2373,"\u0120too":435,"\u0120took":653,"\u0120tool":2349,"\u0120tools":3112,"\u0120tooth":3347,"\u0120top":1319,"\u0120tor":3437,"\u0120torn":3618,"\u0120touch":1330,"\u0120touched":2097,"\u0120toug":2937,"\u0120tough":2981,"\u0120tow":1048,"\u0120towards":1655,"\u0120towel":2846,"\u0120tower":1797,"\u0120towers":3807,"\u0120town":1822,"\u0120toy":507,"\u0120toys":667,"\u0120tr":709,"\u0120tra":1038,"\u0120track":3867,"\u0120train":1764,"\u0120trains":4051,"\u0120trap":3475,"\u0120trash":3665,"\u0120travel":3434,"\u0120tray":3934,"\u0120tre":544,"\u0120treasure":1665,"\u0120treasures":3846,"\u0120treat":1682,"\u0120treats":2491,"\u0120tree":666,"\u0120trees":1349,"\u0120tri":1248,"\u0120triang":3711,"\u0120triangle":4090,"\u0120trick":3804,"\u0120tricks":3890,"\u0120tried":733,"\u0120tries":2394,"\u0120trip":2252,"\u0120tripped":4008,"\u0120trop":3810,"\u0120trophy":3836,"\u0120trou":1912,"\u0120trouble":2185,"\u0120troubled":3857,"\u0120truck":1020,"\u0120trucks":2958,"\u0120true":2733,"\u0120trump":3280,"\u0120trumpet":3350,"\u0120trunk":3005,"\u0120trust":2444,"\u0120truth":3613,"\u0120try":805,"\u0120trying":1543,"\u0120tummy":3295,"\u0120tun":2230,"\u0120tunn":2933,"\u0120tunnel":3155,"\u0120tur":4081,"\u0120turn":984,"\u0120turned":1574,"\u0120turns":1873,"\u0120turt":3049,"\u0120turtle":3173,"\u0120tw":721,"\u0120twig":3066,"\u0120twins":1779,"\u0120twirl":2636,"\u0120twirled":3524,"\u0120twist":2951,"\u0120two":920,"\u0120u":323,"\u0120ugly":2528,"\u0120umb":3537,"\u0120umbre":3541,"\u0120umbrella":3693,"\u0120un":1000,"\u0120uncle":3471,"\u0120uncomfort":3558,"\u0120uncomfortable":3563,"\u0120under":893,"\u0120underst":1273,"\u0120understand":1460,"\u0120understood":2634,"\u0120unh":4086,"\u0120unique":3078,"\u0120unk":3466,"\u0120unknown":3590,"\u0120unl":3128,"\u0120unlock":4067,"\u0120unpack":3657,"\u0120unt":799,"\u0120until":809,"\u0120unusual":2856,"\u0120up":358,"\u0120upon":441,"\u0120upset":1869,"\u0120ur":3989,"\u0120us":1106,"\u0120use":1113,"\u0120used":1283,"\u0120useful":3129,"\u0120using":3139,"\u0120v":633,"\u0120val":2332,"\u0120valu":3257,"\u0120valuable":3349,"\u0120value":3878,"\u0120van":2658,"\u0120vase":2723,"\u0120ve":1674,"\u0120vegetable":2419,"\u0120vegetables":2644,"\u0120very":385,"\u0120vest":4023,"\u0120vi":4035,"\u0120view":3401,"\u0120vill":2227,"\u0120village":2426,"\u0120vine":3803,"\u0120vis":1491,"\u0120visit":1618,"\u0120visited":3864,"\u0120vo":1089,"\u0120voice":1166,"\u0120volcano":3914,"\u0120w":261,"\u0120wa":270,"\u0120waff":3703,"\u0120wagged":2726,"\u0120wagon":2956,"\u0120wait":1040,"\u0120waited":1602,"\u0120waiting":2355,"\u0120wake":3296,"\u0120wal":600,"\u0120walk":1061,"\u0120walked":934,"\u0120walking":1008,"\u0120walks":2851,"\u0120wall":1495,"\u0120wallet":3979,"\u0120walls":3110,"\u0120wand":3018,"\u0120wander":2864,"\u0120want":379,"\u0120wanted":440,"\u0120wants":1489,"\u0120war":1964,"\u0120warm":1144,"\u0120warned":3421,"\u0120was":282,"\u0120wash":2415,"\u0120washed":3407,"\u0120wasn":1587,"\u0120wat":774,"\u0120watch":1074,"\u0120watched":1116,"\u0120watching":2145,"\u0120water":735,"\u0120wave":2359,"\u0120waved":1321,"\u0120waves":2746,"\u0120way":878,"\u0120ways":3287,"\u0120we":364,"\u0120weak":2747,"\u0120weal":3060,"\u0120wealthy":3204,"\u0120wear":1384,"\u0120wearing":2279,"\u0120week":2884,"\u0120weird":3215,"\u0120welc":1717,"\u0120welcome":1879,"\u0120well":1932,"\u0120went":465,"\u0120were":429,"\u0120wet":1550,"\u0120wh":394,"\u0120whale":3230,"\u0120what":541,"\u0120whe":1900,"\u0120wheat":3732,"\u0120wheel":2739,"\u0120wheels":3608,"\u0120when":582,"\u0120whenever":2331,"\u0120where":1099,"\u0120which":2225,"\u0120while":993,"\u0120whis":2559,"\u0120whisp":2628,"\u0120whispered":3513,"\u0120whist":2042,"\u0120whistle":2437,"\u0120white":1528,"\u0120who":583,"\u0120whole":2264,"\u0120why":1316,"\u0120wide":2182,"\u0120wild":2240,"\u0120will":672,"\u0120win":1807,"\u0120wind":970,"\u0120window":1407,"\u0120windows":3666,"\u0120wing":3547,"\u0120wings":1876,"\u0120wip":2456,"\u0120wiped":3414,"\u0120wire":3428,"\u0120wis":2699,"\u0120wise":1967,"\u0120wish":1924,"\u0120wished":1371,"\u0120wishes":3827,"\u0120witch":3384,"\u0120with":343,"\u0120without":1827,"\u0120wo":883,"\u0120woke":1973,"\u0120wolf":2821,"\u0120wom":2323,"\u0120woman":2327,"\u0120won":1677,"\u0120wonder":1082,"\u0120wondered":2019,"\u0120wonderful":1453,"\u0120wood":1392,"\u0120woods":1625,"\u0120wor":537,"\u0120word":3027,"\u0120words":1780,"\u0120wore":2448,"\u0120work":1085,"\u0120worked":1363,"\u0120working":2704,"\u0120world":1259,"\u0120worm":2233,"\u0120worried":1714,"\u0120worry":1296,"\u0120would":524,"\u0120wouldn":1794,"\u0120wr":1005,"\u0120wra":2059,"\u0120wrap":3034,"\u0120wrapped":2975,"\u0120write":2200,"\u0120wrong":1420,"\u0120wrote":2787,"\u0120y":326,"\u0120yard":1849,"\u0120yarn":3084,"\u0120yawn":3720,"\u0120ye":1143,"\u0120year":2036,"\u0120years":1401,"\u0120yell":1111,"\u0120yelled":2538,"\u0120yellow":1351,"\u0120yes":1500,"\u0120yet":3354,"\u0120yog":3431,"\u0120you":350,"\u0120young":1952,"\u0120your":625,"\u0120yours":2909,"\u0120yourself":2702,"\u0120yummy":1257,"\u0120z":1191,"\u0120zebra":3915,"\u0120zip":3486,"\u0120zipper":4093,"\u0120zoo":2248,"\u0120zoom":2180,"\u0120\u00e2\u0122":3454,"\u0120\u00e2\u0122\u013e":959,"\u0121":222,"\u0122":223,"\u0123":224,"\u0124":225,"\u0125":226,"\u0126":227,"\u0127":228,"\u0128":229,"\u0129":230,"\u012a":231,"\u012b":232,"\u012c":233,"\u012d":234,"\u012e":235,"\u012f":236,"\u0130":237,"\u0131":238,"\u0132":239,"\u0133":240,"\u0134":241,"\u0135":242,"\u0136":243,"\u0137":244,"\u0138":245,"\u0139":246,"\u013a":247,"\u013b":248,"\u013c":249,"\u013d":250,"\u013e":251,"\u013f":252,"\u0140":253,"\u0141":254,"\u0142":255,"\u0143":256}},"normalizer":null,"padding":null,"post_processor":{"add_prefix_space":true,"trim_offsets":false,"type":"ByteLevel","use_regex":true},"pre_tokenizer":{"add_prefix_space":false,"trim_offsets":true,"type":"ByteLevel","use_regex":true},"truncation":null,"version":"1.0"}