{"added_tokens":[{"content":"<unk>","id":0,"lstrip":false,"normalized":false,"rstrip":false,"single_word":false,"special":true}],"decoder":{"add_prefix_space":true,"trim_offsets":true,"type":"ByteLevel","use_regex":true},"model":{"byte_fallback":false,"continuing_subword_prefix":null,"dropout":null,"end_of_word_suffix":null,"fuse_unk":false,"ignore_merges":false,"merges":[["\u0120","t"],["\u0120","a"],["h","e"],["i","n"],["\u0120t","he"],["e","r"],["\u0120","o"],["\u0120","s"],["\u0120",","],["r","e"],["\u0120","w"],["o","n"],["\u0120","c"],["e","d"],["u","n"],["\u0120","b"],["\u0120","f"],["\u0120","."],["a","t"],["e","n"],["i","t"],["\u0120","in"],["a","n"],["o","r"],["\u0120a","n"],["\u0120","p"],["i","s"],["\u0120","m"],["\u0120o","f"],["e","s"],["a","r"],["un","k"],["\u0120","<"],["a","l"],["\u0120an","d"],["\u0120","d"],["in","g"],["a","s"],["\u0120","h"],["\u0120t","o"],["r","o"],["i","c"],["\u0120","l"],["i","on"],["\u0120","n"],["\u0120","re"],["\u0120t","h"],["\u0120","="],["i","l"],["\u0120","\""],["\u0120","g"],["\u0120","e"],["en","t"],["o","u"],["\u0120","1"],["l","e"],["s","t"],["\u0120","@"],["a","m"],["o","m"],["\u0120o","n"],["\u0120b","e"],["l","y"],["\u0120w","as"],["a","d"],["a","c"],["\u0120s","t"],["u","r"],["v","e"],["\u0120","he"],["\u0120f","or"],["\u0120","'"],["\u0120a","s"],["i","m"],["i","r"],["i","d"],["-","@"],["\u0120@","-@"],["o","l"],["t","er"],["v","er"],["i","g"],["c","t"],["u","s"],["t","h"],["it","h"],["\u0120a","l"],["o","w"],["\u0120","2"],["a","y"],["\u0120w","ith"],["e","l"],["\u0120th","at"],["u","t"],["\u0120","r"],["\u0120","is"],["\u0120","it"],["o","t"],["c","e"],["at","ion"],["\u0120s","e"],["\u0120w","h"],["\u0120c","on"],["\u0120b","y"],["\u0120","j"],["\u0120a","t"],["\u0120d","e"],["c","h"],["\u0120",")"],["\u0120","("],["e","t"],["u","l"],["ro","m"],["\u0120c","h"],["\u0120","k"],["\u01201","9"],["an","d"],["a","in"],["\u0120","v"],["\u0120h","is"],["\u0120c","om"],["he","r"],["a","g"],["es","t"],["o","s"],["0","0"],["r","i"],["u","m"],["e","m"],["\u0120f","rom"],["\u0120m","o"],["er","s"],["\u0120p","ro"],["un","d"],["i","f"],["\u0120s","u"],["p","e"],["\u0120","y"],["i","es"],["er","e"],["\u0120n","e"],["o","d"],["re","s"],["l","d"],["is","t"],["at","e"],["or","t"],["il","l"],["\u0120w","ere"],["\u0120o","r"],["i","v"],["a","p"],["\u0120p","l"],["\u0120s","h"],["\u0120","ro"],["o","p"],["ig","h"],["on","g"],["ic","h"],["ar","t"],["\u0120e","x"],["al","l"],["ar","d"],["a","k"],["s","e"],["i","ve"],["\u0120l","e"],["b","er"],["am","e"],["a","b"],["g","h"],["\u0120a","re"],["u","d"],["q","u"],["at","ed"],["\u0120","un"],["an","t"],["it","y"],["re","d"],["\u0120","\u00e2"],["\u0120","en"],["\u0120t","r"],["\u0120a","r"],["es","s"],["\u0120h","ad"],["\u0120\u00e2","\u0122"],["o","c"],["ac","k"],["\u0120wh","ich"],["m","ent"],["i","e"],["u","p"],["\u0120n","ot"],["\u0120c","o"],["a","ve"],["i","p"],["r","it"],["as","t"],["\u0120a","f"],["g","e"],["or","d"],["p","t"],["i","an"],["\u0120w","he"],["al","ly"],["ou","r"],["t","her"],["in","e"],["\u0120com","p"],["a","v"],["igh","t"],["\u0120","3"],["c","l"],["\u0120th","is"],["is","h"],["ar","y"],["\u0120f","ir"],["\u0120","us"],["\u0120b","o"],["\u01202","00"],["i","a"],["\u0120c","l"],["u","st"],["\u0120b","ut"],["c","c"],["\u0120w","or"],["\u0120a","d"],["\u0120a","p"],["\u0120the","ir"],["\u0120t","w"],["\u0120fir","st"],["\u0120he","r"],["el","l"],["\u0120",";"],["\u0120con","t"],["\u0120s","c"],["s","o"],["\u0120it","s"],["id","e"],["\u0120in","t"],["ct","ion"],["\u0120a","b"],["en","d"],["\u0120af","ter"],["u","re"],["\u0120m","an"],["ou","ld"],["ou","s"],["\u0120\u00e2\u0122","\u0135"],["\u0120on","e"],["o","re"],["\u0120the","y"],["ic","al"],["\u0120","i"],["\u0120al","l"],["\u0120al","so"],["\u01202","0"],["\u0120",":"],["i","al"],["he","d"],["om","e"],["r","a"],["p","er"],["it","ion"],["u","b"],["\u0120a","m"],["\u0120re","c"],["\u0120f","e"],["\u0120p","er"],["p","ort"],["ig","n"],["u","e"],["ou","t"],["at","er"],["\u0120t","e"],["\u0120t","im"],["\u0120tw","o"],["\u0120ne","w"],["\u0120com","m"],["o","g"],["\u0120h","ave"],["\u0120s","he"],["ag","e"],["o","k"],["p","l"],["\u0120n","o"],["i","re"],["\u0120m","ar"],["e","ar"],["\u0120re","s"],["\u0120h","as"],["\u0120d","es"],["or","m"],["as","s"],["re","e"],["un","t"],["r","u"],["\u0120s","er"],["ow","n"],["\u0120pl","ay"],["\u0120be","en"],["\u0120p","o"],["\u0120wh","o"],["\u0120be","c"],["\u0120","4"],["\u0120p","art"],["\u01201","8"],["\u0120a","g"],[".","@"],["\u0120@",".@"],["\u0120o","ther"],["e","ct"],["\u0120s","p"],["d","u"],["\u0120","5"],["\u0120g","o"],["\u0120m","e"],["on","d"],["l","and"],["\u0120y","ear"],["ur","ing"],["en","ce"],["ou","gh"],["ul","t"],["a","re"],["il","e"],["u","gh"],["r","y"],["or","y"],["an","ce"],["\u0120","up"],["\u0120d","is"],["v","ed"],["\u0120e","v"],["\u0120o","ver"],["an","s"],["cl","ud"],["\u0120of","f"],["\u012020","1"],["\u0120f","in"],["ad","e"],["w","n"],["ation","s"],["\u0120","im"],["\u0120w","e"],["ac","h"],["f","f"],["ac","t"],["\u0120f","o"],["k","e"],["r","ic"],["l","ow"],["\u0120p","re"],["\u0120at","t"],[",","@"],["\u0120@",",@"],["\u0120c","ol"],["\u0120d","uring"],["\u0120o","ut"],["t","e"],["\u0120whe","n"],["\u0120c","an"],["\u0120in","clud"],["\u0120c","ent"],["an","g"],["ion","s"],["ur","n"],["\u0120tim","e"],["it","e"],["\u0120s","o"],["ic","e"],["\u0120in","ter"],["ac","e"],["\u0120e","ar"],["i","z"],["\u0120s","ong"],["ve","l"],["i","b"],["res","s"],["\u0120in","d"],["re","n"],["\u0120mo","re"],["\u0120int","o"],["\u0120s","pe"],["\u0120se","c"],["i","ver"],["c","ed"],["w","e"],["\u0120w","ould"],["\u0120for","m"],["\u0120l","o"],["t","ed"],["w","ard"],["c","es"],["\u0120b","r"],["as","on"],["a","il"],["k","s"],["ro","ugh"],["\u0120ch","ar"],["t","s"],["on","e"],["\u0120h","im"],["it","ed"],["\u0120mo","st"],["am","p"],["und","er"],["\u0120j","o"],["i","ed"],["\u0120f","l"],["as","ed"],["\u0120","6"],["\u0120be","t"],["\u0120p","e"],["en","s"],["ri","b"],["\u0120g","ame"],["\u0120m","us"],["\u0120g","r"],["os","e"],["\u0120s","ome"],["il","d"],["\u0120b","l"],["\u0120k","n"],["\u0120s","ou"],["as","e"],["i","x"],["ing","s"],["\u0120wh","ile"],["\u0120the","m"],["d","er"],["ro","und"],["\u0120","7"],["l","es"],["m","an"],["\u0120f","ol"],["\u0120m","ay"],["\u0120as","s"],["\u0120re","m"],["ab","le"],["i","ous"],["\u0120on","ly"],["\u0120o","p"],["ent","s"],["\u0120a","cc"],["ak","e"],["\u0120the","re"],["\u0120w","ar"],["w","ay"],["\u0120f","il"],["at","es"],["\u0120h","ow"],["\u0120rec","ord"],["al","s"],["\u0120re","g"],["\u0120en","g"],["ub","l"],["is","s"],["f","orm"],["\u0120th","ree"],["f","er"],["\u0120g","en"],["\u0120","ver"],["g","an"],["\u0120n","or"],["\u0120","qu"],["at","h"],["a","us"],["\u0120l","ater"],["\u0120p","ar"],["\u0120","under"],["\u0120p","r"],["\u0120re","l"],["\u0120ab","out"],["\u0120con","s"],["or","s"],["\u0120fil","m"],["\u0120th","rough"],["\u0120f","r"],["\u0120c","ar"],["we","en"],["\u0120bet","ween"],["\u012019","9"],["\u0120a","ct"],["\u0120se","ason"],["\u0120ag","ain"],["re","at"],["\u0120wor","k"],["\u0120m","in"],["\u0120","9"],["\u0120s","a"],["\u0120fol","low"],["\u0120","8"],["\u0120th","an"],["\u0120l","i"],["\u0120a","c"],["\u0120pro","du"],["ter","s"],["\u0120w","rit"],["er","ic"],["u","g"],["\u0120d","ay"],["at","t"],["\u0120en","d"],["\u0120n","um"],["ol","d"],["r","al"],["\u0120h","igh"],["\u0120re","le"],["\u0120e","m"],["ation","al"],["\u0120spe","c"],["\u0120b","u"],["\u0120w","in"],["ul","ar"],["\u0120m","on"],["f","ore"],["\u0120l","ar"],["\u0120sec","ond"],["ic","t"],["\u0120p","os"],["\u0120s","y"],["ie","w"],["am","es"],["\u0120","00"],["\u0120d","o"],["is","ion"],["\u0120nor","th"],["f","t"],["\u0120de","f"],["\u0120whe","re"],["\u0120re","t"],["\u0120f","our"],["\u0120m","a"],["h","ip"],["is","hed"],["\u0120m","ade"],["\u0120al","b"],["\u0120g","ro"],["\u0120p","ubl"],["n","ing"],["\u0120p","res"],["\u0120c","ity"],["ro","p"],["ct","ed"],["\u0120b","ro"],["\u0120wor","ld"],["\u0120am","eric"],["\u0120su","ch"],["ic","k"],["ur","y"],["\u0120su","b"],["\u0120in","c"],["c","k"],["l","l"],["\u0120l","oc"],["\u0120alb","um"],["\u0120be","fore"],["er","ed"],["\u0120g","u"],["on","s"],["\u0120sou","th"],["\u0120su","p"],["s","s"],["\u0120","ent"],["o","od"],["\u0120ap","p"],["\u0120e","le"],["\u0120us","ed"],["ol","og"],["\u0120ser","ies"],["\u0120c","all"],["\u0120s","ur"],["\u0120c","ap"],["\u0120p","ol"],["\u0120de","p"],["\u0120e","p"],["\u0120ap","pe"],["\u0120se","ver"],["if","ic"],["ter","n"],["u","al"],["\u0120how","e"],["\u0120be","ing"],["\u0120year","s"],["\u0120s","ing"],["\u0120l","a"],["\u0120bo","th"],["\u0120man","y"],["\u012000","0"],["\u0120the","se"],["\u0120gen","er"],["il","y"],["\u0120co","unt"],["\u0120his","t"],["\u0120st","ud"],["\u0120p","h"],["\u0120howe","ver"],["an","e"],["at","ing"],["\u0120des","c"],["\u0120fo","und"],["\u0120b","ack"],["\u0120","0"],["\u0120s","im"],["\u0120a","ir"],["\u0120","ed"],["i","el"],["if","e"],["in","t"],["\u0120re","v"],["\u0120s","m"],["\u0120ad","d"],["\u0120d","ire"],["\u0120w","ell"],["ic","s"],["\u0120re","ce"],["he","s"],["\u0120w","ill"],["\u0120num","ber"],["ut","e"],["\u0120l","ong"],["ir","d"],["\u0120de","c"],["\u0120li","ke"],["e","p"],["ain","ed"],["\u01201","0"],["ot","her"],["\u0120the","n"],["\u0120p","op"],["or","n"],["aus","e"],["ig","in"],["t","en"],["\u0120st","ar"],["\u0120tr","ans"],["in","ce"],["m","ber"],["\u0120re","p"],["\u0120or","igin"],["\u0120ear","ly"],["\u0120b","att"],["vel","op"],["\u0120mus","ic"],["\u0120st","ate"],["\u0120sever","al"],["\u0120ar","m"],["\u0120ep","is"],["it","ies"],["iv","ed"],["\u0120ar","t"],["\u0120per","form"],["\u0120b","rit"],["p","h"],["\u01201","2"],["\u0120char","ac"],["\u0120includ","ing"],["\u0120again","st"],["\u0120t","er"],["\u0120c","re"],["\u0120se","t"],["\u0120epis","od"],["at","ive"],["\u0120m","ain"],["\u0120s","ch"],["\u0120","/"],["\u0120m","ill"],["\u0120kn","own"],["\u0120de","velop"],["al","e"],["\u0120bec","ame"],["\u0120","z"],["\u0120te","am"],["\u0120in","v"],["j","ect"],["h","n"],["\u0120in","st"],["\u0120\u00e2\u0122","\u0136"],["em","ber"],["is","ed"],["l","i"],["\u0120p","ort"],["\u012019","8"],["in","es"],["\u0120c","rit"],["ur","ch"],["it","s"],["\u0120un","ited"],["\u01201","6"],["er","t"],["id","ent"],["\u0120sh","ow"],["o","un"],["th","ough"],["\u0120al","though"],["\u0120","est"],["an","k"],["\u0120d","iv"],["is","e"],["\u0120o","per"],["s","on"],["i","o"],["t","on"],["\u0120cent","ury"],["at","her"],["\u0120m","il"],["u","res"],["\u0120o","b"],["\u0120in","f"],["\u0120o","ld"],["\u0120jo","hn"],["\u0120","u"],["\u0120c","ro"],["\u0120con","st"],["i","et"],["\u0120le","ad"],["ment","s"],["\u0120follow","ing"],["a","ir"],["\u0120comp","an"],["\u0120th","ough"],["\u0120d","ist"],["\u0120s","ign"],["\u0120ch","r"],["\u0120l","and"],["iel","d"],["\u0120cont","in"],["\u012019","4"],["\u0120c","are"],["ver","n"],["\u0120r","un"],["o","ol"],["p","os"],["l","ed"],["\u0120sh","ip"],["\u0120comp","le"],["n","e"],["\u0120op","en"],["\u0120be","l"],["\u01201","7"],["el","f"],["a","red"],["\u0120be","gan"],["\u012019","6"],["\u0120ne","ar"],["f","ul"],["\u0120d","own"],["\u0120al","ong"],["\u0120d","if"],["p","ed"],["\u01201","1"],["\u01201","5"],["\u0120v","ar"],["\u012019","7"],["\u0120bec","ause"],["\u0120go","vern"],["or","k"],["\u0120m","et"],["u","ally"],["an","n"],["\u0120c","ould"],["o","y"],["i","red"],["\u0120f","am"],["\u0120st","r"],["\u0120ex","t"],["\u0120desc","rib"],["ow","er"],["\u0120e","ver"],["\u0120call","ed"],["\u0120pe","op"],["\u0120lar","ge"],["\u0120episod","e"],["\u0120un","t"],["\u0120d","id"],["\u0120pro","v"],["\u0120s","ix"],["ain","s"],["\u0120k","ing"],["u","ed"],["un","e"],["\u0120m","at"],["em","b"],["\u0120unt","il"],["\u0120fe","at"],["\u0120sa","id"],["u","ch"],["\u0120k","e"],["\u0120are","a"],["\u0120dis","c"],["cc","ess"],["\u0120americ","an"],["\u0120st","ates"],["\u0120p","ers"],["le","y"],["\u0120d","am"],["in","ed"],["\u0120ch","urch"],["\u0120des","ign"],["\u0120peop","le"],["\u0120gro","up"],["in","s"],["ak","ing"],["\u0120st","art"],["\u0120a","ust"],["\u0120pre","v"],["u","c"],["\u0120g","er"],["\u0120y","ou"],["\u0120s","ince"],["g","est"],["\u0120ret","urn"],["\u0120b","ar"],["\u0120brit","ish"],["\u0120w","est"],["\u0120in","s"],["o","st"],["\u0120an","y"],["\u0120e","ach"],["\u0120s","ame"],["\u0120rele","ased"],["\u0120ma","j"],["\u0120r","iver"],["\u0120off","ic"],["\u0120n","ational"],["t","y"],["\u0120a","round"],["\u0120o","wn"],["\u0120ad","v"],["y","l"],["id","ed"],["ce","pt"],["am","ed"],["an","ge"],["\u0120p","ass"],["iz","ed"],["\u0120he","ad"],["v","en"],["\u0120appe","ar"],["u","red"],["i","ally"],["\u0120k","m"],["\u0120a","ug"],["\u0120us","e"],["\u0120mill","ion"],["\u0120we","e"],["\u0120o","cc"],["\u0120l","ife"],["\u0120bo","ok"],["r","am"],["\u0120an","n"],["\u0120he","l"],["\u0120maj","or"],["\u0120f","ive"],["\u0120im","p"],["\u0120su","ccess"],["\u0120aug","ust"],["\u0120j","u"],["\u0120b","est"],["\u0120e","u"],["\u0120e","ff"],["\u0120ro","ad"],["on","t"],["\u0120m","iss"],["\u0120sm","all"],["\u0120sup","port"],["\u0120comm","and"],["ul","l"],["\u0120ser","v"],["a","z"],["r","ap"],["\u0120c","amp"],["\u0120sch","ool"],["\u0120to","wn"],["st","em"],["\u0120st","e"],["\u0120compan","y"],["\u0120l","ine"],["ib","le"],["\u012019","5"],["y","s"],["\u0120an","other"],["it","t"],["\u0120m","ed"],["k","ed"],["\u0120a","ward"],["\u0120fin","al"],["\u0120s","l"],["\u0120charac","ter"],["\u0120","if"],["\u0120m","ag"],["\u0120cont","ro"],["on","y"],["\u0120","%"],["\u0120con","c"],["\u0120se","pt"],["\u0120att","ack"],["\u0120publ","ic"],["\u0120dire","ct"],["\u0120cons","id"],["in","d"],["\u0120p","ri"],["\u0120g","reat"],["ou","se"],["\u0120j","ust"],["\u0120sept","ember"],["iver","s"],["\u0120sy","stem"],["u","es"],["\u0120st","orm"],["x","t"],["\u0120c","r"],["\u0120re","port"],["ist","s"],["\u0120col","le"],["en","n"],["\u0120cl","ass"],["m","s"],["i","um"],["\u0120g","ames"],["\u0120t","y"],["\u0120wh","at"],["\u0120aust","ral"],["\u01201","3"],["\u0120r","a"],["ain","ing"],["\u0120res","ult"],["\u0120t","it"],["\u012019","3"],["\u0120g","re"],["i","ent"],["al","es"],["\u0120ch","ild"],["an","c"],["el","s"],["\u0120f","ur"],["u","th"],["\u0120e","l"],["ut","ion"],["\u0120d","ue"],["\u012019","1"],["\u0120sh","ort"],["end","ed"],["ag","ue"],["\u0120le","g"],["\u0120p","rom"],["\u0120m","id"],["\u0120i","i"],["i","er"],["\u0120n","ame"],["ur","al"],["\u0120con","f"],["d","om"],["\u0120l","ast"],["\u0120ex","p"],["\u0120w","ater"],["\u0120to","p"],["l","ish"],["\u0120j","une"],["\u0120t","ri"],["\u0120hist","ory"],["\u0120h","um"],["\u0120re","st"],["\u0120n","ow"],["\u0120or","der"],["\u0120e","ast"],["\u0120ev","en"],["\u0120v","ide"],["em","ent"],["\u0120bl","ack"],["av","ing"],["\u0120l","ate"],["\u0120bu","ild"],["ac","ed"],["\u0120rev","iew"],["\u0120h","ome"],["\u0120govern","ment"],["\u0120ger","man"],["\u0120m","y"],["\u0120o","ct"],["\u0120w","ay"],["a","h"],["o","ver"],["\u0120is","land"],["et","s"],["v","es"],["a","w"],["\u0120","rom"],["\u0120rece","ived"],["\u0120c","he"],["\u0120b","re"],["il","t"],["\u0120j","an"],["\u0120part","ic"],["\u0120describ","ed"],["\u0120t","urn"],["\u0120acc","ord"],["ate","ly"],["\u0120with","in"],["\u0120spec","ies"],["\u0120m","uch"],["\u0120g","iv"],["\u0120chr","ist"],["\u0120inc","re"],["\u0120g","e"],["\u0120cl","ub"],["\u0120tr","ack"],["o","ber"],["\u0120de","ath"],["u","ary"],["\u0120fam","ily"],["\u0120oct","ober"],["\u00c3","\u00a9"],["\u01201","4"],["\u0120play","ed"],["\u0120","$"],["\u0120c","our"],["\u0120accord","ing"],["\u0120le","ague"],["\u0120h","ur"],["\u0120inter","n"],["c","ess"],["\u0120","ir"],["\u0120c","or"],["\u0120m","en"],["\u0120to","ok"],["\u0120gener","al"],["\u0120st","ru"],["\u0120tim","es"],["rop","ical"],["g","er"],["\u0120th","ird"],["\u0120g","un"],["pe","ct"],["\u0120h","al"],["\u0120g","od"],["\u0120pro","t"],["\u0120v","is"],["g","et"],["\u0120","["],["\u0120","]"],["\u0120mo","unt"],["ro","te"],["\u0120an","t"],["ag","ed"],["\u0120pro","g"],["od","y"],["\u0120cap","t"],["\u0120sing","le"],["\u0120ju","ly"],["\u0120w","rote"],["ag","es"],["\u0120w","on"],["\u0120te","ch"],[".","."],["b","le"],["\u0120l","ist"],["oc","k"],["\u0120p","ower"],["em","pt"],["ion","al"],["s","ion"],["\u0120vide","o"],["a","im"],["r","il"],["olog","y"],["g","in"],["\u0120.",".."],["\u01202","5"],["\u0120const","ru"],["\u0120de","m"],["\u0120ar","ch"],["\u0120dif","fer"],["\u0120b","ased"],["if","ied"],["\u0120mar","ch"],["b","all"],["\u0120ap","ril"],["\u0120ev","ent"],["b","e"],["\u0120","es"],["in","a"],["\u0120un","ivers"],["\u0120all","ow"],["at","s"],["\u0120g","l"],["o","red"],["\u0120pos","s"],["\u0120s","oc"],["\u0120eu","ro"],["v","ing"],["\u0120wh","ite"],["\u0120includ","ed"],["\u0120n","ort"],["\u0120comm","on"],["\u0120d","est"],["\u0120or","gan"],["\u0120add","ition"],["\u0120st","re"],["\u0120y","ork"],["\u0120app","ro"],["i","od"],["il","ity"],["\u0120est","ab"],["\u0120th","ose"],["\u0120st","ory"],["\u0120le","ft"],["\u0120jan","uary"],["\u0120n","amed"],["\u0120div","ision"],["\u0120ver","y"],["\u0120bel","ie"],["\u0120pers","on"],["b","y"],["r","on"],["\u0120eng","land"],["\u0120att","empt"],["n","er"],["\u0120t","em"],["is","m"],["\u0120pos","ition"],["\u0120per","iod"],["\u0120a","v"],["ant","s"],["\u0120prev","ious"],["p","or"],["i","am"],["he","n"],["\u0120h","ouse"],["\u01203","0"],["\u0120d","el"],["om","in"],["\u0120l","os"],["\u0120ex","pl"],["pt","ion"],["\u0120origin","al"],["it","al"],["\u0120de","ce"],["\u0120res","p"],["\u0120m","or"],["ak","es"],["\u0120e","as"],["ction","s"],["d","s"],["\u0120b","as"],["\u0120f","ore"],["\u0120re","f"],["p","le"],["\u0120fo","ot"],["ar","s"],["am","ent"],["\u0120a","uth"],["ve","mber"],["\u0120he","av"],["\u0120no","vember"],["\u0120mon","th"],["\u0120v","ill"],["\u0120b","us"],["as","h"],["il","ar"],["st","er"],["\u0120v","ict"],["\u0120pl","ace"],["\u0120euro","pe"],["he","l"],["an","ces"],["im","e"],["\u0120t","ropical"],["\u0120comm","un"],["og","rap"],["\u0120k","ill"],["\u0120v","al"],["ent","ly"],["\u0120dece","mber"],["\u0120d","r"],["\u012019","2"],["\u0120bu","ilt"],["\u0120s","w"],["\u0120ch","amp"],["\u0120sim","ilar"],["\u0120s","om"],["\u0120f","ield"],["en","se"],["\u0120l","ight"],["\u0120am","ong"],["\u0120h","and"],["ra","ft"],["\u0120st","and"],["\u0120song","s"],["\u0120hur","ric"],["i","ence"],["\u0120s","ent"],["\u0120m","ake"],["\u0120re","al"],["\u0120pres","ent"],["\u0120l","ed"],["ul","ation"],["\u0120mil","it"],["ro","w"],["id","es"],["\u0120","x"],["ian","s"],["\u0120fur","ther"],["in","k"],["\u0120in","it"],["\u0120play","er"],["o","unt"],["t","ing"],["\u0120","er"],["\u0120w","om"],["\u0120re","d"],["ac","hed"],["\u0120su","g"],["\u0120p","at"],["at","ure"],["c","hed"],["\u0120st","ill"],["\u0120loc","al"],["h","am"],["\u0120te","le"],["\u0120mar","k"],["\u0120to","ur"],["\u0120s","ol"],["\u0120ne","xt"],["\u01201","00"],["\u0120200","9"],["\u0120la","w"],["\u0120wee","k"],["\u0120re","qu"],["\u0120201","0"],["\u0120","\u00c2"],["\u0120200","8"],["l","ing"],["m","ed"],["ent","ion"],["\u0120y","oun"],["ed","er"],["ard","s"],["\u0120b","ill"],["\u0120f","ri"],["r","act"],["\u0120v","iew"],["\u0120to","t"],["\u0120ro","le"],["\u0120tr","ad"],["\u0120lo","ve"],["ar","ch"],["\u0120ex","per"],["i","ation"],["en","ces"],["ar","k"],["iv","es"],["\u0120hist","or"],["\u0120c","ame"],["h","y"],["\u0120s","qu"],["\u0120is","s"],["\u0120im","port"],["\u0120br","ig"],["\u0120ever","y"],["\u0120r","ight"],["\u0120ro","ck"],["n","a"],["\u0120mo","ved"],["\u0120care","er"],["\u0120univers","ity"],["\u0120h","ar"],["\u0120with","out"],["\u0120re","pl"],["\u0120pl","an"],["m","er"],["\u0120of","ten"],["\u0120eff","ect"],["\u0120c","al"],["ren","ch"],["g","y"],["\u0120record","ed"],["\u0120s","ide"],["\u0120fe","w"],["\u0120f","ar"],["ic","ally"],["\u0120l","ow"],["\u0120b","and"],["\u0120hurric","ane"],["\u0120s","ay"],["\u0120c","ur"],["\u0120milit","ary"],["m","in"],["is","on"],["\u0120le","vel"],["\u0120c","aus"],["\u0120consid","ered"],["ak","en"],["\u0120pol","it"],["\u0120batt","al"],["\u0120ch","art"],["\u0120s","k"],["\u0120j","e"],["\u0120produ","ction"],["\u0120arm","y"],["\u0120c","le"],["\u0120m","emb"],["\u0120rele","ase"],["\u0120re","fer"],["b","s"],["\u0120200","7"],["\u0120sug","gest"],["\u0120ob","s"],["\u0120l","ess"],["\u0120mo","ve"],["\u0120pro","ject"],["\u0120form","er"],["\u0120par","k"],["le","t"],["op","s"],["\u0120se","e"],["\u0120co","ver"],["\u0120ass","oc"],["y","le"],["\u0120f","rench"],["or","ies"],["\u0120de","b"],["\u0120ne","ver"],["g","ed"],["as","ter"],["\u0120eng","lish"],["b","o"],["\u0120cl","aim"],["\u0120s","old"],["\u0120c","ast"],["ens","ive"],["\u0120po","int"],["\u0120publ","ished"],["\u0120be","h"],["qu","e"],["\u0120po","st"],["\u0120writ","ten"],["\u0120su","per"],["\u0120rep","res"],["\u0120t","ake"],["\u0120contin","ued"],["\u0120hal","f"],["s","elf"],["\u0120inf","l"],["\u0120differ","ent"],["\u0120batt","le"],["\u0120mo","der"],["er","v"],["th","ing"],["ward","s"],["ad","y"],["a","ur"],["\u0120for","ces"],["\u0120day","s"],["\u0120intern","ational"],["a","i"],["\u0120he","ld"],["el","t"],["\u0120ro","ute"],["\u0120man","ag"],["ber","t"],["\u0120auth","or"],["a","ff"],["i","or"],["\u0120f","re"],["is","ter"],["ut","ed"],["a","e"],["s","ide"],["ic","o"],["\u0120co","un"],["\u0120f","eder"],["en","e"],["\u0120ro","y"],["at","ter"],["\u0120str","ong"],["\u0120for","ce"],["\u0120pro","f"],["p","s"],["\u0120n","ight"],["\u0120r","ad"],["\u0120f","ire"],["\u0120go","od"],["\u0120fri","end"],["n","ess"],["\u0120c","ult"],["o","v"],["en","g"],["\u0120des","p"],["\u0120an","g"],["\u0120h","aving"],["\u0120count","y"],["\u0120p","ress"],["\u0120t","ro"],["er","y"],["\u0120through","out"],["\u01202","1"],["\u0120so","und"],["\u0120contro","l"],["\u0120champ","ions"],["\u0120l","ive"],["\u0120comp","et"],["\u0120201","1"],["iss","ion"],["m","e"],["\u0120p","it"],["\u0120n","av"],["\u0120memb","ers"],["es","tern"],["\u0120st","at"],["im","ent"],["ot","s"],["ot","t"],["pos","ed"],["v","ision"],["\u0120bec","ome"],["\u0120200","6"],["\u0120child","ren"],["\u0120j","ack"],["\u0120ch","ang"],["\u0120cro","ss"],["\u0120f","un"],["\u0120ver","sion"],["\u0120pop","ular"],["\u01202","3"],["\u0120can","ad"],["\u0120tit","le"],["\u0120develop","ment"],["\u0120tot","al"],["\u0120w","al"],["b","r"],["\u0120partic","ular"],["\u0120g","old"],["\u0120lo","st"],["b","ru"],["\u0120","&"],["it","ar"],["\u0120high","way"],["ap","p"],["\u0120count","ry"],["us","s"],["\u0120com","b"],["\u0120desp","ite"],["p","ar"],["ro","du"],["\u0120rom","an"],["\u0120h","a"],["\u0120prog","ram"],["it","er"],["\u0120def","e"],["\u0120c","y"],["\u0120h","o"],["\u0120w","ant"],["\u0120f","ree"],["ther","n"],["\u0120fe","bru"],["\u0120sou","thern"],["\u0120febru","ary"],["\u0120f","le"],["\u0120e","ight"],["\u0120de","cl"],["\u0120n","et"],["\u0120report","ed"],["er","n"],["\u0120l","itt"],["\u0120g","ave"],["\u0120e","c"],["\u01202","2"],["\u0120produ","ced"],["\u0120repres","ent"],["\u0120litt","le"],["er","c"],["\u0120d","ra"],["\u0120crit","ic"],["\u0120","!"],["id","ge"],["\u01202","6"],["\u0120de","t"],["\u0120no","vel"],["\u0120cent","ral"],["c","hes"],["\u0120d","yl"],["\u0120gr","and"],["\u0120dyl","an"],["\u01202","4"],["\u0120ge","or"],["\u0120w","at"],["\u0120s","it"],["\u0120s","um"],["\u0120s","ite"],["\u0120f","em"],["\u0120r","ich"],["\u0120act","iv"],["n","d"],["in","c"],["\u0120c","at"],["\u0120on","ce"],["\u0120201","2"],["\u0120writ","ing"],["\u0120tele","vision"],["\u0120giv","en"],["l","ine"],["\u0120infl","u"],["\u0120t","re"],["ro","y"],["ic","es"],["\u0120for","t"],["ail","ed"],["\u0120nort","her"],["\u0120","ve"],["ac","es"],["\u0120comp","os"],["iet","y"],["\u0120pres","ident"],["l","er"],["\u0120hum","an"],["\u0120he","ro"],["\u0120co","ast"],["\u0120serv","ice"],["\u0120ar","ri"],["\u0120norther","n"],["iv","al"],["\u0120af","f"],["\u0120mo","d"],["\u0120p","a"],["\u0120d","on"],["\u0120j","ap"],["ition","s"],["\u0120youn","g"],["\u0120jap","an"],["ert","ain"],["\u0120sign","ific"],["re","t"],["\u0120v","i"],["\u0120includ","e"],["ver","s"],["ri","ed"],["\u0120inv","ol"],["\u0120g","round"],["\u0120moder","n"],["er","ing"],["r","ing"],["\u01202","8"],["\u0120mat","ch"],["d","ay"],["\u0120a","ge"],["\u0120w","estern"],["\u0120pro","te"],["\u0120battal","ion"],["\u0120f","act"],["\u0120m","aking"],["\u0120h","am"],["\u0120sh","ould"],["\u0120af","ric"],["\u0120roy","al"],["e","ad"],["\u0120a","way"],["ress","ion"],["\u0120eas","tern"],["\u0120b","ody"],["\u0120m","ass"],["\u0120se","ven"],["iz","e"],["\u0120estab","l"],["\u0120p","al"],["os","p"],["\u0120201","3"],["\u0120occ","ur"],["\u0120m","i"],["\u0120l","ab"],["\u0120se","en"],["ive","ly"],["\u0120ar","g"],["\u0120stru","ct"],["en","c"],["\u0120p","ur"],["st","on"],["ect","ed"],["\u0120h","or"],["ar","n"],["\u0120l","im"],["\u0120st","ated"],["\u0120b","urn"],["\u0120f","if"],["\u0120lo","ok"],["ro","ss"],["\u0120ac","ross"],["\u0120c","ou"],["it","her"],["\u0120inst","ead"],["c","raft"],["\u0120","ill"],["\u0120b","all"],["\u0120f","ather"],["\u0120h","our"],["\u0120to","o"],["pl","oy"],["\u0120ship","s"],["\u0120return","ed"],["is","ing"],["\u0120d","av"],["\u0120ear","li"],["\u0120tech","n"],["\u0120establ","ished"],["\u0120t","a"],["\u0120f","t"],["\u0120e","qu"],["ren","t"],["\u0120gu","itar"],["\u0120c","e"],["\u0120us","ing"],["\u0120dest","roy"],["x","im"],["\u0120d","ou"],["\u0120pop","ulation"],["\u012019","0"],["\u0120americ","a"],["\u0120constru","ction"],["\u0120d","ri"],["se","qu"],["\u0120not","ed"],["\u0120champions","hip"],["\u0120f","ull"],["\u0120i","re"],["\u0120ann","oun"],["\u0120p","ra"],["\u0120re","ached"],["\u0120develop","ed"],["\u0120build","ing"],["\u0120w","ood"],["\u0120h","ig"],["\u01205","0"],["\u0120though","t"],["ab","ly"],["\u0120int","rodu"],["\u0120play","ers"],["\u0120ire","land"],["\u0120brig","ade"],["\u0120t","en"],["\u0120m","ix"],["\u0120var","ious"],["\u0120foot","ball"],["\u0120ty","p"],["in","ted"],["ad","es"],["pl","ay"],["\u0120me","an"],["\u0120signific","ant"],["f","ic"],["\u0120c","iv"],["\u0120wor","ks"],["\u0120eng","ine"],["\u0120perform","ance"],["\u01202","7"],["\u0120pr","im"],["\u0120import","ant"],["\u0120l","ond"],["\u0120bro","ad"],["\u0120mil","es"],["\u0120lond","on"],["\u0120t","or"],["\u0120him","self"],["\u0120king","dom"],["g","round"],["\u0120s","on"],["\u0120fin","d"],["\u0120will","iam"],["\u0120re","ad"],["\u0120st","yle"],["\u0120new","s"],["f","ord"],["ain","t"],["um","ent"],["\u0120cl","ose"],["\u0120perform","ed"],["m","ost"],["\u0120f","elt"],["\u0120m","ich"],["es","e"],["\u0120b","ird"],["us","ed"],["\u0120austral","ia"],["id","ence"],["olog","ical"],["\u0120disc","over"],["\u0120are","as"],["\u0120fe","et"],["\u0120offic","ial"],["\u0120","ide"],["y","ing"],["\u0120w","ent"],["\u0120ne","ed"],["\u0120ev","ents"],["\u0120inter","est"],["ut","es"],["\u0120at","l"],["\u0120ind","ust"],["\u0120do","es"],["\u0120c","as"],["\u0120fr","ont"],["\u0120rel","ations"],["\u0120comple","te"],["c","o"],["\u0120m","m"],["\u0120h","y"],["\u0120po","em"],["re","w"],["on","es"],["\u0120d","ied"],["\u0120r","ange"],["\u0120civ","il"],["\u0120c","up"],["\u0120f","ig"],["\u0120f","all"],["\u0120bro","wn"],["\u0120p","ut"],["\u0120be","gin"],["\u0120success","ful"],["at","ic"],["\u0120h","ol"],["\u0120con","v"],["\u0120other","s"],["\u0120rel","ig"],["\u0120origin","ally"],["\u0120set","t"],["c","he"],["\u0120m","other"],["\u0120v","ir"],["are","n"],["\u0120cour","t"],["r","ation"],["ree","k"],["\u0120up","on"],["a","ign"],["\u0120camp","aign"],["iv","ing"],["\u0120b","ase"],["\u0120de","v"],["ie","f"],["\u0120tr","ave"],["\u0120cl","os"],["\u0120form","ed"],["\u0120start","ed"],["\u0120l","et"],["\u0120j","ames"],["\u0120kn","ow"],["\u0120sur","v"],["\u0120star","s"],["\u0120charac","ters"],["\u0120polit","ical"],["\u0120l","ang"],["\u0120ear","th"],["\u0120wom","en"],["it","ive"],["v","al"],["\u0120b","ow"],["\u0120g","et"],["\u0120su","ff"],["\u0120w","ide"],["\u0120b","orn"],["un","g"],["ant","ic"],["\u0120caus","ed"],["\u0120t","est"],["\u0120loc","ated"],["\u0120event","ually"],["\u0120sc","ient"],["\u0120prom","ot"],["\u0120c","am"],["\u0120ph","il"],["\u0120trad","ition"],["\u0120t","ur"],["\u0120v","o"],["\u0120ele","ct"],["\u0120direct","or"],["a","pe"],["\u0120v","ol"],["\u0120cent","er"],["\u0120crit","ics"],["\u0120prof","ess"],["in","ts"],["\u0120ab","le"],["\u0120spec","ial"],["\u0120ent","ire"],["\u0120cre","ated"],["\u0120stre","et"],["a","u"],["a","el"],["o","b"],["\u0120b","ur"],["\u0120re","se"],["\u012018","9"],["\u0120w","ord"],["\u0120200","4"],["end","ing"],["o","und"],["\u0120o","d"],["\u0120w","all"],["al","th"],["\u0120200","5"],["\u0120reg","ion"],["\u0120d","a"],["uc","le"],["l","o"],["\u0120h","old"],["ri","pt"],["\u0120produ","c"],["\u0120b","i"],["\u0120f","ac"],["\u0120h","ill"],["\u0120l","y"],["\u0120mag","az"],["\u0120o","l"],["\u0120c","ir"],["\u0120c","er"],["\u0120f","ight"],["en","ed"],["\u0120he","n"],["ric","k"],["on","om"],["c","il"],["\u00c3","\u0143"],["\u0120to","get"],["\u0120toget","her"],["w","ork"],["in","ess"],["\u0120h","ot"],["\u0120bec","om"],["\u0120me","et"],["o","ve"],["\u0120heav","y"],["\u0120\u00e2\u0122","\u013b"],["\u0120ind","ep"],["\u0120indep","end"],["s","h"],["\u0120p","red"],["og","n"],["ress","ed"],["\u0120f","av"],["\u0120hel","p"],["\u0120st","ri"],["\u0120r","ac"],["av","es"],["amp","le"],["\u0120rem","ained"],["om","b"],["\u0120gro","w"],["in","ation"],["it","ing"],["\u0120an","im"],["\u0120ag","re"],["\u0120comple","ted"],["\u0120gun","s"],["f","all"],["\u0120sc","ored"],["\u0120dif","fic"],["\u0120diffic","ult"],["\u0120se","a"],["\u0120dep","art"],["ist","ed"],["\u0120austral","ian"],["\u0120announ","ced"],["\u0120town","s"],["\u0120los","s"],["i","ers"],["\u0120n","ucle"],["\u0120g","al"],["\u0120al","most"],["\u0120four","th"],["g","es"],["at","or"],["\u0120n","on"],["\u0120ch","ap"],["\u0120go","al"],["as","ing"],["\u0120pe","ak"],["\u0120fore","st"],["\u0120h","om"],["\u0120com","ment"],["\u0120pro","cess"],["\u0120le","ast"],["\u0120dam","age"],["\u0120beh","ind"],["c","ut"],["\u0120p","en"],["\u0120con","dom"],["iv","id"],["\u0120part","y"],["\u0120m","ot"],["\u0120add","ed"],["ne","y"],["\u0120a","ud"],["it","ted"],["\u0120j","our"],["rough","t"],["\u0120follow","ed"],["\u0120month","s"],["\u0120w","ife"],["\u0120b","ir"],["\u0120b","ay"],["\u0120re","du"],["\u01203","1"],["\u0120col","on"],["\u0120appe","ared"],["\u0120ter","rit"],["r","ay"],["ar","a"],["\u0120kill","ed"],["\u0120squ","ad"],["\u0120relations","hip"],["\u0120a","ver"],["\u0120v","oc"],["\u0120play","ing"],["\u0120in","n"],["\u0120r","ail"],["\u0120se","x"],["\u0120award","s"],["\u0120dav","id"],["\u0120","ident"],["\u0120c","op"],["\u0120h","on"],["\u0120to","m"],["\u0120cir","c"],["\u0120c","ell"],["en","ced"],["\u0120con","d"],["\u0120feat","ures"],["\u00c3","\u00a1"],["al","d"],["\u0120ind","ivid"],["\u0120n","at"],["\u0120st","ation"],["ri","e"],["i","ated"],["\u0120in","form"],["al","ity"],["\u01202","9"],["\u0120en","c"],["\u0120air","craft"],["l","s"],["\u0120200","3"],["g","r"],["m","ar"],["\u00c4","\u0123"],["\u0120t","aken"],["\u0120n","ar"],["ent","h"],["\u0120se","le"],["\u0120ro","und"],["\u0120acc","om"],["\u0120fr","ance"],["\u0120s","an"],["\u0120s","our"],["ot","a"],["\u0120rec","ogn"],["\u01204","0"],["\u012018","5"],["\u0120fl","ight"],["\u0120app","o"],["\u0120201","5"],["\u0120fle","et"],["e","en"],["\u0120f","a"],["\u0120d","i"],["\u0120qu","ar"],["\u0120lead","ing"],["\u0120je","w"],["ac","y"],["ri","es"],["\u0120est","im"],["\u0120inf","ant"],["\u0120a","ction"],["\u0120c","reat"],["\u0120r","ank"],["\u0120e","ither"],["\u0120ser","ved"],["\u0120record","ing"],["\u0120sub","sequ"],["\u0120t","reat"],["\u0120to","wards"],["\u0120l","ack"],["\u0120lang","u"],["\u0120t","rib"],["\u0120c","ase"],["\u0120h","all"],["ul","ly"],["\u0120pro","ble"],["\u0120oper","ations"],["i","que"],["\u0120d","en"],["em","y"],["\u0120win","d"],["\u0120s","port"],["al","y"],["\u0120par","li"],["c","her"],["w","h"],["re","am"],["\u0120f","und"],["\u0120m","em"],["\u0120sa","w"],["\u0120sy","m"],["\u0120ele","ments"],["\u0120dec","ided"],["\u0120m","ach"],["\u0120trans","port"],["ol","ution"],["\u0120r","ul"],["\u0120record","s"],["\u0120b","er"],["\u0120h","ost"],["pe","c"],["ap","er"],["\u0120col","l"],["\u0120so","on"],["\u0120gener","ally"],["\u0120belie","ved"],["\u0120magaz","ine"],["\u0120se","par"],["os","aur"],["\u0120ro","bert"],["\u0120arch","ae"],["\u0120cur","rent"],["\u0120c","a"],["il","le"],["\u0120care","y"],["\u0120fem","ale"],["\u0120parli","ament"],["\u0120a","ch"],["\u0120c","ard"],["\u0120h","ard"],["\u0120imp","ro"],["\u0120dra","w"],["c","ent"],["\u0120comm","ission"],["iz","ation"],["\u0120fl","or"],["\u0120ac","cept"],["\u0120manag","er"],["\u0120m","ater"],["\u0120re","ach"],["\u0120ex","ample"],["\u0120po","ints"],["\u0120me","as"],["\u0120fl","ood"],["\u0120coun","cil"],["\u0120infant","ry"],["d","le"],["\u0120s","al"],["\u0120m","ad"],["\u0120con","g"],["\u0120comm","erc"],["\u012018","8"],["ough","t"],["\u0120wee","ks"],["\u0120bus","iness"],["f","ield"],["\u0120to","w"],["\u0120r","ather"],["\u0120reg","ular"],["\u0120stud","y"],["ign","ed"],["\u0120me","x"],["\u0120europe","an"],["us","h"],["\u0120ro","se"],["\u0120ex","c"],["\u0120out","side"],["\u0120feder","er"],["z","e"],["\u0120pre","m"],["\u0120open","ed"],["\u0120s","un"],["id","a"],["\u0120res","pect"],["\u0120reg","ard"],["\u0120la","un"],["\u0120dire","cted"],["\u0120b","rought"],["\u0120d","u"],["\u0120sa","f"],["\u0120b","ra"],["\u0120fin","ished"],["\u0120inter","v"],["ict","ion"],["k","ing"],["\u0120s","il"],["\u0120w","ales"],["on","ic"],["\u0120d","omin"],["\u0120st","op"],["\u0120co","st"],["ric","t"],["\u0120earli","er"],["\u0120s","at"],["\u0120m","er"],["\u0120d","er"],["ic","ated"],["ce","ed"],["way","s"],["\u0120feat","ured"],["\u0120p","ast"],["\u0120v","iet"],["\u0120y","ard"],["\u0120cont","ract"],["\u0120ed","uc"],["\u0120vict","ory"],["\u0120ach","ie"],["n","ed"],["\u0120m","ember"],["\u0120st","age"],["\u0120ex","e"],["\u0120ty","pe"],["\u0120f","oc"],["\u0120g","ir"],["m","y"],["re","st"],["\u0120bl","ue"],["m","ing"],["\u0120t","al"],["\u0120s","n"],["\u0120inv","est"],["\u0120prov","ided"],["\u0120assoc","iation"],["h","ic"],["n","es"],["r","ang"],["\u0120be","y"],["id","s"],["ord","an"],["\u0120ad","m"],["\u0120work","ing"],["\u0120open","ing"],["\u0120vill","age"],["\u01203","5"],["ograp","hy"],["\u0120tro","ops"],["\u0120want","ed"],["d","en"],["\u0120b","ig"],["\u0120re","n"],["\u0120ro","om"],["\u0120ins","p"],["\u0120appear","ance"],["a","f"],["in","o"],["\u0120be","g"],["\u0120st","ay"],["\u0120j","ordan"],["\u0120de","al"],["\u0120un","ion"],["\u012018","6"],["\u0120pri","v"],["\u0120obs","er"],["\u0120particular","ly"],["\u0120f","ly"],["\u0120th","om"],["\u0120r","ap"],["\u0120con","du"],["\u0120sec","ret"],["enc","y"],["\u0120c","ut"],["\u0120c","ru"],["\u0120an","c"],["\u0120m","os"],["\u0120re","ason"],["am","a"],["\u0120r","ace"],["\u0120se","qu"],["\u0120pro","b"],["\u0120201","4"],["\u0120win","ds"],["\u0120dep","ression"],["\u0120cre","w"],["\u0120init","ially"],["\u0120atl","antic"],["im","es"],["ct","or"],["\u0120ev","idence"],["\u0120es","c"],["med","i"],["\u0120con","n"],["\u0120off","ice"],["\u0120lar","gest"],["\u0120rad","io"],["e","um"],["p","ing"],["or","ing"],["\u0120re","ve"],["\u0120r","u"],["\u0120mus","eum"],["\u0120min","or"],["\u0120em","ploy"],["\u0120christ","ian"],["\u0120geor","ge"],["o","le"],["\u0120m","ac"],["\u0120poss","ible"],["u","ter"],["y","n"],["\u0120m","ary"],["\u0120re","b"],["\u0120com","e"],["c","om"],["\u0120mid","dle"],["\u0120sum","mer"],["p","an"],["re","ad"],["\u0120h","it"],["\u0120l","eng"],["\u0120y","ards"],["\u0120ab","ove"],["w","est"],["he","st"],["ud","e"],["\u0120pr","act"],["\u0120inst","it"],["\u0120flor","ida"],["\u0120a","th"],["\u0120e","y"],["\u0120fe","el"],["\u0120eff","ort"],["c","ast"],["\u0120sh","o"],["\u01205","00"],["\u0120acc","ount"],["\u0120ant","i"],["\u0120allow","ed"],["\u0120soc","ial"],["\u0120friend","s"],["\u0120commerc","ial"],["\u0120f","low"],["\u0120n","orm"],["\u0120st","ren"],["\u0120crit","ical"],["\u0120say","ing"],["\u0120cle","ar"],["he","re"],["\u0120c","reek"],["\u0120r","ain"],["ell","ow"],["\u0120sp","ace"],["\u0120oper","ation"],["\u0120som","et"],["\u0120ol","iv"],["s","el"],["er","ous"],["\u0120wh","om"],["\u0120z","e"],["\u0120hor","se"],["\u0120hour","s"],["s","u"],["\u0120n","ine"],["ent","ial"],["\u0120resp","ons"],["\u0120ec","onom"],["\u0120rese","arch"],["\u0120mater","ial"],["\u0120leng","th"],["at","ors"],["ou","ri"],["th","od"],["\u0120de","ter"],["\u0120ex","ist"],["\u0120200","1"],["\u0120reg","iment"],["\u0120work","ed"],["\u0120bro","ther"],["\u0120pol","ice"],["\u0120miss","ouri"],["\u0120quar","ter"],["\u0120w","il"],["\u0120re","act"],["\u0120rece","ption"],["\u0120design","ed"],["\u0120soc","iety"],["\u0120commun","ity"],["\u0120stren","g"],["m","p"],["an","ch"],["as","k"],["\u0120l","ower"],["\u0120l","iter"],["ur","b"],["id","ing"],["\u0120ch","o"],["\u0120fo","od"],["\u0120spec","ific"],["\u0120previous","ly"],["\u0120n","omin"],["\u0120se","em"],["\u0120ne","g"],["\u0120pri","or"],["\u0120for","ced"],["el","er"],["\u0120ke","y"],["bo","ard"],["\u0120w","ild"],["an","ia"],["\u0120p","ain"],["\u0120m","c"],["\u0120m","cc"],["\u0120po","or"],["\u0120rem","ains"],["\u0120ac","ad"],["\u0120er","a"],["\u0120s","us"],["\u0120go","als"],["\u0120qu","ick"],["\u0120pa","ul"],["\u0120d","oc"],["\u0120incre","ased"],["\u0120vi","ol"],["\u0120pra","ised"],["on","st"],["\u0120f","ut"],["at","in"],["\u0120m","ust"],["um","b"],["ish","ing"],["\u0120ind","ian"],["\u0120av","ail"],["i","k"],["t","t"],["al","and"],["\u0120th","reat"],["\u0120k","il"],["\u0120v","en"],["\u012018","7"],["\u0120197","0"],["an","a"],["\u0120p","ot"],["\u0120m","ur"],["ag","o"],["ell","ing"],["\u0120back","ground"],["\u0120cy","cl"],["\u0120mich","ael"],["l","ess"],["p","ly"],["\u0120un","its"],["\u0120sur","f"],["\u0120stud","io"],["\u0120rep","ubl"],["\u0120command","er"],["\u0120med","ia"],["\u0120t","aking"],["he","ast"],["at","a"],["\u0120\u00c2","\u00a3"],["\u0120e","gy"],["\u0120part","s"],["\u0120writ","er"],["\u0120repl","aced"],["\u0120egy","pt"],["x","as"],["\u0120m","ult"],["\u0120st","one"],["\u0120st","ep"],["ver","t"],["\u0120k","h"],["\u0120pro","per"],["\u0120nav","y"],["\u0120rich","ard"],["\u0120indust","ry"],["\u0120interv","iew"],["\u0120b","al"],["ap","s"],["\u0120sh","ot"],["ess","ion"],["\u0120main","t"],["\u0120u","k"],["\u0120sit","u"],["g","g"],["\u0120f","ace"],["\u0120p","ac"],["ing","ton"],["\u0120h","ous"],["\u0120h","osp"],["\u0120cap","ital"],["\u0120relig","ious"],["i","us"],["ol","l"],["\u0120j","ud"],["\u0120sc","re"],["\u0120comm","it"],["\u0120colle","ge"],["\u0120review","s"],["\u0120hig","hest"],["u","el"],["u","ck"],["\u0120200","0"],["rib","uted"],["\u0120ass","ist"],["\u0120\u00c2","\u00b0"],["\u0120claim","ed"],["\u0120begin","ning"],["\u0120hen","ry"],["\u0120the","at"],["\u0120c","ertain"],["\u0120m","ph"],["as","ion"],["\u0120se","ction"],["\u0120canad","a"],["\u0120estim","ated"],["\u0120b","an"],["\u0120199","0"],["ann","ed"],["e","y"],["r","ated"],["\u0120l","ines"],["am","b"],["\u0120jo","ined"],["\u0120bre","ak"],["\u0120appro","xim"],["\u0120japan","ese"],["\u0120aver","age"],["\u0120d","rop"],["\u0120n","y"],["\u0120st","ories"],["\u0120r","ang"],["\u0120pl","aced"],["\u0120ex","cept"],["\u0120tr","aining"],["\u0120ph","ys"],["\u0120old","ham"],["\u0120invol","ved"],["cut","ive"],["\u0120republ","ic"],["\u0120d","om"],["\u0120h","app"],["\u0120sign","ed"],["\u0120incre","asing"],["\u0120suggest","ed"],["\u0120introdu","ced"],["n","al"],["w","ood"],["\u0120g","ar"],["\u0120ch","ange"],["\u0120ass","emb"],["\u0120somet","imes"],["o","on"],["\u0120to","day"],["\u0120de","ad"],["\u0120cont","r"],["\u012018","3"],["hen","s"],["\u0120oliv","ier"],["\u0120b","od"],["\u0120he","art"],["cl","us"],["\u0120sc","en"],["\u0120sc","ene"],["\u0120its","elf"],["\u0120go","ing"],["\u0120car","ol"],["\u0120viet","n"],["\u0120o","ur"],["\u0120p","ie"],["ist","ic"],["\u0120po","et"],["\u0120im","medi"],["one","y"],["\u0120trans","fer"],["\u0120ob","ject"],["\u0120struct","ure"],["\u0120mex","ico"],["\u0120s","low"],["\u0120n","ames"],["\u0120th","us"],["\u0120g","ive"],["ri","ption"],["\u0120ar","ab"],["\u0120addition","al"],["\u0120ath","let"],["\u0120avail","able"],["b","and"],["r","ison"],["t","ies"],["\u0120m","ale"],["\u0120d","ate"],["ol","ic"],["\u0120air","port"],["\u0120langu","age"],["f","or"],["\u0120wh","ose"],["\u0120ind","ia"],["\u0120ter","m"],["\u0120near","ly"],["\u0120occ","up"],["it","a"],["\u0120in","j"],["\u0120p","ay"],["\u0120ch","ic"],["\u0120sub","st"],["\u0120fif","th"],["\u0120thom","as"],["\u0120ir","ish"],["\u0120prot","est"],["\u0120approxim","ately"],["re","ady"],["ar","ies"],["\u0120al","ready"],["\u0120cont","em"],["ib","ility"],["por","ary"],["\u0120appo","inted"],["b","ar"],["\u0120a","ut"],["\u0120s","ize"],["\u0120m","art"],["\u0120to","ld"],["\u0120n","ative"],["\u0120st","aff"],["\u01203","6"],["\u0120sy","n"],["\u0120brit","ain"],["\u0120show","s"],["\u0120196","0"],["\u0120dam","aged"],["\u0120estab","lish"],["\u0120","-"],["pe","cted"],["\u0120pl","ot"],["ab","it"],["\u0120dis","s"],["\u0120turn","ed"],["\u0120iss","ue"],["\u0120prob","ably"],["\u0120","ut"],["\u0120th","ink"],["\u0120int","ens"],["\u0120sub","ject"],["\u0120sur","round"],["\u0120wom","an"],["b","or"],["st","and"],["\u0120ap","pl"],["\u0120gr","ad"],["\u0120win","ning"],["\u0120mon","t"],["\u0120es","pec"],["\u0120cat","hed"],["o","ff"],["\u0120m","ight"],["\u0120d","ut"],["\u0120se","m"],["\u0120tw","ent"],["\u0120stud","ents"],["\u0120ly","ric"],["\u0120ze","aland"],["t","o"],["\u0120","?"],["\u0120r","an"],["\u0120bet","ter"],["\u0120pass","ed"],["\u0120capt","ain"],["\u0120pac","ific"],["\u0120l","ord"],["\u0120or","d"],["\u0120sc","ore"],["\u0120qu","est"],["\u0120net","work"],["\u0120espec","ially"],["o","res"],["he","ad"],["\u0120s","am"],["ar","ily"],["\u0120with","d"],["\u0120en","ough"],["\u0120not","es"],["\u0120ad","min"],["\u012018","4"],["\u0120f","ailed"],["\u0120d","ark"],["\u0120for","ward"],["\u0120ch","ines"],["\u0120bo","ard"],["\u0120dis","play"],["\u0120over","all"],["\u01206","0"],["\u0120run","ning"],["ann","a"],["\u0120mix","ed"],["\u0120chines","e"],["\u0120o","s"],["en","on"],["\u0120de","ep"],["ul","a"],["\u01204","5"],["\u0120c","red"],["if","f"],["\u0120200","2"],["\u0120partic","ip"],["\u0120deb","ut"],["\u0120lim","ited"],["\u0120nat","ural"],["p","r"],["re","g"],["al","ed"],["\u0120d","ig"],["il","ities"],["\u0120de","g"],["\u0120mus","ical"],["\u0120gre","en"],["\u0120ii","i"],["\u0120da","ugh"],["\u0120fut","ure"],["o","id"],["re","me"],["or","ation"],["\u0120mo","ving"],["\u0120ex","am"],["\u0120whe","eler"],["end","s"],["\u0120sp","an"],["\u0120sp","ent"],["\u0120includ","es"],["\u0120br","idge"],["\u0120order","ed"],["\u0120ang","el"],["\u0120chang","es"],["\u0120arri","ved"],["g","o"],["\u0120l","ou"],["\u0120j","in"],["um","e"],["qu","ar"],["\u0120us","ually"],["\u0120rem","aining"],["\u0120lar","ger"],["\u0120vis","it"],["\u0120canad","ian"],["\u0120educ","ation"],["\u0120cathed","ral"],["v","est"],["on","se"],["\u0120c","ath"],["\u0120f","ail"],["\u0120l","ay"],["\u0120bo","y"],["\u0120ab","s"],["\u0120am","b"],["\u0120bird","s"],["\u0120depart","ment"],["at","ory"],["\u0120h","op"],["\u0120l","ake"],["ers","on"],["\u0120pe","ter"],["\u0120gr","ant"],["\u0120mount","ain"],["\u0120requ","ired"],["\u0120broad","cast"],["d","own"],["f","ect"],["n","el"],["\u0120o","x"],["\u0120l","atter"],["ul","ated"],["ri","an"],["\u0120dec","ision"],["\u0120b","ab"],["\u0120to","uch"],["im","in"],["\u0120im","m"],["\u0120rem","ain"],["\u0120resp","onse"],["\u0120afric","a"],["\u0120vir","gin"],["h","ib"],["\u0120p","enn"],["\u0120con","cept"],["ul","f"],["if","a"],["\u0120ro","b"],["\u0120vo","ice"],["\u0120s","en"],["\u0120s","aint"],["\u0120n","ature"],["ate","g"],["\u0120ro","ll"],["\u0120co","ach"],["\u0120up","per"],["\u0120bre","ed"],["m","a"],["y","er"],["\u0120m","ention"],["\u0120m","oney"],["\u0120tr","aff"],["fer","ence"],["\u0120rel","ated"],["\u0120group","s"],["\u0120mount","ed"],["ar","ing"],["ic","ation"],["\u0120j","er"],["ri","age"],["\u0120cent","re"],["\u0120rac","hel"],["\u0120bir","th"],["\u0120territ","ory"],["b","ers"],["in","ing"],["it","z"],["\u0120sc","ience"],["\u0120film","s"],["\u0120end","ed"],["\u0120pos","itive"],["\u0120feat","ure"],["\u0120bill","board"],["\u0120profess","ional"],["b","c"],["c","le"],["j","e"],["\u0120","ult"],["\u0120c","ad"],["\u0120g","ot"],["\u0120he","alth"],["\u0120fin","ally"],["\u0120sch","ol"],["\u0120support","ed"],["\u0120cult","ure"],["\u0120squad","ron"],["s","hip"],["\u0120o","ly"],["\u0120d","ram"],["\u0120l","iving"],["\u0120al","i"],["\u0120sc","ott"],["\u0120press","ure"],["\u0120becom","ing"],["\u0120oly","mp"],["on","c"],["st","e"],["\u0120al","ways"],["\u0120am","ount"],["\u0120char","les"],["\u0120prov","ide"],["\u0120book","s"],["\u0120small","er"],["\u0120","q"],["\u0120s","elf"],["ed","y"],["ap","h"],["\u0120sh","own"],["\u0120199","5"],["\u0120em","p"],["\u0120prev","ent"],["\u0120head","quar"],["\u0120discover","ed"],["\u0120priv","ate"],["\u0120m","r"],["ak","er"],["\u0120min","utes"],["\u0120short","ly"],["\u0120conf","l"],["\u0120god","s"],["\u0120tem","per"],["b","ack"],["g","ar"],["\u0120t","ar"],["\u0120o","ce"],["\u0120b","atter"],["\u0120n","ations"],["\u0120tr","ade"],["\u01203","8"],["\u0120198","0"],["\u0120tem","ple"],["\u0120exper","ience"],["\u0120fre","qu"],["\u0120defe","ated"],["\u0120t","v"],["\u0120c","m"],["um","p"],["um","ents"],["\u0120subsequ","ently"],["sel","ves"],["\u0120surf","ace"],["r","ack"],["as","es"],["\u0120bo","x"],["\u0120disc","uss"],["\u0120effect","s"],["\u0120m","om"],["\u01208","0"],["u","als"],["\u0120w","it"],["\u0120m","akes"],["\u0120r","are"],["\u0120fo","x"],["\u0120bl","ood"],["\u0120gre","ater"],["a","ult"],["\u0120b","ord"],["\u0120comp","l"],["\u0120team","s"],["\u0120person","al"],["\u0120ce","le"],["\u0120proble","ms"],["g","l"],["n","ers"],["in","ct"],["id","ents"],["\u0120le","arn"],["\u0120int","ended"],["\u0120num","bers"],["\u0120large","ly"],["\u0120colle","ction"],["\u0120ide","a"],["\u0120scient","ology"],["r","d"],["\u0120p","ian"],["\u0120h","air"],["\u0120con","clud"],["\u0120pl","at"],["ish","op"],["\u0120per","cent"],["\u0120ind","ic"],["\u0120most","ly"],["\u0120them","selves"],["\u0120met","res"],["\u0120conc","ert"],["\u0120ha","ifa"],["\u0120prim","ary"],["ste","in"],["or","ial"],["\u0120m","ort"],["\u0120d","j"],["\u0120se","v"],["ag","on"],["\u0120mo","v"],["\u0120un","it"],["\u0120201","6"],["\u0120qu","een"],["\u0120like","ly"],["\u0120capt","ured"],["\u0120val","ley"],["\u0120squ","are"],["\u0120refer","red"],["\u0120mach","ine"],["\u0120t","ell"],["\u0120t","enn"],["\u0120c","orn"],["if","orn"],["\u0120y","et"],["\u0120cro","at"],["\u0120const","ant"],["\u0120ke","ep"],["\u0120x","enon"],["\u0120cal","iforn"],["\u0120obs","erv"],["\u0120fav","or"],["rie","f"],["\u0120traff","ic"],["\u0120c","ause"],["it","es"],["\u0120p","aren"],["\u0120y","our"],["ra","el"],["\u0120who","le"],["\u0120me","thod"],["\u01207","5"],["\u0120rel","ative"],["\u0120loc","ation"],["\u0120ent","ered"],["ony","m"],["\u0120mark","et"],["\u0120tow","er"],["ap","t"],["\u0120ar","rang"],["\u0120ver","s"],["\u0120h","aw"],["\u0120cont","ains"],["\u0120fr","ank"],["\u0120gu","ard"],["\u0120port","ug"],["\u0120major","ity"],["\u0120great","est"],["\u0120ir","on"],["\u0120list","ed"],["\u0120constru","cted"],["\u0120mor","ning"],["\u0120rank","ed"],["\u0120lyric","s"],["\u0120headquar","ters"],["k","an"],["l","im"],["\u00c3","\u00b3"],["\u0120f","ru"],["\u0120le","aving"],["\u0120199","9"],["\u0120start","ing"],["i","res"],["\u0120p","air"],["is","es"],["\u0120r","uss"],["\u0120whe","ther"],["pl","es"],["\u0120stud","ies"],["\u0120equ","ip"],["\u0120bow","l"],["\u0120inform","ation"],["f","act"],["i","os"],["er","gy"],["\u0120b","en"],["\u0120p","et"],["\u0120d","an"],["\u0120d","oll"],["\u0120is","rael"],["\u0120ele","ction"],["\u0120compan","ies"],["\u0120offic","ers"],["\u0120195","0"],["\u0120compet","ition"],["\u0120jew","ish"],["\u0120oce","an"],["i","h"],["k","y"],["\u0120h","us"],["ic","ted"],["\u0120ad","op"],["ok","e"],["\u0120op","pos"],["\u0120cons","ist"],["\u0120cre","ate"],["\u0120fight","ing"],["\u0120gal","vest"],["\u0120galvest","on"],["\u0120a","st"],["\u0120o","tt"],["\u0120b","ad"],["\u0120f","ans"],["\u0120to","urn"],["ic","a"],["\u0120l","in"],["\u0120ch","ief"],["ugh","t"],["\u0120chang","ed"],["g","ian"],["om","m"],["\u0120pro","posed"],["\u0120form","s"],["\u0120them","e"],["\u0120episod","es"],["li","ke"],["\u0120conc","ern"],["\u0120sett","le"],["\u0120ult","im"],["\u0120cele","br"],["h","a"],["l","or"],["s","en"],["v","ille"],["\u0120t","akes"],["\u0120w","ing"],["\u0120f","est"],["\u0120in","h"],["\u0120m","aster"],["\u0120l","ived"],["\u0120j","am"],["\u0120v","an"],["os","s"],["\u0120pl","ans"],["\u0120em","er"],["\u0120sold","iers"],["\u0120influ","ence"],["\u0120news","p"],["\u0120agre","ed"],["\u0120jour","nal"],["\u0120commit","te"],["\u0120admin","ist"],["m","en"],["o","f"],["\u0120b","rief"],["\u0120p","ow"],["\u0120l","og"],["\u0120pro","p"],["\u0120tr","ue"],["\u0120col","or"],["te","en"],["\u0120rem","o"],["\u0120sing","les"],["\u0120run","s"],["\u0120contro","ll"],["\u0120incre","ase"],["\u0120stand","ard"],["\u0120move","ment"],["\u0120mean","ing"],["\u0120laun","ched"],["\u0120californ","ia"],["p","ool"],["z","y"],["\u0120f","er"],["\u0120d","ed"],["\u0120l","iver"],["iv","a"],["\u0120comp","ared"],["\u0120sc","ript"],["\u0120del","iver"],["\u0120coun","ter"],["\u0120independ","ent"],["\u0120quick","ly"],["\u0120cath","olic"],["\u0120c","ra"],["\u0120c","rick"],["\u0120p","an"],["\u0120d","um"],["\u0120l","ady"],["ur","ity"],["ch","ange"],["\u0120sh","a"],["\u0120me","ant"],["\u0120br","ad"],["\u0120min","ute"],["\u0120vill","a"],["\u0120tre","es"],["\u0120occur","red"],["a","ut"],["r","or"],["\u0120a","le"],["\u0120th","ings"],["em","ents"],["\u0120le","ave"],["\u0120att","ract"],["\u0120br","ing"],["\u0120ass","igned"],["\u0120acc","ess"],["\u0120art","ist"],["\u0120six","th"],["\u0120mag","n"],["\u0120cor","ps"],["\u0120foc","us"],["\u0120v","ot"],["\u0120mo","le"],["ill","ery"],["\u0120ad","ult"],["ke","y"],["\u0120art","illery"],["\u0120ins","ide"],["\u0120appear","s"],["\u0120serv","ices"],["\u0120defe","at"],["\u0120ta","x"],["\u0120destroy","ed"],["\u0120tradition","al"],["\u0120condom","s"],["osaur","us"],["\u0120saf","e"],["\u0120gir","l"],["\u0120deter","m"],["\u0120scre","en"],["\u0120t","ons"],["\u0120an","al"],["is","ions"],["\u0120n","ix"],["\u0120g","all"],["le","ct"],["ab","ility"],["\u0120ser","ious"],["\u01204","00"],["\u0120long","er"],["\u0120school","s"],["\u0120requ","est"],["\u0120dou","ble"],["\u0120chic","ago"],["\u0120contem","porary"],["r","up"],["\u0120b","omb"],["\u0120d","yn"],["om","an"],["\u0120he","re"],["\u0120as","ked"],["ch","ing"],["\u0120ro","ss"],["\u0120en","s"],["\u0120sc","hed"],["\u0120she","ll"],["\u01207","0"],["\u0120194","0"],["\u0120invest","ig"],["t","ar"],["\u0120a","er"],["ad","ed"],["\u0120al","ice"],["and","on"],["\u0120ro","w"],["\u0120bo","und"],["\u0120can","n"],["\u0120car","ried"],["\u0120rev","olution"],["\u0120award","ed"],["\u0120prote","ins"],["\u0120sour","ce"],["\u0120cycl","one"],["z","z"],["\u0120d","one"],["\u0120h","und"],["\u0120l","atin"],["\u01203","3"],["\u0120mar","riage"],["\u0120sp","ir"],["\u0120some","thing"],["\u0120199","8"],["\u0120writ","ers"],["\u0120end","ing"],["\u0120build","ings"],["\u0120init","ial"],["\u0120condu","cted"],["\u0120hosp","ital"],["\u0120daugh","ter"],["\u0120hund","red"],["g","a"],["i","i"],["l","ight"],["w","ell"],["\u0120p","il"],["ou","th"],["\u0120it","al"],["\u0120dist","rict"],["\u0120comple","x"],["\u0120ann","ual"],["\u0120appro","ach"],["\u0120assoc","iated"],["\u0120stat","us"],["\u0120burn","s"],["\u0120rap","id"],["\u0120anc","ient"],["\u0120twent","y"],["\u01203","00"],["\u0120sc","ot"],["\u0120dis","p"],["\u0120pr","inc"],["\u0120ent","er"],["\u0120consid","er"],["\u0120193","0"],["\u0120emp","ire"],["it","ect"],["\u0120al","kan"],["\u0120r","h"],["\u0120con","ference"],["\u0120k","ick"],["ri","a"],["\u0120un","able"],["\u0120mar","ried"],["\u0120199","3"],["\u0120album","s"],["\u0120pol","ish"],["\u0120const","it"],["\u0120arch","itect"],["\u0120comment","ed"],["k","er"],["\u0120","+"],["\u0120g","a"],["\u0120en","v"],["\u0120im","age"],["ail","s"],["\u0120pr","ince"],["\u0120num","erous"],["\u0120vict","or"],["\u0120cast","le"],["\u0120afric","an"],["\u0120scen","es"],["\u0120hus","band"],["\u0120liver","pool"],["\u0120nix","on"],["o","or"],["\u0120t","ay"],["\u0120b","ud"],["\u0120f","ow"],["\u0120p","urch"],["\u0120m","ic"],["ro","s"],["\u0120r","ay"],["\u01203","2"],["ell","ed"],["ific","ation"],["\u0120produc","er"],["h","ou"],["\u0120m","el"],["\u0120te","xas"],["\u0120min","ister"],["\u0120christ","m"],["\u0120position","s"],["\u0120manag","ement"],["\u0120insp","ired"],["k","en"],["\u0120f","ant"],["ac","hes"],["\u0120con","ver"],["ers","et"],["\u0120spe","ed"],["\u0120ter","ms"],["\u0120attack","s"],["\u0120track","s"],["\u0120som","erset"],["\u0120m","al"],["\u0120th","ick"],["ac","ing"],["and","s"],["and","er"],["um","n"],["\u0120ear","ned"],["\u0120def","ense"],["\u0120cro","wn"],["\u0120land","s"],["\u0120imp","act"],["\u0120individ","ual"],["\u0120accom","pan"],["\u0120mos","ley"],["\u0120pian","o"],["c","ing"],["u","an"],["\u0120d","ail"],["\u0120r","at"],["\u0120ch","ann"],["\u0120pl","anned"],["\u0120rec","over"],["\u0120sp","ring"],["\u0120199","6"],["\u01209","0"],["\u0120ac","qu"],["\u0120var","iety"],["\u0120adv","ance"],["\u0120giv","ing"],["\u0120bus","ch"],["\u0120iss","ued"],["\u0120beg","ins"],["\u0120dail","y"],["\u0120","ign"],["\u0120l","if"],["\u0120th","row"],["\u0120ch","all"],["\u0120v","ia"],["\u0120mar","ked"],["\u0120inter","act"],["\u0120act","or"],["\u0120ed","ge"],["\u0120perform","ances"],["\u0120direct","ly"],["\u0120histor","ical"],["\u0120nucle","ar"],["\u0120immedi","ately"],["\u0120committe","e"],["\u0120b","id"],["\u0120p","le"],["\u0120h","orn"],["\u0120y","ellow"],["\u0120un","like"],["\u0120im","ag"],["yl","v"],["\u0120fig","ure"],["\u0120doc","ument"],["\u0120span","ish"],["\u0120tay","lor"],["\u0120christm","as"],["\u0120b","ank"],["\u0120p","ath"],["\u0120port","ray"],["\u0120hel","ped"],["\u0120sl","ight"],["\u0120organ","ization"],["\u0120comb","at"],["\u0120wat","ers"],["\u0120withd","ra"],["\u0120fow","ler"],["g","en"],["o","o"],["\u0120","und"],["\u0120c","and"],["an","ced"],["\u0120p","up"],["\u0120re","in"],["um","ed"],["ist","ics"],["\u0120par","is"],["\u0120cons","erv"],["\u0120pol","ic"],["\u0120exper","i"],["\u0120suff","ered"],["\u0120","ess"],["\u0120s","out"],["it","or"],["is","er"],["ar","i"],["\u0120h","abit"],["ch","an"],["\u0120us","es"],["\u0120near","by"],["\u0120adv","ent"],["\u0120bab","y"],["e","th"],["v","iet"],["w","or"],["\u0120o","m"],["it","ude"],["\u0120re","ally"],["\u0120r","am"],["\u0120j","ane"],["\u0120ab","andon"],["\u0120so","viet"],["ath","an"],["\u0120lead","ers"],["\u0120met","al"],["\u0120che","m"],["\u0120present","ed"],["\u0120cult","ural"],["\u0120clos","ed"],["er","a"],["\u0120o","w"],["\u0120g","i"],["\u0120be","ach"],["ru","ction"],["\u0120fin","anc"],["\u0120we","ap"],["\u0120pres","ence"],["\u0120ra","ised"],["\u0120dr","um"],["\u0120cas","ual"],["\u0120voc","als"],["\u0120a","w"],["he","m"],["\u0120w","ound"],["\u0120n","est"],["\u0120be","at"],["\u0120st","ad"],["ur","g"],["\u0120per","fect"],["\u0120contin","ue"],["\u0120miss","ion"],["\u0120contro","vers"],["\u0120attempt","s"],["\u0120fig","ures"],["\u0120rose","ber"],["\u0120ru","le"],["\u0120carol","ina"],["\u0120virgin","ia"],["\u00c3\u00b3","n"],["ylv","ania"],["b","a"],["k","el"],["it","ation"],["is","c"],["\u0120be","low"],["\u0120r","hy"],["oc","ks"],["\u0120dis","m"],["iam","i"],["\u0120hand","s"],["\u0120sk","y"],["\u0120cover","ed"],["\u0120feder","al"],["\u0120penn","s"],["d","a"],["\u0120f","iction"],["\u0120p","ict"],["\u0120n","ation"],["\u0120r","if"],["\u0120j","un"],["\u0120k","ind"],["all","ed"],["\u0120pe","ace"],["\u0120rel","ief"],["\u0120contin","u"],["\u0120offic","er"],["\u0120compos","ed"],["\u0120sele","cted"],["\u0120assemb","ly"],["\u0120princ","ip"],["l","in"],["m","on"],["n","y"],["u","k"],["\u0120","\u00c3"],["\u0120as","pect"],["\u0120dis","e"],["\u0120col","d"],["\u0120199","7"],["\u0120ext","ended"],["\u0120appear","ances"],["\u0120cour","se"],["\u0120hig","her"],["\u0120bey","onc"],["\u0120sho","ot"],["\u0120bod","ies"],["\u0120beyonc","\u00c3\u00a9"],["j","oy"],["\u0120f","ell"],["\u0120m","iami"],["\u0120th","ir"],["et","ic"],["\u0120en","joy"],["ess","a"],["\u0120off","ensive"],["\u0120count","ries"],["\u0120german","y"],["\u0120need","ed"],["r","ical"],["\u0120s","and"],["\u0120b","ond"],["\u0120p","aper"],["\u0120th","under"],["and","ed"],["\u0120pl","aces"],["ip","p"],["\u01203","9"],["ous","ly"],["\u0120me","yer"],["\u0120pre","p"],["\u0120inc","or"],["\u0120sever","e"],["\u0120power","ful"],["\u0120situ","ation"],["stand","ing"],["an","as"],["\u0120m","ile"],["ro","om"],["ic","an"],["ve","y"],["\u0120com","edy"],["\u0120ar","ts"],["\u0120rec","ent"],["\u0120te","xt"],["\u0120fr","anc"],["\u0120high","ly"],["\u0120em","per"],["\u0120cro","w"],["\u0120attack","ed"],["\u0120prom","in"],["che","ster"],["\u0120streng","th"],["\u0120mur","der"],["\u0120fru","it"],["\u0120fest","ival"],["d","ing"],["m","ium"],["\u0120l","ink"],["\u0120re","ject"],["\u0120se","arch"],["\u0120sing","er"],["\u0120trans","l"],["\u0120conf","ir"],["\u0120prote","in"],["\u0120cad","mium"],["\u0120anal","ys"],["\u0120penns","ylvania"],["\u0120b","ol"],["\u0120b","ass"],["ur","ies"],["\u0120ne","cess"],["ap","o"],["\u0120pl","ant"],["\u0120en","ergy"],["\u0120inter","se"],["\u0120north","west"],["\u0120ed","ition"],["\u0120dist","ance"],["itt","ing"],["\u0120allow","ing"],["\u0120acad","emy"],["\u0120mult","ip"],["\u0120mov","ie"],["\u0120remo","ved"],["\u0120w","r"],["\u0120p","ul"],["\u0120n","ico"],["ve","ment"],["\u0120off","ered"],["\u0120can","c"],["ib","ly"],["\u0120ass","ault"],["\u0120act","ive"],["\u0120fore","ign"],["\u0120level","s"],["\u0120jack","son"],["\u0120wide","ly"],["\u0120peak","ed"],["\u0120sex","ual"],["\u0120theat","re"],["\u0120scot","land"],["\u0120w","ave"],["\u0120f","ill"],["\u0120p","ick"],["\u0120re","ar"],["\u0120r","is"],["\u0120r","ate"],["\u0120j","ose"],["\u0120res","c"],["\u01204","2"],["\u012018","2"],["\u0120me","ans"],["\u0120199","1"],["\u0120chr","is"],["\u0120govern","or"],["\u0120attempt","ed"],["\u0120som","al"],["\u0120comb","ined"],["\u0120mod","el"],["\u0120typ","ically"],["\u0120meet","ing"],["\u0120voc","al"],["\u0120cop","ies"],["\u0120sil","ver"],["\u0120ey","e"],["a","x"],["p","ole"],["r","at"],["t","rack"],["\u0120s","we"],["\u0120g","ard"],["im","ony"],["ct","s"],["\u0120ch","ina"],["ant","a"],["\u0120sc","oring"],["rib","ution"],["\u0120them","es"],["\u0120sound","track"],["\u0120wind","ow"],["\u0120respect","ively"],["\u0120respons","ible"],["\u0120stad","ium"],["\u0120s","ister"],["\u0120and","erson"],["\u0120th","ous"],["om","et"],["\u0120res","er"],["\u01204","7"],["land","s"],["\u0120gen","us"],["\u0120ent","ertain"],["\u0120describ","es"],["\u0120adv","ant"],["\u0120island","s"],["\u0120activ","ities"],["\u0120lab","or"],["\u0120sym","b"],["\u0120touch","down"],["c","ar"],["\u0120b","ul"],["\u0120an","th"],["\u0120al","tern"],["\u0120se","ts"],["\u0120te","ach"],["\u0120form","ation"],["\u0120op","p"],["\u0120199","2"],["\u0120exp","ress"],["\u0120heav","ily"],["\u0120sport","s"],["\u0120bra","at"],["\u0120obser","ved"],["\u0120hous","es"],["\u0120quest","ion"],["\u0120env","ir"],["b","our"],["\u0120s","ir"],["\u0120h","u"],["ol","f"],["\u0120ro","ugh"],["port","un"],["\u01204","4"],["\u0120rem","ix"],["\u0120op","portun"],["\u0120199","4"],["\u0120ph","ot"],["\u0120right","s"],["\u0120look","ing"],["\u0120redu","ced"],["\u0120paren","ts"],["\u0120ale","x"],["e","e"],["in","y"],["\u0120s","ales"],["ic","ient"],["\u0120bo","b"],["\u0120gr","aph"],["\u0120qu","ality"],["\u0120min","nes"],["\u0120def","ence"],["\u0120arm","ed"],["\u0120mat","ches"],["\u0120result","ed"],["\u0120nort","heast"],["\u0120aud","ience"],["\u0120conclud","ed"],["\u0120crick","et"],["\u0120minnes","ota"],["n","h"],["t","ic"],["\u0120w","id"],["\u0120m","as"],["ad","o"],["et","t"],["\u0120k","ak"],["\u0120cl","im"],["\u0120res","idents"],["\u0120ma","xim"],["\u0120call","ing"],["\u0120report","s"],["\u0120activ","ity"],["\u0120complete","ly"],["\u0120cond","itions"],["\u0120cand","id"],["\u0120kak","apo"],["c","a"],["g","ing"],["h","ood"],["\u0120s","pl"],["is","her"],["\u0120l","ot"],["\u0120re","form"],["\u0120st","ating"],["\u0120j","im"],["\u0120su","c"],["\u0120man","aged"],["\u0120pre","par"],["\u0120car","ry"],["\u0120feat","uring"],["\u0120ve","hic"],["\u0120towns","end"],["\u0120reve","aled"],["\u0120effort","s"],["\u0120contr","ast"],["\u0120roseber","y"],["\u0120s","ac"],["\u0120b","on"],["es","b"],["\u0120fin","als"],["\u0120spec","im"],["\u0120def","end"],["\u0120desc","ription"],["\u0120art","ists"],["\u0120eu","rop"],["\u0120prot","ect"],["\u0120ref","used"],["\u0120decl","ared"],["\u0120separ","ate"],["\u0120dom","est"],["\u0120spir","it"],["\u0120ital","ian"],["\u0120envir","on"],["r","ate"],["\u0120s","av"],["\u0120d","ress"],["\u0120re","ign"],["\u0120be","ll"],["\u0120fin","kel"],["\u0120there","fore"],["\u0120win","ter"],["\u0120sub","s"],["\u0120ent","r"],["olog","ist"],["\u0120fam","il"],["be","er"],["\u0120wal","pole"],["\u0120independ","ence"],["\u0120hon","or"],["for","ce"],["\u0120haw","ai"],["\u0120chann","el"],["\u0120meyer","beer"],["\u0120finkel","stein"],["\u0120t","on"],["\u0120t","essa"],["\u0120c","ert"],["\u0120b","ed"],["\u0120m","un"],["\u0120l","ie"],["ent","al"],["\u0120com","ing"],["if","y"],["ap","ed"],["\u0120sh","iva"],["\u0120sec","urity"],["ath","us"],["\u0120season","s"],["\u0120inst","r"],["\u0120chr","onic"],["\u0120ext","ensive"],["\u0120ext","reme"],["\u0120tit","les"],["\u0120nav","al"],["\u0120casual","ties"],["\u0120emper","or"],["b","od"],["\u0120a","ctions"],["ter","ed"],["\u0120y","ue"],["\u0120ex","pected"],["\u0120ad","am"],["\u01205","1"],["\u0120br","anch"],["\u01207","6"],["\u0120sm","ith"],["\u0120iss","ues"],["\u0120ott","oman"],["\u0120nico","le"],["\u0120n","in"],["\u0120g","h"],["op","h"],["\u0120play","s"],["\u0120we","aken"],["\u0120pre","c"],["\u0120att","ention"],["\u0120main","ly"],["\u0120resp","ond"],["\u0120word","s"],["\u0120becom","es"],["\u0120pract","ice"],["i","ate"],["\u0120f","ast"],["\u0120f","ish"],["ab","or"],["\u01203","7"],["\u0120sc","ale"],["\u0120off","er"],["\u0120we","bs"],["\u0120em","ot"],["\u0120stru","gg"],["\u0120typ","es"],["\u0120tourn","ament"],["\u0120braat","hens"],["g","al"],["u","fact"],["\u0120s","ense"],["is","l"],["\u0120was","h"],["\u0120con","se"],["ag","ing"],["\u0120sh","r"],["\u0120man","ufact"],["\u0120act","ually"],["\u0120leg","isl"],["\u0120prog","ress"],["\u0120ha","it"],["\u0120prim","arily"],["\u0120let","ters"],["\u0120exc","av"],["\u0120bord","er"],["\u0120ultim","ately"],["\u0120l","is"],["\u0120ro","les"],["ell","ig"],["\u0120int","ellig"],["\u0120act","ress"],["\u0120li","ber"],["\u0120writ","e"],["\u0120john","son"],["\u0120stru","ck"],["\u0120dem","onst"],["\u0120ill","ino"],["\u0120hot","el"],["\u0120accept","ed"],["\u0120achie","ved"],["\u0120cann","ot"],["b","ed"],["\u0120w","ear"],["\u0120b","ene"],["\u0120f","ully"],["\u0120su","st"],["\u0120co","re"],["\u0120rec","omm"],["ru","ct"],["\u0120we","ather"],["\u0120col","ony"],["\u0120char","l"],["\u0120jo","b"],["\u0120gr","ass"],["\u0120fol","k"],["\u0120found","ation"],["ues","e"],["\u0120view","ers"],["\u0120author","ity"],["\u0120ill","ust"],["aren","t"],["\u0120vietn","am"],["\u0120portug","uese"],["\u0120entertain","ment"],["\u0120t","ree"],["on","ents"],["\u0120c","ateg"],["\u0120f","air"],["le","g"],["\u0120al","one"],["\u0120j","ul"],["\u0120ne","igh"],["av","en"],["\u0120ad","vert"],["\u0120ap","art"],["\u01204","8"],["\u012018","1"],["\u0120work","ers"],["\u0120ele","v"],["\u0120along","side"],["\u0120leg","al"],["ah","a"],["\u0120ant","imony"],["\u0120beh","av"],["\u0120author","ities"],["\u0120flood","ing"],["\u0120sequ","ence"],["\u0120rain","fall"],["in","al"],["\u0120c","ab"],["\u0120d","ang"],["\u0120h","ors"],["\u0120l","b"],["ur","s"],["ess","ions"],["\u0120sp","read"],["\u01205","2"],["\u0120col","umb"],["\u0120bro","ken"],["\u0120ele","cted"],["\u0120ter","min"],["\u0120198","6"],["\u0120own","ed"],["\u0120occ","asion"],["\u0120meas","ure"],["\u0120batter","y"],["\u0120mom","ent"],["\u0120newsp","aper"],["\u0120slight","ly"],["w","rit"],["\u0120s","r"],["\u0120b","ishop"],["an","es"],["\u0120m","ales"],["\u0120d","ream"],["\u0120d","ata"],["ing","u"],["ic","ip"],["ac","her"],["\u0120st","an"],["\u0120r","idge"],["ul","ations"]],"type":"BPE","unk_token":"<unk>","vocab":{"!":1,"\"":2,"#":3,"$":4,"%":5,"&":6,"'":7,"(":8,")":9,"*":10,"+":11,",":12,",@":611,"-":13,"-@":333,".":14,"..":1312,".@":565,"/":15,"0":16,"00":382,"1":17,"2":18,"3":19,"4":20,"5":21,"6":22,"7":23,"8":24,"9":25,":":26,";":27,"<":28,"<unk>":0,"=":29,">":30,"?":31,"@":32,"A":33,"B":34,"C":35,"D":36,"E":37,"F":38,"G":39,"H":40,"I":41,"J":42,"K":43,"L":44,"M":45,"N":46,"O":47,"P":48,"Q":49,"R":50,"S":51,"T":52,"U":53,"V":54,"W":55,"X":56,"Y":57,"Z":58,"[":59,"\\":60,"]":61,"^":62,"_":63,"`":64,"a":65,"ab":426,"ability":3317,"abit":2782,"able":696,"ably":1891,"abor":3972,"ac":322,"ace":629,"aced":1231,"aces":1768,"ach":602,"ached":1469,"acher":4092,"aches":3447,"acing":3457,"ack":444,"act":604,"acy":2225,"ad":321,"ade":597,"aded":3342,"ades":1902,"ado":3851,"ady":1608,"ae":1625,"ael":2045,"af":2402,"aff":1620,"ag":379,"age":539,"aged":1302,"ages":1309,"aging":3988,"ago":2591,"agon":3088,"ague":1201,"ah":1239,"aha":4055,"ai":1613,"aign":1991,"ail":653,"ailed":1765,"ails":3415,"aim":1321,"ain":374,"ained":883,"aining":1183,"ains":1035,"aint":1929,"air":976,"ak":420,"ake":702,"aken":1550,"aker":3011,"akes":1398,"aking":1060,"al":290,"aland":2582,"ald":2186,"ale":927,"aled":2857,"ales":1189,"ality":2193,"all":418,"alled":3619,"ally":461,"als":710,"alth":2056,"aly":2251,"am":315,"ama":2424,"amb":2669,"ame":425,"amed":1090,"ament":1408,"ames":780,"amp":662,"ample":2101,"an":279,"ana":2588,"anas":3673,"anc":1191,"ance":586,"anced":3529,"ances":1423,"anch":2537,"and":373,"anded":3661,"ander":3459,"andon":3344,"ands":3458,"ane":855,"anes":4086,"ang":621,"ange":1091,"ania":2556,"ank":954,"ann":1017,"anna":2840,"anned":2665,"ans":592,"ant":433,"anta":3772,"antic":2019,"ants":1381,"ap":408,"ape":2033,"aped":3931,"aper":2270,"aph":3002,"apo":3709,"app":1696,"aps":2625,"apt":3127,"ar":287,"ara":2164,"arch":1504,"ard":419,"ards":1495,"are":581,"ared":999,"aren":1986,"arent":4034,"ari":3543,"aries":2759,"arily":2825,"aring":2952,"ark":1508,"arn":1837,"ars":1407,"art":416,"ary":472,"as":294,"ase":682,"ased":667,"ases":3038,"ash":1416,"asing":2132,"asion":2659,"ask":2538,"ason":652,"ass":550,"ast":454,"aster":1582,"at":275,"ata":2606,"ate":402,"ated":431,"ateg":2938,"ately":1255,"ater":530,"ates":707,"ath":723,"athan":3560,"ather":962,"athus":3934,"atic":1976,"atin":2574,"ating":856,"ation":356,"ational":767,"ations":599,"ative":920,"ator":2128,"ators":2517,"atory":2903,"ats":1342,"att":759,"atter":1632,"ature":1472,"au":2044,"ault":3051,"aur":1609,"aus":724,"ause":889,"aut":3277,"av":466,"ave":451,"aven":4046,"aves":2100,"aving":1228,"aw":1244,"ax":3763,"ay":346,"az":1127,"b":66,"ba":3598,"back":3017,"ball":1334,"band":2734,"bar":2765,"bc":2970,"be":1337,"bed":4015,"beer":3913,"ber":424,"bers":2960,"bert":1618,"ble":1313,"bo":1584,"board":2554,"bod":3944,"bor":2793,"bour":3814,"br":1688,"bru":1692,"bs":1562,"by":1371,"c":67,"ca":3864,"car":3797,"cast":2480,"cc":481,"ccess":1048,"ce":355,"ced":643,"ceed":2356,"cent":2291,"cept":1089,"ces":650,"cess":1279,"ch":364,"chan":3545,"change":3269,"che":1983,"ched":1473,"cher":2253,"ches":1738,"chester":3688,"ching":3332,"cil":2078,"cing":3470,"ck":810,"cl":469,"cle":2971,"clud":593,"clus":2708,"co":1960,"com":2461,"craft":1848,"ct":339,"cted":801,"ction":497,"ctions":1400,"ctor":2435,"cts":3770,"cut":2141,"cutive":2685,"d":68,"da":3612,"day":1802,"den":2396,"der":687,"ding":3693,"dle":2305,"dom":1210,"down":2912,"ds":1401,"du":570,"e":69,"ead":1813,"ear":545,"ect":568,"ected":1835,"ed":270,"eder":1494,"edy":3001,"ee":3830,"een":2219,"el":348,"eler":2552,"elf":998,"ell":489,"elled":3434,"ellig":4002,"elling":2592,"ellow":2498,"els":1192,"elt":1615,"em":385,"emb":1040,"ember":936,"ement":1226,"ements":3281,"empt":1317,"emy":2248,"en":276,"enc":1832,"ence":578,"enced":2182,"ences":1507,"ency":2418,"end":499,"ended":1200,"ending":2052,"ends":2872,"ene":1630,"ened":2074,"eng":1645,"enn":1173,"enon":2844,"ens":671,"ense":1440,"ensive":1588,"ent":309,"ental":3928,"enth":2204,"ential":2511,"ention":1492,"ently":1430,"ents":700,"ep":882,"er":262,"era":3567,"erc":1729,"ere":396,"ered":815,"ergy":3163,"eric":756,"ering":1798,"ern":1721,"erous":2504,"ers":388,"erset":3449,"erson":2906,"ert":947,"ertain":1788,"erv":1605,"ery":1652,"es":286,"esb":3886,"ese":1936,"ess":440,"essa":3651,"ession":2627,"essions":4068,"est":380,"estern":1666,"et":367,"eth":3550,"etic":3649,"ets":1242,"ett":3852,"eum":2443,"ey":2666,"f":70,"fact":3161,"fall":2111,"fect":2913,"fer":717,"ference":2948,"ff":603,"fic":1906,"field":2314,"for":2742,"force":3917,"ford":1928,"fore":773,"form":715,"ft":785,"ful":1003,"g":71,"ga":3371,"gal":3982,"gan":720,"gar":3018,"ge":456,"ged":1581,"gen":3525,"ger":1288,"ges":2127,"gest":1068,"get":1296,"gg":2631,"gh":427,"gian":3198,"gin":1324,"ging":3865,"gl":3058,"go":2881,"gr":2199,"ground":1921,"gy":1533,"h":72,"ha":3209,"ham":1476,"he":259,"head":2823,"heast":2605,"hed":516,"hel":1422,"hem":3580,"hen":1385,"hens":2704,"her":378,"here":2495,"hes":874,"hest":2471,"hib":2928,"hic":2382,"hip":791,"hn":933,"hood":3866,"hou":3437,"hy":1512,"i":73,"ia":477,"ial":515,"ially":1098,"iam":1384,"iami":3606,"ian":459,"ians":1459,"iate":3969,"iated":2191,"iation":1506,"ib":634,"ibility":2762,"ible":1136,"ibly":3728,"ic":298,"ica":3193,"ical":509,"ically":1538,"ican":3676,"icated":2355,"ication":2953,"ice":627,"ices":1763,"ich":415,"icient":3833,"icip":4091,"ick":806,"ico":1627,"ics":872,"ict":776,"icted":3179,"iction":2342,"id":332,"ida":2331,"ide":495,"ided":1088,"idence":1940,"ident":948,"idents":3061,"ides":1457,"idge":1733,"iding":2542,"ids":2386,"ie":447,"ied":665,"ief":1996,"iel":864,"ield":983,"ience":1448,"ient":1188,"ier":1206,"iers":2122,"ies":395,"iet":972,"iety":1770,"iew":779,"if":391,"ifa":2932,"ife":865,"iff":2849,"ific":836,"ification":3435,"ified":1332,"iforn":3102,"ify":3930,"ig":338,"igh":413,"ight":467,"igin":890,"ign":527,"igned":2319,"ih":3176,"ii":3372,"ik":2580,"il":305,"ilar":1417,"ild":678,"ile":582,"ilities":2859,"ility":1360,"ill":404,"ille":2282,"illery":3294,"ilt":1249,"ily":849,"im":330,"ime":1424,"iment":1668,"imes":2434,"imin":2922,"imony":3769,"in":260,"ina":1339,"inal":4062,"ination":2105,"inc":1752,"ince":894,"inct":3060,"ind":1158,"ine":464,"ined":1054,"ines":941,"iness":2083,"ing":293,"ings":684,"ington":2634,"ingu":4090,"ining":2961,"ink":1461,"ino":2403,"ins":1059,"int":866,"inted":1901,"ints":2038,"iny":3831,"io":959,"iod":1359,"ion":300,"ional":1318,"ions":622,"ior":1621,"ios":3162,"ious":697,"ip":452,"ipp":3663,"ique":2246,"ir":331,"ird":879,"ire":543,"ired":1020,"ires":3151,"is":283,"isc":3601,"ise":956,"ised":937,"iser":3542,"ises":3153,"ish":471,"ished":792,"isher":3868,"ishing":2577,"ishop":3074,"ising":1857,"ision":783,"isions":3313,"isl":3985,"ism":1377,"ison":1546,"iss":714,"ission":1661,"ist":401,"isted":2117,"ister":1623,"istic":2717,"istics":3533,"ists":1171,"it":277,"ita":2748,"ital":1394,"itar":1694,"itation":3600,"ite":625,"itect":3396,"ited":660,"iter":1706,"ites":3114,"ith":342,"ither":1846,"ities":906,"iting":2106,"ition":520,"itions":1785,"itive":2011,"itor":3541,"its":944,"itt":1140,"itted":2150,"itting":3716,"itude":3554,"ity":434,"itz":2962,"ium":1176,"ius":2639,"iv":407,"iva":3255,"ival":1779,"ive":422,"ived":907,"ively":1829,"iver":642,"ivers":1164,"ives":1509,"ivid":2144,"iving":1993,"ix":683,"iz":631,"ization":2293,"ize":1820,"ized":1093,"j":74,"je":2972,"ject":932,"joy":3645,"k":75,"kan":3144,"ke":606,"ked":1142,"kel":3599,"ken":3445,"ker":3410,"key":3296,"king":2343,"ks":654,"ky":3177,"l":76,"land":575,"lands":3787,"ld":400,"le":312,"lect":3316,"led":991,"leg":4042,"ler":1772,"les":690,"less":2596,"let":1571,"ley":1052,"li":938,"light":3373,"like":3204,"lim":3145,"lin":3628,"line":1759,"ling":1490,"lish":1215,"ll":811,"lo":2061,"lor":3210,"low":608,"ls":2197,"ly":319,"m":77,"ma":2943,"man":691,"mar":2200,"mber":895,"me":1662,"med":1491,"medi":2438,"men":3231,"ment":446,"ments":974,"mer":1528,"min":1545,"ming":2376,"mium":3694,"mon":3629,"most":1933,"mp":2536,"ms":1175,"my":2373,"n":78,"na":1520,"nal":2693,"nd":1751,"ne":994,"ned":2366,"nel":2914,"ner":1375,"ners":3059,"nes":2383,"ness":1642,"ney":2148,"nh":3847,"ning":797,"ny":3630,"o":79,"ob":2046,"ober":1265,"oc":443,"ock":1315,"ocks":3604,"od":398,"ody":1304,"of":3232,"off":2801,"og":536,"ogn":2094,"ograp":1427,"ography":2393,"oid":2866,"ok":540,"oke":3181,"ol":335,"old":762,"ole":2453,"olf":3817,"olic":2739,"oll":2640,"olog":826,"ological":1941,"ologist":3911,"ology":1323,"olution":2264,"om":316,"oman":3329,"omb":2103,"ome":517,"omet":3784,"omin":1389,"omm":3199,"on":268,"onc":2991,"ond":574,"one":658,"onents":4039,"ones":1965,"oney":2720,"ong":414,"onic":2346,"onom":2077,"ons":817,"onse":2894,"onst":2572,"ont":1120,"ony":1150,"onym":3124,"oo":3526,"ood":822,"ool":989,"oon":2699,"oor":3425,"op":412,"oph":3959,"ops":1572,"or":280,"oration":2868,"ord":457,"ordan":2387,"ore":507,"ored":1344,"ores":2822,"orial":3084,"ories":1578,"oring":2445,"ork":1014,"orm":549,"orn":888,"ors":732,"ort":403,"ory":585,"os":381,"osaur":2277,"osaurus":3306,"ose":676,"osp":1823,"oss":3221,"ost":1074,"ot":354,"ota":2211,"other":885,"ots":1669,"ott":1670,"ou":310,"ough":579,"ought":2311,"ould":503,"oun":950,"ound":2053,"ount":1464,"our":462,"ouri":2518,"ous":504,"ouse":1161,"ously":3665,"out":529,"outh":3376,"ov":1644,"ove":2087,"over":1240,"ow":344,"ower":1025,"own":555,"oy":1019,"p":80,"pan":2464,"par":1701,"pe":393,"pec":2269,"pect":1291,"pected":2780,"ped":1007,"per":519,"ph":911,"ping":2444,"pl":541,"play":1903,"ple":1405,"ples":3156,"ploy":1854,"ply":2597,"pole":3764,"pool":3250,"por":1383,"porary":2763,"port":526,"portun":3819,"pos":990,"posed":1671,"pr":2855,"ps":1636,"pt":458,"ption":1392,"q":81,"qu":430,"quar":2885,"que":1592,"r":82,"ra":518,"rack":3037,"ract":1498,"rael":3117,"raft":1444,"ral":763,"ram":1107,"rang":2384,"rap":1128,"rat":3765,"rate":3901,"rated":2667,"ration":1988,"ray":2163,"rd":3069,"re":266,"read":2465,"ready":2758,"ream":2255,"reat":743,"red":435,"ree":551,"reek":1989,"reg":2856,"reme":2867,"ren":637,"rench":1532,"rent":1865,"res":399,"ress":635,"ressed":2095,"ression":1815,"rest":2374,"ret":1790,"rew":1964,"ri":383,"ria":3401,"riage":2955,"rian":2918,"rib":672,"ributed":2650,"ribution":3774,"ric":607,"rical":3656,"rick":2076,"rict":2350,"rie":2190,"ried":1794,"rief":3111,"ries":2226,"ril":1322,"ring":1799,"ript":2063,"ription":2729,"rison":2735,"rit":453,"ro":297,"rodu":1702,"rom":369,"ron":1372,"room":3675,"rop":800,"ropical":1287,"ror":3278,"ros":3431,"ross":1843,"rote":1300,"rough":655,"rought":2152,"round":688,"row":1456,"roy":1762,"ru":553,"ruct":4022,"ruction":3571,"rup":3326,"ry":584,"s":83,"se":421,"sel":2503,"self":1600,"selves":3035,"sen":3211,"sequ":1877,"sh":2092,"ship":2982,"side":1626,"sion":1319,"so":493,"son":958,"ss":820,"st":313,"stand":2794,"standing":3672,"ste":2992,"stein":3083,"stem":1132,"ster":1418,"ston":1834,"su":2509,"t":84,"tar":3340,"te":616,"ted":648,"teen":3239,"ten":891,"ter":336,"tered":3946,"tern":837,"ters":754,"th":341,"ther":463,"thern":1712,"thing":1606,"thod":2519,"though":951,"tic":3848,"ties":2736,"ting":1465,"to":2809,"ton":960,"track":3766,"ts":657,"tt":2581,"ty":1083,"u":85,"ual":838,"ually":1016,"uals":3044,"uan":3471,"uary":1267,"ub":521,"ubl":713,"uc":1064,"uch":1044,"uck":2648,"ucle":2060,"ud":429,"ude":2472,"ue":528,"ued":1037,"uel":2647,"ues":1166,"uese":4030,"ufact":3983,"ug":757,"ugh":583,"ught":3196,"uk":3631,"ul":368,"ula":2846,"ular":771,"ulated":2917,"ulation":1454,"ulations":4095,"ulf":2931,"ull":1125,"ully":2243,"ult":580,"um":384,"umb":2576,"ume":2884,"umed":3532,"ument":1930,"uments":3033,"umn":3460,"ump":3032,"un":271,"und":390,"under":663,"une":1038,"ung":2018,"unk":288,"unt":552,"up":448,"ur":324,"ural":1208,"urb":2541,"urch":943,"ure":501,"ured":1097,"ures":964,"urg":3585,"uries":3707,"uring":577,"urity":3268,"urn":623,"urs":4067,"ury":807,"us":340,"used":1938,"ush":2322,"uss":1698,"ust":479,"ut":350,"ute":877,"uted":1624,"uter":2456,"utes":1952,"uth":1194,"ution":1196,"v":86,"val":2012,"ve":325,"ved":589,"vel":633,"velop":900,"vember":1410,"vement":3725,"ven":1095,"ver":337,"vern":987,"vers":1793,"vert":2617,"ves":1243,"vest":2893,"vey":3677,"viet":3551,"ville":3212,"ving":1348,"vision":1672,"w":87,"ward":649,"wards":1607,"way":705,"ways":2357,"we":644,"ween":737,"well":3374,"west":2470,"wh":2254,"wn":598,"wood":2694,"wor":3552,"work":2082,"writ":4083,"x":88,"xas":2613,"xim":1870,"xt":1168,"y":89,"yer":2944,"ying":1947,"yl":1087,"yle":1576,"ylv":3509,"ylvania":3597,"yn":2457,"ys":1138,"z":90,"ze":2327,"zy":3251,"zz":3354,"{":91,"|":92,"}":93,"~":94,"\u00a1":95,"\u00a2":96,"\u00a3":97,"\u00a4":98,"\u00a5":99,"\u00a6":100,"\u00a7":101,"\u00a8":102,"\u00a9":103,"\u00aa":104,"\u00ab":105,"\u00ac":106,"\u00ae":107,"\u00af":108,"\u00b0":109,"\u00b1":110,"\u00b2":111,"\u00b3":112,"\u00b4":113,"\u00b5":114,"\u00b6":115,"\u00b7":116,"\u00b8":117,"\u00b9":118,"\u00ba":119,"\u00bb":120,"\u00bc":121,"\u00bd":122,"\u00be":123,"\u00bf":124,"\u00c0":125,"\u00c1":126,"\u00c2":127,"\u00c3":128,"\u00c3\u00a1":2185,"\u00c3\u00a9":1270,"\u00c3\u00b3":3146,"\u00c3\u00b3n":3596,"\u00c3\u0143":2079,"\u00c4":129,"\u00c4\u0123":2201,"\u00c5":130,"\u00c6":131,"\u00c7":132,"\u00c8":133,"\u00c9":134,"\u00ca":135,"\u00cb":136,"\u00cc":137,"\u00cd":138,"\u00ce":139,"\u00cf":140,"\u00d0":141,"\u00d1":142,"\u00d2":143,"\u00d3":144,"\u00d4":145,"\u00d5":146,"\u00d6":147,"\u00d7":148,"\u00d8":149,"\u00d9":150,"\u00da":151,"\u00db":152,"\u00dc":153,"\u00dd":154,"\u00de":155,"\u00df":156,"\u00e0":157,"\u00e1":158,"\u00e2":159,"\u00e3":160,"\u00e4":161,"\u00e5":162,"\u00e6":163,"\u00e7":164,"\u00e8":165,"\u00e9":166,"\u00ea":167,"\u00eb":168,"\u00ec":169,"\u00ed":170,"\u00ee":171,"\u00ef":172,"\u00f0":173,"\u00f1":174,"\u00f2":175,"\u00f3":176,"\u00f4":177,"\u00f5":178,"\u00f6":179,"\u00f7":180,"\u00f8":181,"\u00f9":182,"\u00fa":183,"\u00fb":184,"\u00fc":185,"\u00fd":186,"\u00fe":187,"\u00ff":188,"\u0100":189,"\u0101":190,"\u0102":191,"\u0103":192,"\u0104":193,"\u0105":194,"\u0106":195,"\u0107":196,"\u0108":197,"\u0109":198,"\u010a":199,"\u010b":200,"\u010c":201,"\u010d":202,"\u010e":203,"\u010f":204,"\u0110":205,"\u0111":206,"\u0112":207,"\u0113":208,"\u0114":209,"\u0115":210,"\u0116":211,"\u0117":212,"\u0118":213,"\u0119":214,"\u011a":215,"\u011b":216,"\u011c":217,"\u011d":218,"\u011e":219,"\u011f":220,"\u0120":221,"\u0120!":1732,"\u0120\"":306,"\u0120$":1273,"\u0120%":1151,"\u0120&":1693,"\u0120'":328,"\u0120(":366,"\u0120)":365,"\u0120+":3411,"\u0120,":265,"\u0120-":2779,"\u0120.":274,"\u0120...":1325,"\u0120/":923,"\u01200":860,"\u012000":781,"\u0120000":846,"\u01201":311,"\u012010":884,"\u0120100":1482,"\u012011":1008,"\u012012":912,"\u012013":1181,"\u012014":1271,"\u012015":1009,"\u012016":946,"\u012017":997,"\u012018":563,"\u0120181":4050,"\u0120182":3748,"\u0120183":2703,"\u0120184":2830,"\u0120185":2214,"\u0120186":2409,"\u0120187":2586,"\u0120188":2310,"\u0120189":2049,"\u012019":372,"\u0120190":1873,"\u0120191":1198,"\u0120192":1433,"\u0120193":1186,"\u01201930":3394,"\u0120194":985,"\u01201940":3338,"\u0120195":1137,"\u01201950":3172,"\u0120196":1001,"\u01201960":2776,"\u0120197":1011,"\u01201970":2587,"\u0120198":940,"\u01201980":3025,"\u01201986":4075,"\u0120199":739,"\u01201990":2664,"\u01201991":3750,"\u01201992":3805,"\u01201993":3404,"\u01201994":3823,"\u01201995":3004,"\u01201996":3478,"\u01201997":3636,"\u01201998":3362,"\u01201999":3149,"\u01202":345,"\u012020":513,"\u0120200":476,"\u01202000":2649,"\u01202001":2522,"\u01202002":2850,"\u01202003":2198,"\u01202004":2051,"\u01202005":2057,"\u01202006":1674,"\u01202007":1563,"\u01202008":1489,"\u01202009":1483,"\u0120201":595,"\u01202010":1487,"\u01202011":1660,"\u01202012":1755,"\u01202013":1824,"\u01202014":2428,"\u01202015":2217,"\u01202016":3091,"\u012021":1654,"\u012022":1725,"\u012023":1682,"\u012024":1742,"\u012025":1326,"\u012026":1734,"\u012027":1911,"\u012028":1800,"\u012029":2194,"\u01203":468,"\u012030":1387,"\u0120300":3388,"\u012031":2159,"\u012032":3433,"\u012033":3358,"\u012035":2392,"\u012036":2772,"\u012037":3973,"\u012038":3024,"\u012039":3664,"\u01204":561,"\u012040":2213,"\u0120400":3319,"\u012042":3747,"\u012044":3820,"\u012045":2847,"\u012047":3786,"\u012048":4049,"\u01205":571,"\u012050":1889,"\u0120500":2482,"\u012051":3950,"\u012052":4070,"\u01206":668,"\u012060":2838,"\u01207":689,"\u012070":3337,"\u012075":3120,"\u012076":3952,"\u01208":749,"\u012080":3043,"\u01209":746,"\u012090":3479,"\u0120:":514,"\u0120;":490,"\u0120<":289,"\u0120=":304,"\u0120?":2810,"\u0120@":314,"\u0120@,@":612,"\u0120@-@":334,"\u0120@.@":566,"\u0120[":1297,"\u0120]":1298,"\u0120a":258,"\u0120ab":498,"\u0120abandon":3558,"\u0120able":2039,"\u0120about":730,"\u0120above":2469,"\u0120abs":2899,"\u0120ac":752,"\u0120acad":2562,"\u0120academy":3718,"\u0120acc":701,"\u0120accept":2295,"\u0120accepted":4012,"\u0120access":3286,"\u0120accom":2207,"\u0120accompan":3467,"\u0120accord":1254,"\u0120according":1275,"\u0120account":2483,"\u0120ach":2286,"\u0120achie":2365,"\u0120achieved":4013,"\u0120acqu":3480,"\u0120across":1844,"\u0120act":740,"\u0120action":2229,"\u0120actions":3945,"\u0120activ":1750,"\u0120active":3730,"\u0120activities":3793,"\u0120activity":3859,"\u0120actor":3495,"\u0120actress":4004,"\u0120actually":3991,"\u0120ad":483,"\u0120adam":3949,"\u0120add":869,"\u0120added":2147,"\u0120addition":1355,"\u0120additional":2731,"\u0120adm":2388,"\u0120admin":2829,"\u0120administ":3230,"\u0120adop":3180,"\u0120adult":3295,"\u0120adv":1086,"\u0120advance":3482,"\u0120advant":3791,"\u0120advent":3548,"\u0120advert":4047,"\u0120aer":3341,"\u0120af":455,"\u0120aff":1780,"\u0120afric":1811,"\u0120africa":2926,"\u0120african":3420,"\u0120after":500,"\u0120ag":564,"\u0120again":742,"\u0120against":915,"\u0120age":1803,"\u0120agre":2108,"\u0120agreed":3227,"\u0120air":862,"\u0120aircraft":2196,"\u0120airport":2740,"\u0120al":343,"\u0120alb":794,"\u0120album":813,"\u0120albums":3405,"\u0120ale":3279,"\u0120alex":3829,"\u0120ali":2986,"\u0120alice":3343,"\u0120alkan":3397,"\u0120all":511,"\u0120allow":1341,"\u0120allowed":2485,"\u0120allowing":3717,"\u0120almost":2125,"\u0120alone":4043,"\u0120along":1005,"\u0120alongside":4053,"\u0120already":2760,"\u0120also":512,"\u0120altern":3800,"\u0120although":952,"\u0120always":2993,"\u0120am":522,"\u0120amb":2900,"\u0120americ":804,"\u0120america":1874,"\u0120american":1049,"\u0120among":1442,"\u0120amount":2994,"\u0120an":281,"\u0120anal":3312,"\u0120analys":3703,"\u0120anc":2421,"\u0120ancient":3386,"\u0120and":291,"\u0120anderson":3782,"\u0120ang":1647,"\u0120angel":2878,"\u0120anim":2107,"\u0120ann":1108,"\u0120announ":1882,"\u0120announced":2119,"\u0120annual":3380,"\u0120another":1139,"\u0120ant":1301,"\u0120anth":3799,"\u0120anti":2484,"\u0120antimony":4056,"\u0120any":1075,"\u0120ap":484,"\u0120apart":4048,"\u0120app":823,"\u0120appe":834,"\u0120appear":1096,"\u0120appearance":2401,"\u0120appearances":3638,"\u0120appeared":2161,"\u0120appears":3299,"\u0120appl":2795,"\u0120appo":2216,"\u0120appointed":2764,"\u0120appro":1358,"\u0120approach":3381,"\u0120approxim":2672,"\u0120approximately":2757,"\u0120april":1335,"\u0120ar":439,"\u0120arab":2730,"\u0120arch":1329,"\u0120archae":2279,"\u0120architect":3408,"\u0120are":428,"\u0120area":1046,"\u0120areas":1943,"\u0120arg":1830,"\u0120arm":904,"\u0120armed":3839,"\u0120army":1557,"\u0120around":1084,"\u0120arrang":3128,"\u0120arri":1777,"\u0120arrived":2880,"\u0120art":908,"\u0120artillery":3297,"\u0120artist":3287,"\u0120artists":3891,"\u0120arts":3679,"\u0120as":329,"\u0120asked":3331,"\u0120aspect":3633,"\u0120ass":694,"\u0120assault":3729,"\u0120assemb":2697,"\u0120assembly":3626,"\u0120assigned":3285,"\u0120assist":2651,"\u0120assoc":1575,"\u0120associated":3382,"\u0120association":2381,"\u0120ast":3188,"\u0120at":362,"\u0120ath":2476,"\u0120athlet":2732,"\u0120atl":1953,"\u0120atlantic":2433,"\u0120att":610,"\u0120attack":1154,"\u0120attacked":3686,"\u0120attacks":3452,"\u0120attempt":1374,"\u0120attempted":3753,"\u0120attempts":3590,"\u0120attention":3963,"\u0120attract":3283,"\u0120aud":2149,"\u0120audience":3843,"\u0120aug":1100,"\u0120august":1114,"\u0120aust":1062,"\u0120austral":1180,"\u0120australia":1939,"\u0120australian":2118,"\u0120aut":2766,"\u0120auth":1409,"\u0120author":1619,"\u0120authorities":4058,"\u0120authority":4032,"\u0120av":1380,"\u0120avail":2579,"\u0120available":2733,"\u0120aver":2168,"\u0120average":2674,"\u0120aw":3579,"\u0120award":1143,"\u0120awarded":3350,"\u0120awards":2174,"\u0120away":1814,"\u0120b":272,"\u0120bab":2920,"\u0120baby":3549,"\u0120back":859,"\u0120background":2593,"\u0120bad":3190,"\u0120bal":2624,"\u0120ball":1850,"\u0120ban":2663,"\u0120band":1540,"\u0120bank":3515,"\u0120bar":1070,"\u0120bas":1402,"\u0120base":1994,"\u0120based":1331,"\u0120bass":3706,"\u0120batt":899,"\u0120battal":1552,"\u0120battalion":1806,"\u0120batter":3021,"\u0120battery":4079,"\u0120battle":1603,"\u0120bay":2157,"\u0120be":318,"\u0120beach":3570,"\u0120beat":3583,"\u0120bec":560,"\u0120became":928,"\u0120because":1012,"\u0120becom":2085,"\u0120become":1673,"\u0120becomes":3967,"\u0120becoming":2989,"\u0120bed":3925,"\u0120been":557,"\u0120before":814,"\u0120beg":2404,"\u0120began":1000,"\u0120begin":1974,"\u0120beginning":2654,"\u0120begins":3486,"\u0120beh":1591,"\u0120behav":4057,"\u0120behind":2140,"\u0120being":840,"\u0120bel":996,"\u0120belie":1369,"\u0120believed":2274,"\u0120bell":3905,"\u0120below":3602,"\u0120ben":3164,"\u0120bene":4017,"\u0120ber":2267,"\u0120best":1116,"\u0120bet":669,"\u0120better":2812,"\u0120between":738,"\u0120bey":2385,"\u0120beyonc":3641,"\u0120beyonc\u00c3\u00a9":3644,"\u0120bi":2065,"\u0120bid":3503,"\u0120big":2397,"\u0120bill":1496,"\u0120billboard":2968,"\u0120bir":2156,"\u0120bird":1937,"\u0120birds":2901,"\u0120birth":2958,"\u0120bishop":4085,"\u0120bl":679,"\u0120black":1227,"\u0120blood":3049,"\u0120blue":2375,"\u0120bo":475,"\u0120board":2835,"\u0120bob":3834,"\u0120bod":2706,"\u0120bodies":3643,"\u0120body":1817,"\u0120bol":3705,"\u0120bomb":3327,"\u0120bon":3885,"\u0120bond":3658,"\u0120book":1106,"\u0120books":2997,"\u0120bord":3052,"\u0120border":3998,"\u0120born":2017,"\u0120both":844,"\u0120bound":3346,"\u0120bow":2013,"\u0120bowl":3159,"\u0120box":3039,"\u0120boy":2898,"\u0120br":651,"\u0120bra":2339,"\u0120braat":3809,"\u0120braathens":3981,"\u0120brad":3272,"\u0120branch":3951,"\u0120bre":1248,"\u0120break":2671,"\u0120breed":2942,"\u0120bridge":2876,"\u0120brief":3233,"\u0120brig":1516,"\u0120brigade":1895,"\u0120bring":3284,"\u0120brit":910,"\u0120britain":2774,"\u0120british":1071,"\u0120bro":802,"\u0120broad":1915,"\u0120broadcast":2911,"\u0120broken":4072,"\u0120brother":2525,"\u0120brought":2336,"\u0120brown":1972,"\u0120bu":769,"\u0120bud":3427,"\u0120build":1230,"\u0120building":1886,"\u0120buildings":3365,"\u0120built":1434,"\u0120bul":3798,"\u0120bur":2047,"\u0120burn":1840,"\u0120burns":3384,"\u0120bus":1415,"\u0120busch":3484,"\u0120business":2313,"\u0120but":480,"\u0120by":360,"\u0120c":269,"\u0120ca":2281,"\u0120cab":4063,"\u0120cad":2974,"\u0120cadmium":3702,"\u0120cal":1531,"\u0120californ":3108,"\u0120california":3249,"\u0120call":828,"\u0120called":1027,"\u0120calling":3857,"\u0120cam":2026,"\u0120came":1511,"\u0120camp":1129,"\u0120campaign":1992,"\u0120can":618,"\u0120canad":1683,"\u0120canada":2661,"\u0120canadian":2890,"\u0120canc":3727,"\u0120cand":3528,"\u0120candid":3862,"\u0120cann":3347,"\u0120cannot":4014,"\u0120cap":830,"\u0120capital":2637,"\u0120capt":1305,"\u0120captain":2814,"\u0120captured":3094,"\u0120car":736,"\u0120card":2287,"\u0120care":986,"\u0120career":1522,"\u0120carey":2283,"\u0120carol":2713,"\u0120carolina":3594,"\u0120carried":3348,"\u0120carry":3876,"\u0120cas":1956,"\u0120case":2241,"\u0120cast":1587,"\u0120castle":3419,"\u0120casual":3577,"\u0120casualties":3942,"\u0120cat":1753,"\u0120categ":4040,"\u0120cath":2895,"\u0120cathed":2800,"\u0120cathedral":2892,"\u0120catholic":3262,"\u0120caus":1548,"\u0120cause":3113,"\u0120caused":2020,"\u0120ce":1867,"\u0120cele":3056,"\u0120celebr":3208,"\u0120cell":2181,"\u0120cent":620,"\u0120center":2035,"\u0120central":1737,"\u0120centre":2956,"\u0120century":961,"\u0120cer":2072,"\u0120cert":3924,"\u0120certain":2657,"\u0120ch":370,"\u0120chall":3491,"\u0120champ":1436,"\u0120champions":1657,"\u0120championship":1879,"\u0120chang":1677,"\u0120change":2696,"\u0120changed":3197,"\u0120changes":2879,"\u0120chann":3474,"\u0120channel":3919,"\u0120chap":2130,"\u0120char":656,"\u0120charac":913,"\u0120character":1146,"\u0120characters":2006,"\u0120charl":4025,"\u0120charles":2995,"\u0120chart":1553,"\u0120che":1247,"\u0120chem":3563,"\u0120chic":2751,"\u0120chicago":3324,"\u0120chief":3195,"\u0120child":1190,"\u0120children":1675,"\u0120china":3771,"\u0120chines":2834,"\u0120chinese":2842,"\u0120cho":2543,"\u0120chr":981,"\u0120chris":3751,"\u0120christ":1260,"\u0120christian":2451,"\u0120christm":3441,"\u0120christmas":3514,"\u0120chronic":3937,"\u0120church":1055,"\u0120cir":2071,"\u0120circ":2180,"\u0120city":799,"\u0120civ":1907,"\u0120civil":1968,"\u0120cl":478,"\u0120claim":1585,"\u0120claimed":2653,"\u0120class":1174,"\u0120cle":1558,"\u0120clear":2494,"\u0120clim":3854,"\u0120clos":1998,"\u0120close":1931,"\u0120closed":3566,"\u0120club":1263,"\u0120cm":3031,"\u0120co":450,"\u0120coach":2940,"\u0120coast":1775,"\u0120col":613,"\u0120cold":3635,"\u0120coll":2271,"\u0120colle":1172,"\u0120collection":3066,"\u0120college":2644,"\u0120colon":2160,"\u0120colony":4024,"\u0120color":3238,"\u0120columb":4071,"\u0120com":377,"\u0120comb":1699,"\u0120combat":3521,"\u0120combined":3755,"\u0120come":2460,"\u0120comedy":3678,"\u0120coming":3929,"\u0120comm":535,"\u0120command":1124,"\u0120commander":2602,"\u0120comment":2136,"\u0120commented":3409,"\u0120commerc":2309,"\u0120commercial":2488,"\u0120commission":2292,"\u0120commit":2643,"\u0120committe":3229,"\u0120committee":3502,"\u0120common":1352,"\u0120commun":1426,"\u0120community":2534,"\u0120comp":465,"\u0120compan":977,"\u0120companies":3170,"\u0120company":1134,"\u0120compared":3256,"\u0120compet":1659,"\u0120competition":3173,"\u0120compl":3053,"\u0120comple":993,"\u0120complete":1959,"\u0120completed":2109,"\u0120completely":3860,"\u0120complex":3379,"\u0120compos":1769,"\u0120composed":3624,"\u0120con":359,"\u0120conc":1152,"\u0120concept":2930,"\u0120concern":3205,"\u0120concert":3080,"\u0120conclud":3072,"\u0120concluded":3844,"\u0120cond":2183,"\u0120conditions":3861,"\u0120condom":2143,"\u0120condoms":3305,"\u0120condu":2416,"\u0120conducted":3367,"\u0120conf":1209,"\u0120conference":3399,"\u0120confir":3700,"\u0120confl":3014,"\u0120cong":2308,"\u0120conn":2439,"\u0120cons":731,"\u0120conse":3987,"\u0120conserv":3535,"\u0120consid":1157,"\u0120consider":3393,"\u0120considered":1549,"\u0120consist":3183,"\u0120const":971,"\u0120constant":3105,"\u0120constit":3407,"\u0120constru":1327,"\u0120constructed":3139,"\u0120construction":1875,"\u0120cont":491,"\u0120contains":3131,"\u0120contem":2761,"\u0120contemporary":3325,"\u0120contin":984,"\u0120continu":3622,"\u0120continue":3587,"\u0120continued":1598,"\u0120contr":2702,"\u0120contract":2362,"\u0120contrast":3882,"\u0120contro":1149,"\u0120control":1656,"\u0120controll":3243,"\u0120controvers":3589,"\u0120conv":1978,"\u0120conver":3448,"\u0120cop":2177,"\u0120copies":3760,"\u0120cor":1281,"\u0120core":4020,"\u0120corn":3101,"\u0120corps":3290,"\u0120cost":2349,"\u0120cou":1845,"\u0120could":1018,"\u0120coun":1628,"\u0120council":2303,"\u0120count":850,"\u0120counter":3259,"\u0120countries":3653,"\u0120country":1697,"\u0120county":1649,"\u0120cour":1274,"\u0120course":3639,"\u0120court":1987,"\u0120cover":1574,"\u0120covered":3609,"\u0120cr":1169,"\u0120cra":3263,"\u0120cre":917,"\u0120creat":2230,"\u0120create":3184,"\u0120created":2042,"\u0120cred":2848,"\u0120creek":2496,"\u0120crew":2431,"\u0120crick":3264,"\u0120cricket":3845,"\u0120crit":942,"\u0120critic":1731,"\u0120critical":2492,"\u0120critics":2036,"\u0120cro":970,"\u0120croat":3104,"\u0120cross":1678,"\u0120crow":3685,"\u0120crown":3463,"\u0120cru":2420,"\u0120cult":1643,"\u0120cultural":3565,"\u0120culture":2980,"\u0120cup":1969,"\u0120cur":1543,"\u0120current":2280,"\u0120cut":2419,"\u0120cy":1708,"\u0120cycl":2594,"\u0120cyclone":3353,"\u0120d":292,"\u0120da":2059,"\u0120dail":3472,"\u0120daily":3487,"\u0120dam":1053,"\u0120damage":2139,"\u0120damaged":2777,"\u0120dan":3166,"\u0120dang":4064,"\u0120dark":2832,"\u0120data":4089,"\u0120date":2738,"\u0120daugh":2864,"\u0120daughter":3369,"\u0120dav":1858,"\u0120david":2175,"\u0120day":758,"\u0120days":1611,"\u0120de":363,"\u0120dead":2701,"\u0120deal":2407,"\u0120death":1266,"\u0120deb":1579,"\u0120debut":2852,"\u0120dec":880,"\u0120dece":1395,"\u0120december":1431,"\u0120decided":2261,"\u0120decision":2919,"\u0120decl":1718,"\u0120declared":3895,"\u0120ded":3253,"\u0120deep":2845,"\u0120def":786,"\u0120defe":1707,"\u0120defeat":3301,"\u0120defeated":3029,"\u0120defence":3838,"\u0120defend":3889,"\u0120defense":3462,"\u0120deg":2860,"\u0120del":1388,"\u0120deliver":3258,"\u0120dem":1328,"\u0120demonst":4009,"\u0120den":2247,"\u0120dep":832,"\u0120depart":2116,"\u0120department":2902,"\u0120depression":2430,"\u0120der":2354,"\u0120des":548,"\u0120desc":857,"\u0120describ":1024,"\u0120described":1252,"\u0120describes":3790,"\u0120description":3890,"\u0120design":1056,"\u0120designed":2532,"\u0120desp":1646,"\u0120despite":1700,"\u0120dest":1353,"\u0120destroy":1869,"\u0120destroyed":3303,"\u0120det":1735,"\u0120deter":2520,"\u0120determ":3309,"\u0120dev":1995,"\u0120develop":926,"\u0120developed":1885,"\u0120development":1685,"\u0120di":2221,"\u0120did":1032,"\u0120died":1966,"\u0120dif":1006,"\u0120differ":1330,"\u0120different":1602,"\u0120diffic":2113,"\u0120difficult":2114,"\u0120dig":2858,"\u0120dire":870,"\u0120direct":1156,"\u0120directed":2335,"\u0120directly":3498,"\u0120director":2032,"\u0120dis":588,"\u0120disc":1047,"\u0120discover":1942,"\u0120discovered":3008,"\u0120discuss":3040,"\u0120dise":3634,"\u0120dism":3605,"\u0120disp":3390,"\u0120display":2836,"\u0120diss":2783,"\u0120dist":979,"\u0120distance":3715,"\u0120district":3378,"\u0120div":955,"\u0120division":1367,"\u0120dj":3086,"\u0120do":782,"\u0120doc":2568,"\u0120document":3511,"\u0120does":1955,"\u0120doll":3167,"\u0120dom":2687,"\u0120domest":3897,"\u0120domin":2347,"\u0120don":1783,"\u0120done":3355,"\u0120dou":1871,"\u0120double":3323,"\u0120down":1004,"\u0120dr":1432,"\u0120dra":1730,"\u0120dram":2984,"\u0120draw":2290,"\u0120dream":4088,"\u0120dress":3903,"\u0120dri":1876,"\u0120drop":2675,"\u0120drum":3576,"\u0120du":2337,"\u0120due":1197,"\u0120dum":3266,"\u0120during":614,"\u0120dut":2803,"\u0120dyl":1739,"\u0120dylan":1741,"\u0120dyn":3328,"\u0120e":308,"\u0120each":1076,"\u0120ear":630,"\u0120earli":1859,"\u0120earlier":2351,"\u0120early":898,"\u0120earned":3461,"\u0120earth":2009,"\u0120eas":1399,"\u0120east":1223,"\u0120eastern":1816,"\u0120ec":1724,"\u0120econom":2513,"\u0120ed":863,"\u0120edge":3496,"\u0120edition":3714,"\u0120educ":2363,"\u0120education":2891,"\u0120eff":1118,"\u0120effect":1530,"\u0120effects":3041,"\u0120effort":2479,"\u0120efforts":3881,"\u0120egy":2608,"\u0120egypt":2612,"\u0120eight":1717,"\u0120either":2232,"\u0120el":1195,"\u0120ele":824,"\u0120elect":2031,"\u0120elected":4073,"\u0120election":3169,"\u0120elements":2260,"\u0120elev":4052,"\u0120em":766,"\u0120emer":3223,"\u0120emot":3977,"\u0120emp":3005,"\u0120emper":3684,"\u0120emperor":3943,"\u0120empire":3395,"\u0120employ":2450,"\u0120en":437,"\u0120enc":2195,"\u0120end":760,"\u0120ended":2965,"\u0120ending":3364,"\u0120energy":3711,"\u0120eng":712,"\u0120engine":1909,"\u0120england":1373,"\u0120english":1583,"\u0120enjoy":3650,"\u0120enough":2827,"\u0120ens":3334,"\u0120ent":821,"\u0120enter":3392,"\u0120entered":3123,"\u0120entertain":3789,"\u0120entertainment":4037,"\u0120entire":2041,"\u0120entr":3910,"\u0120env":3413,"\u0120envir":3813,"\u0120environ":3900,"\u0120ep":833,"\u0120epis":905,"\u0120episod":919,"\u0120episode":1030,"\u0120episodes":3203,"\u0120equ":1864,"\u0120equip":3158,"\u0120er":1466,"\u0120era":2563,"\u0120es":1338,"\u0120esc":2437,"\u0120espec":2799,"\u0120especially":2821,"\u0120ess":3539,"\u0120est":953,"\u0120estab":1361,"\u0120establ":1821,"\u0120establish":2778,"\u0120established":1861,"\u0120estim":2227,"\u0120estimated":2662,"\u0120eu":1117,"\u0120euro":1347,"\u0120europ":3892,"\u0120europe":1421,"\u0120european":2321,"\u0120ev":590,"\u0120even":1224,"\u0120event":1336,"\u0120events":1950,"\u0120eventually":2023,"\u0120ever":1026,"\u0120every":1517,"\u0120evidence":2436,"\u0120ex":417,"\u0120exam":2870,"\u0120example":2299,"\u0120exc":2324,"\u0120excav":3997,"\u0120except":2680,"\u0120exe":2369,"\u0120exist":2521,"\u0120exp":1212,"\u0120expected":3948,"\u0120exper":1505,"\u0120experi":3537,"\u0120experience":3027,"\u0120expl":1391,"\u0120express":3806,"\u0120ext":1023,"\u0120extended":3637,"\u0120extensive":3938,"\u0120extreme":3939,"\u0120ey":2477,"\u0120eye":3762,"\u0120f":273,"\u0120fa":2220,"\u0120fac":2066,"\u0120face":2632,"\u0120fact":1807,"\u0120fail":2896,"\u0120failed":2831,"\u0120fair":4041,"\u0120fall":1971,"\u0120fam":1021,"\u0120famil":3912,"\u0120family":1268,"\u0120fans":3191,"\u0120fant":3446,"\u0120far":1537,"\u0120fast":3970,"\u0120father":1851,"\u0120fav":2096,"\u0120favor":3110,"\u0120fe":524,"\u0120feat":1042,"\u0120feature":2967,"\u0120featured":2358,"\u0120features":2184,"\u0120featuring":3877,"\u0120febru":1713,"\u0120february":1715,"\u0120feder":1629,"\u0120federal":3610,"\u0120federer":2326,"\u0120feel":2478,"\u0120feet":1944,"\u0120fell":3646,"\u0120felt":1934,"\u0120fem":1748,"\u0120female":2284,"\u0120fer":3252,"\u0120fest":3215,"\u0120festival":3692,"\u0120few":1536,"\u0120fiction":3613,"\u0120field":1439,"\u0120fif":1841,"\u0120fifth":2753,"\u0120fig":1970,"\u0120fight":2073,"\u0120fighting":3185,"\u0120figure":3510,"\u0120figures":3591,"\u0120fil":706,"\u0120fill":3740,"\u0120film":733,"\u0120films":2964,"\u0120fin":596,"\u0120final":1144,"\u0120finally":2977,"\u0120finals":3887,"\u0120financ":3572,"\u0120find":1923,"\u0120finished":2340,"\u0120finkel":3906,"\u0120finkelstein":3921,"\u0120fir":473,"\u0120fire":1639,"\u0120first":487,"\u0120fish":3971,"\u0120five":1111,"\u0120fl":666,"\u0120fle":1716,"\u0120fleet":2218,"\u0120flight":2215,"\u0120flood":2302,"\u0120flooding":4059,"\u0120flor":2294,"\u0120florida":2475,"\u0120flow":2489,"\u0120fly":2413,"\u0120fo":605,"\u0120foc":2371,"\u0120focus":3291,"\u0120fol":692,"\u0120folk":4028,"\u0120follow":748,"\u0120followed":2153,"\u0120following":975,"\u0120food":2544,"\u0120foot":1406,"\u0120football":1899,"\u0120for":327,"\u0120force":1634,"\u0120forced":2551,"\u0120forces":1610,"\u0120fore":1403,"\u0120foreign":3731,"\u0120forest":2134,"\u0120form":646,"\u0120formation":3803,"\u0120formed":1999,"\u0120former":1569,"\u0120forms":3201,"\u0120fort":1764,"\u0120forward":2833,"\u0120found":858,"\u0120foundation":4029,"\u0120four":789,"\u0120fourth":2126,"\u0120fow":3428,"\u0120fowler":3524,"\u0120fox":3048,"\u0120fr":735,"\u0120franc":3682,"\u0120france":2208,"\u0120frank":3132,"\u0120fre":1622,"\u0120free":1711,"\u0120french":1577,"\u0120frequ":3028,"\u0120fri":1497,"\u0120friend":1641,"\u0120friends":2487,"\u0120from":386,"\u0120front":1957,"\u0120fru":3147,"\u0120fruit":3691,"\u0120ft":1863,"\u0120full":1880,"\u0120fully":4018,"\u0120fun":1679,"\u0120fund":2256,"\u0120fur":1193,"\u0120further":1460,"\u0120fut":2573,"\u0120future":2865,"\u0120g":307,"\u0120ga":3412,"\u0120gal":2124,"\u0120gall":3315,"\u0120galvest":3186,"\u0120galveston":3187,"\u0120game":673,"\u0120games":1177,"\u0120gar":2695,"\u0120gard":3768,"\u0120gave":1723,"\u0120ge":1262,"\u0120gen":718,"\u0120gener":848,"\u0120general":1284,"\u0120generally":2273,"\u0120genus":3788,"\u0120geor":1743,"\u0120george":2452,"\u0120ger":1065,"\u0120german":1235,"\u0120germany":3654,"\u0120get":2014,"\u0120gh":3958,"\u0120gi":3569,"\u0120gir":2372,"\u0120girl":3308,"\u0120giv":1259,"\u0120give":2728,"\u0120given":1758,"\u0120giving":3483,"\u0120gl":1343,"\u0120go":572,"\u0120goal":2131,"\u0120goals":2565,"\u0120god":1293,"\u0120gods":3015,"\u0120going":2712,"\u0120gold":1690,"\u0120good":1640,"\u0120got":2975,"\u0120govern":1013,"\u0120government":1234,"\u0120governor":3752,"\u0120gr":675,"\u0120grad":2796,"\u0120grand":1740,"\u0120grant":2908,"\u0120graph":3835,"\u0120grass":4027,"\u0120gre":1187,"\u0120great":1160,"\u0120greater":3050,"\u0120greatest":3136,"\u0120green":2862,"\u0120gro":795,"\u0120ground":1796,"\u0120group":1058,"\u0120groups":2950,"\u0120grow":2104,"\u0120gu":816,"\u0120guard":3133,"\u0120guitar":1866,"\u0120gun":1290,"\u0120guns":2110,"\u0120h":295,"\u0120ha":1704,"\u0120habit":3544,"\u0120had":441,"\u0120haifa":3081,"\u0120hair":3071,"\u0120hait":3994,"\u0120hal":1292,"\u0120half":1599,"\u0120hall":2242,"\u0120ham":1809,"\u0120hand":1443,"\u0120hands":3607,"\u0120happ":2688,"\u0120har":1524,"\u0120hard":2288,"\u0120has":547,"\u0120have":537,"\u0120having":1648,"\u0120haw":3130,"\u0120hawai":3918,"\u0120he":326,"\u0120head":1094,"\u0120headquar":3007,"\u0120headquarters":3143,"\u0120health":2976,"\u0120heart":2707,"\u0120heav":1411,"\u0120heavily":3807,"\u0120heavy":2088,"\u0120hel":1109,"\u0120held":1614,"\u0120help":2097,"\u0120helped":3518,"\u0120hen":2075,"\u0120henry":2655,"\u0120her":488,"\u0120here":3330,"\u0120hero":1774,"\u0120hig":1888,"\u0120high":764,"\u0120higher":3640,"\u0120highest":2646,"\u0120highly":3683,"\u0120highway":1695,"\u0120hill":2067,"\u0120him":659,"\u0120himself":1919,"\u0120his":376,"\u0120hist":851,"\u0120histor":1510,"\u0120historical":3499,"\u0120history":1218,"\u0120hit":2466,"\u0120ho":1709,"\u0120hol":1977,"\u0120hold":2062,"\u0120hom":2135,"\u0120home":1233,"\u0120hon":2178,"\u0120honor":3916,"\u0120hop":2904,"\u0120hor":1836,"\u0120horn":3505,"\u0120hors":4065,"\u0120horse":2507,"\u0120hosp":2636,"\u0120hospital":3368,"\u0120host":2268,"\u0120hot":2084,"\u0120hotel":4011,"\u0120hour":1852,"\u0120hours":2508,"\u0120hous":2635,"\u0120house":1386,"\u0120houses":3811,"\u0120how":708,"\u0120howe":839,"\u0120however":854,"\u0120hu":3816,"\u0120hum":1219,"\u0120human":1773,"\u0120hund":3356,"\u0120hundred":3370,"\u0120hur":1277,"\u0120hurric":1447,"\u0120hurricane":1541,"\u0120hus":3178,"\u0120husband":3422,"\u0120hy":1962,"\u0120i":510,"\u0120ide":1946,"\u0120idea":3067,"\u0120ident":2176,"\u0120if":1147,"\u0120ign":3488,"\u0120ii":1205,"\u0120iii":2863,"\u0120ill":1849,"\u0120illino":4010,"\u0120illust":4033,"\u0120im":600,"\u0120imag":3508,"\u0120image":3414,"\u0120imm":2923,"\u0120immedi":2719,"\u0120immediately":3501,"\u0120imp":1112,"\u0120impact":3465,"\u0120import":1515,"\u0120important":1913,"\u0120impro":2289,"\u0120in":278,"\u0120inc":809,"\u0120includ":619,"\u0120include":1792,"\u0120included":1350,"\u0120includes":2875,"\u0120including":914,"\u0120incor":3668,"\u0120incre":1261,"\u0120increase":3244,"\u0120increased":2569,"\u0120increasing":2690,"\u0120ind":636,"\u0120indep":2090,"\u0120independ":2091,"\u0120independence":3915,"\u0120independent":3260,"\u0120india":2744,"\u0120indian":2578,"\u0120indic":3076,"\u0120individ":2187,"\u0120individual":3466,"\u0120indust":1954,"\u0120industry":2622,"\u0120inf":966,"\u0120infant":2228,"\u0120infantry":2304,"\u0120infl":1601,"\u0120influ":1760,"\u0120influence":3225,"\u0120inform":2192,"\u0120information":3160,"\u0120inh":3216,"\u0120init":1462,"\u0120initial":3366,"\u0120initially":2432,"\u0120inj":2749,"\u0120inn":2171,"\u0120ins":1073,"\u0120inside":3298,"\u0120insp":2400,"\u0120inspired":3444,"\u0120inst":934,"\u0120instead":1847,"\u0120instit":2474,"\u0120instr":3936,"\u0120int":496,"\u0120intellig":4003,"\u0120intended":3063,"\u0120intens":2789,"\u0120inter":628,"\u0120interact":3494,"\u0120interest":1951,"\u0120intern":1278,"\u0120international":1612,"\u0120interse":3712,"\u0120interv":2341,"\u0120interview":2623,"\u0120into":639,"\u0120introdu":1892,"\u0120introduced":2692,"\u0120inv":931,"\u0120invest":2379,"\u0120investig":3339,"\u0120invol":1795,"\u0120involved":2684,"\u0120ir":1280,"\u0120ire":1881,"\u0120ireland":1894,"\u0120irish":2755,"\u0120iron":3137,"\u0120is":352,"\u0120island":1241,"\u0120islands":3792,"\u0120israel":3168,"\u0120iss":1514,"\u0120issue":2785,"\u0120issued":3485,"\u0120issues":3954,"\u0120it":353,"\u0120ital":3377,"\u0120italian":3899,"\u0120its":494,"\u0120itself":2711,"\u0120j":361,"\u0120jack":1676,"\u0120jackson":3733,"\u0120jam":3219,"\u0120james":2002,"\u0120jan":1250,"\u0120jane":3557,"\u0120january":1365,"\u0120jap":1784,"\u0120japan":1787,"\u0120japanese":2673,"\u0120je":1555,"\u0120jer":2954,"\u0120jew":2224,"\u0120jewish":3174,"\u0120jim":3872,"\u0120jin":2883,"\u0120jo":664,"\u0120job":4026,"\u0120john":968,"\u0120johnson":4007,"\u0120joined":2670,"\u0120jordan":2406,"\u0120jose":3745,"\u0120jour":2151,"\u0120journal":3228,"\u0120ju":1115,"\u0120jud":2641,"\u0120jul":4044,"\u0120july":1307,"\u0120jun":3617,"\u0120june":1216,"\u0120just":1162,"\u0120k":371,"\u0120kak":3853,"\u0120kakapo":3863,"\u0120ke":1045,"\u0120keep":3106,"\u0120key":2553,"\u0120kh":2618,"\u0120kick":3400,"\u0120kil":2584,"\u0120kill":1428,"\u0120killed":2165,"\u0120kind":3618,"\u0120king":1036,"\u0120kingdom":1920,"\u0120km":1099,"\u0120kn":680,"\u0120know":2003,"\u0120known":925,"\u0120l":299,"\u0120la":843,"\u0120lab":1827,"\u0120labor":3794,"\u0120lack":2238,"\u0120lady":3267,"\u0120lake":2905,"\u0120land":982,"\u0120lands":3464,"\u0120lang":2008,"\u0120langu":2239,"\u0120language":2741,"\u0120lar":774,"\u0120large":1029,"\u0120largely":3065,"\u0120larger":2888,"\u0120largest":2441,"\u0120last":1211,"\u0120late":1229,"\u0120later":725,"\u0120latin":3357,"\u0120latter":2916,"\u0120laun":2334,"\u0120launched":3248,"\u0120law":1484,"\u0120lay":2897,"\u0120lb":4066,"\u0120le":423,"\u0120lead":973,"\u0120leaders":3561,"\u0120leading":2223,"\u0120league":1276,"\u0120learn":3062,"\u0120least":2138,"\u0120leave":3282,"\u0120leaving":3148,"\u0120led":1453,"\u0120left":1364,"\u0120leg":1202,"\u0120legal":4054,"\u0120legisl":3992,"\u0120leng":2467,"\u0120length":2516,"\u0120less":1566,"\u0120let":2001,"\u0120letters":3996,"\u0120level":1547,"\u0120levels":3732,"\u0120li":751,"\u0120liber":4005,"\u0120lie":3927,"\u0120lif":3489,"\u0120life":1105,"\u0120light":1441,"\u0120like":881,"\u0120likely":3093,"\u0120lim":1838,"\u0120limited":2853,"\u0120lin":3194,"\u0120line":1135,"\u0120lines":2668,"\u0120link":3695,"\u0120lis":4000,"\u0120list":1314,"\u0120listed":3138,"\u0120liter":2540,"\u0120litt":1722,"\u0120little":1728,"\u0120live":1658,"\u0120lived":3218,"\u0120liver":3254,"\u0120liverpool":3423,"\u0120living":2985,"\u0120lo":647,"\u0120loc":812,"\u0120local":1475,"\u0120located":2022,"\u0120location":3122,"\u0120log":3235,"\u0120lond":1914,"\u0120london":1917,"\u0120long":878,"\u0120longer":3320,"\u0120look":1842,"\u0120looking":3826,"\u0120lord":2816,"\u0120los":1390,"\u0120loss":2121,"\u0120lost":1691,"\u0120lot":3869,"\u0120lou":2882,"\u0120love":1503,"\u0120low":1539,"\u0120lower":2539,"\u0120ly":2068,"\u0120lyric":2807,"\u0120lyrics":3142,"\u0120m":284,"\u0120ma":790,"\u0120mac":2454,"\u0120mach":2262,"\u0120machine":3098,"\u0120mad":2307,"\u0120made":793,"\u0120mag":1148,"\u0120magaz":2069,"\u0120magazine":2275,"\u0120magn":3289,"\u0120main":921,"\u0120mainly":3964,"\u0120maint":2628,"\u0120maj":1079,"\u0120major":1110,"\u0120majority":3135,"\u0120make":1450,"\u0120makes":3046,"\u0120making":1808,"\u0120mal":3455,"\u0120male":2737,"\u0120males":4087,"\u0120man":502,"\u0120manag":1617,"\u0120managed":3874,"\u0120management":3443,"\u0120manager":2296,"\u0120manufact":3990,"\u0120many":845,"\u0120mar":544,"\u0120march":1333,"\u0120mark":1478,"\u0120marked":3493,"\u0120market":3125,"\u0120marriage":3359,"\u0120married":3403,"\u0120mart":2768,"\u0120mary":2458,"\u0120mas":3850,"\u0120mass":1818,"\u0120master":3217,"\u0120mat":1039,"\u0120match":1801,"\u0120matches":3840,"\u0120mater":2297,"\u0120material":2515,"\u0120maxim":3856,"\u0120may":693,"\u0120mc":2558,"\u0120mcc":2559,"\u0120me":573,"\u0120mean":1904,"\u0120meaning":3247,"\u0120means":3749,"\u0120meant":3271,"\u0120meas":2301,"\u0120measure":4078,"\u0120med":1141,"\u0120media":2603,"\u0120meet":2086,"\u0120meeting":3758,"\u0120mel":3438,"\u0120mem":2257,"\u0120memb":1559,"\u0120member":2367,"\u0120members":1665,"\u0120men":1282,"\u0120mention":2945,"\u0120mer":2353,"\u0120met":1015,"\u0120metal":3562,"\u0120method":3119,"\u0120metres":3079,"\u0120mex":2320,"\u0120mexico":2724,"\u0120meyer":3666,"\u0120meyerbeer":3920,"\u0120mi":1826,"\u0120miami":3647,"\u0120mic":3430,"\u0120mich":1935,"\u0120michael":2595,"\u0120mid":1204,"\u0120middle":2462,"\u0120might":2802,"\u0120mil":963,"\u0120mile":3674,"\u0120miles":1916,"\u0120milit":1455,"\u0120military":1544,"\u0120mill":924,"\u0120million":1102,"\u0120min":745,"\u0120minister":3440,"\u0120minnes":3837,"\u0120minnesota":3846,"\u0120minor":2449,"\u0120minute":3273,"\u0120minutes":3012,"\u0120miss":1121,"\u0120mission":3588,"\u0120missouri":2527,"\u0120mix":1897,"\u0120mixed":2841,"\u0120mm":1961,"\u0120mo":387,"\u0120mod":1781,"\u0120model":3756,"\u0120moder":1604,"\u0120modern":1797,"\u0120mole":3293,"\u0120mom":3042,"\u0120moment":4080,"\u0120mon":772,"\u0120money":2946,"\u0120mont":2798,"\u0120month":1413,"\u0120months":2154,"\u0120mor":1397,"\u0120more":638,"\u0120morning":3140,"\u0120mort":3085,"\u0120mos":2422,"\u0120mosley":3468,"\u0120most":661,"\u0120mostly":3077,"\u0120mot":2146,"\u0120mother":1984,"\u0120mount":1299,"\u0120mountain":2909,"\u0120mounted":2951,"\u0120mov":3089,"\u0120move":1567,"\u0120moved":1521,"\u0120movement":3246,"\u0120movie":3720,"\u0120moving":2869,"\u0120mph":2658,"\u0120mr":3010,"\u0120much":1258,"\u0120mult":2614,"\u0120multip":3719,"\u0120mun":3926,"\u0120mur":2590,"\u0120murder":3690,"\u0120mus":674,"\u0120museum":2448,"\u0120music":901,"\u0120musical":2861,"\u0120must":2575,"\u0120my":1236,"\u0120n":301,"\u0120name":1207,"\u0120named":1366,"\u0120names":2726,"\u0120nar":2203,"\u0120nat":2188,"\u0120nation":3615,"\u0120national":1082,"\u0120nations":3022,"\u0120native":2770,"\u0120natural":2854,"\u0120nature":2937,"\u0120nav":1664,"\u0120naval":3941,"\u0120navy":2620,"\u0120ne":397,"\u0120near":1002,"\u0120nearby":3547,"\u0120nearly":2746,"\u0120necess":3708,"\u0120need":1949,"\u0120needed":3655,"\u0120neg":2549,"\u0120neigh":4045,"\u0120nest":3582,"\u0120net":1719,"\u0120network":2820,"\u0120never":1580,"\u0120new":534,"\u0120news":1927,"\u0120newsp":3226,"\u0120newspaper":4081,"\u0120next":1481,"\u0120nico":3724,"\u0120nicole":3956,"\u0120night":1637,"\u0120nin":3957,"\u0120nine":2510,"\u0120nix":3314,"\u0120nixon":3424,"\u0120no":542,"\u0120nomin":2547,"\u0120non":2129,"\u0120nor":721,"\u0120norm":2490,"\u0120nort":1351,"\u0120north":784,"\u0120northeast":3842,"\u0120norther":1766,"\u0120northern":1778,"\u0120northwest":3713,"\u0120not":449,"\u0120noted":1878,"\u0120notes":2828,"\u0120novel":1736,"\u0120november":1412,"\u0120now":1221,"\u0120nucle":2123,"\u0120nuclear":3500,"\u0120num":761,"\u0120number":876,"\u0120numbers":3064,"\u0120numerous":3417,"\u0120ny":2676,"\u0120o":263,"\u0120ob":965,"\u0120object":2722,"\u0120obs":1565,"\u0120obser":2411,"\u0120observ":3109,"\u0120observed":3810,"\u0120occ":1104,"\u0120occasion":4077,"\u0120occup":2747,"\u0120occur":1825,"\u0120occurred":3276,"\u0120oce":3020,"\u0120ocean":3175,"\u0120oct":1237,"\u0120october":1269,"\u0120od":2054,"\u0120of":285,"\u0120off":594,"\u0120offensive":3652,"\u0120offer":3975,"\u0120offered":3726,"\u0120offic":1081,"\u0120office":2440,"\u0120officer":3623,"\u0120officers":3171,"\u0120official":1945,"\u0120often":1529,"\u0120ol":2070,"\u0120old":967,"\u0120oldham":2683,"\u0120oliv":2502,"\u0120olivier":2705,"\u0120oly":2983,"\u0120olymp":2990,"\u0120om":3553,"\u0120on":317,"\u0120once":1754,"\u0120one":506,"\u0120only":698,"\u0120op":699,"\u0120open":995,"\u0120opened":2329,"\u0120opening":2390,"\u0120oper":957,"\u0120operation":2500,"\u0120operations":2245,"\u0120opp":3804,"\u0120opportun":3822,"\u0120oppos":3182,"\u0120or":406,"\u0120ord":2817,"\u0120order":1222,"\u0120ordered":2877,"\u0120organ":1354,"\u0120organization":3520,"\u0120origin":897,"\u0120original":1393,"\u0120originally":1981,"\u0120os":2843,"\u0120other":567,"\u0120others":1979,"\u0120ott":3189,"\u0120ottoman":3955,"\u0120our":2715,"\u0120out":615,"\u0120outside":2325,"\u0120over":591,"\u0120overall":2837,"\u0120ow":3568,"\u0120own":1085,"\u0120owned":4076,"\u0120ox":2915,"\u0120p":282,"\u0120pa":1782,"\u0120pac":2633,"\u0120pacific":2815,"\u0120pain":2557,"\u0120pair":3152,"\u0120pal":1822,"\u0120pan":3265,"\u0120paper":3659,"\u0120par":726,"\u0120paren":3115,"\u0120parents":3828,"\u0120paris":3534,"\u0120park":1570,"\u0120parli":2252,"\u0120parliament":2285,"\u0120part":562,"\u0120partic":1251,"\u0120particip":2851,"\u0120particular":1689,"\u0120particularly":2412,"\u0120parts":2609,"\u0120party":2145,"\u0120pass":1092,"\u0120passed":2813,"\u0120past":2359,"\u0120pat":1471,"\u0120path":3516,"\u0120paul":2567,"\u0120pay":2750,"\u0120pe":670,"\u0120peace":3620,"\u0120peak":2133,"\u0120peaked":3735,"\u0120pen":2142,"\u0120penn":2929,"\u0120penns":3611,"\u0120pennsylvania":3704,"\u0120peop":1028,"\u0120people":1057,"\u0120per":525,"\u0120percent":3075,"\u0120perfect":3586,"\u0120perform":909,"\u0120performance":1910,"\u0120performances":3497,"\u0120performed":1932,"\u0120period":1379,"\u0120pers":1051,"\u0120person":1370,"\u0120personal":3055,"\u0120pet":3165,"\u0120peter":2907,"\u0120ph":853,"\u0120phil":2027,"\u0120phot":3824,"\u0120phys":2682,"\u0120pian":3070,"\u0120piano":3469,"\u0120pick":3741,"\u0120pict":3614,"\u0120pie":2716,"\u0120pil":3375,"\u0120pit":1663,"\u0120pl":409,"\u0120place":1420,"\u0120placed":2679,"\u0120places":3662,"\u0120plan":1527,"\u0120planned":3475,"\u0120plans":3222,"\u0120plant":3710,"\u0120plat":3073,"\u0120play":556,"\u0120played":1272,"\u0120player":1463,"\u0120players":1893,"\u0120playing":2170,"\u0120plays":3960,"\u0120ple":3504,"\u0120plot":2781,"\u0120po":558,"\u0120poem":1963,"\u0120poet":2718,"\u0120point":1589,"\u0120points":2300,"\u0120pol":831,"\u0120polic":3536,"\u0120police":2526,"\u0120polish":3406,"\u0120polit":1551,"\u0120political":2007,"\u0120poor":2560,"\u0120pop":887,"\u0120popular":1681,"\u0120population":1872,"\u0120port":939,"\u0120portray":3517,"\u0120portug":3134,"\u0120portuguese":4036,"\u0120pos":777,"\u0120position":1378,"\u0120positions":3442,"\u0120positive":2966,"\u0120poss":1345,"\u0120possible":2455,"\u0120post":1593,"\u0120pot":2589,"\u0120pow":3234,"\u0120power":1316,"\u0120powerful":3670,"\u0120pr":728,"\u0120pra":1883,"\u0120pract":2473,"\u0120practice":3968,"\u0120praised":2571,"\u0120pre":609,"\u0120prec":3962,"\u0120pred":2093,"\u0120prem":2328,"\u0120prep":3667,"\u0120prepar":3875,"\u0120pres":798,"\u0120presence":3574,"\u0120present":1452,"\u0120presented":3564,"\u0120president":1771,"\u0120press":1650,"\u0120pressure":2988,"\u0120prev":1063,"\u0120prevent":3006,"\u0120previous":1382,"\u0120previously":2546,"\u0120pri":1159,"\u0120prim":1912,"\u0120primarily":3995,"\u0120primary":3082,"\u0120princ":3391,"\u0120prince":3416,"\u0120princip":3627,"\u0120prior":2550,"\u0120priv":2410,"\u0120private":3009,"\u0120pro":389,"\u0120prob":2427,"\u0120probably":2786,"\u0120proble":2244,"\u0120problems":3057,"\u0120process":2137,"\u0120produ":753,"\u0120produc":2064,"\u0120produced":1726,"\u0120producer":3436,"\u0120production":1556,"\u0120prof":1635,"\u0120profess":2037,"\u0120professional":2969,"\u0120prog":1303,"\u0120program":1705,"\u0120progress":3993,"\u0120project":1568,"\u0120prom":1203,"\u0120promin":3687,"\u0120promot":2025,"\u0120prop":3236,"\u0120proper":2619,"\u0120proposed":3200,"\u0120prot":1294,"\u0120prote":1805,"\u0120protect":3893,"\u0120protein":3701,"\u0120proteins":3351,"\u0120protest":2756,"\u0120prov":1033,"\u0120provide":2996,"\u0120provided":2380,"\u0120publ":796,"\u0120public":1155,"\u0120published":1590,"\u0120pul":3723,"\u0120pup":3530,"\u0120pur":1833,"\u0120purch":3429,"\u0120put":1973,"\u0120q":2999,"\u0120qu":722,"\u0120quality":3836,"\u0120quar":2222,"\u0120quarter":2528,"\u0120queen":3092,"\u0120quest":2819,"\u0120question":3812,"\u0120quick":2566,"\u0120quickly":3261,"\u0120r":351,"\u0120ra":1182,"\u0120rac":2099,"\u0120race":2425,"\u0120rachel":2957,"\u0120rad":1638,"\u0120radio":2442,"\u0120rail":2172,"\u0120rain":2497,"\u0120rainfall":4061,"\u0120raised":3575,"\u0120ram":3556,"\u0120ran":2811,"\u0120rang":2678,"\u0120range":1967,"\u0120rank":2231,"\u0120ranked":3141,"\u0120rap":2415,"\u0120rapid":3385,"\u0120rare":3047,"\u0120rat":3473,"\u0120rate":3744,"\u0120rather":2316,"\u0120ray":3432,"\u0120re":302,"\u0120reach":2298,"\u0120reached":1884,"\u0120react":2530,"\u0120read":1925,"\u0120real":1451,"\u0120really":3555,"\u0120rear":3742,"\u0120reason":2423,"\u0120reb":2459,"\u0120rec":523,"\u0120rece":873,"\u0120received":1246,"\u0120recent":3680,"\u0120reception":2531,"\u0120recogn":2212,"\u0120recomm":4021,"\u0120record":709,"\u0120recorded":1534,"\u0120recording":2234,"\u0120records":2266,"\u0120recover":3476,"\u0120red":1468,"\u0120redu":2158,"\u0120reduced":3827,"\u0120ref":1404,"\u0120refer":1561,"\u0120referred":3097,"\u0120reform":3870,"\u0120refused":3894,"\u0120reg":711,"\u0120regard":2333,"\u0120regiment":2523,"\u0120region":2058,"\u0120regular":2317,"\u0120reign":3904,"\u0120rein":3531,"\u0120reject":3696,"\u0120rel":729,"\u0120related":2949,"\u0120relations":1958,"\u0120relationship":2167,"\u0120relative":3121,"\u0120rele":765,"\u0120release":1560,"\u0120released":1078,"\u0120relief":3621,"\u0120relig":1980,"\u0120religious":2638,"\u0120rem":695,"\u0120remain":2924,"\u0120remained":2102,"\u0120remaining":2887,"\u0120remains":2561,"\u0120remix":3821,"\u0120remo":3240,"\u0120removed":3721,"\u0120ren":2398,"\u0120rep":896,"\u0120repl":1526,"\u0120replaced":2611,"\u0120report":1170,"\u0120reported":1720,"\u0120reports":3858,"\u0120repres":1596,"\u0120represent":1727,"\u0120republ":2601,"\u0120republic":2686,"\u0120requ":1486,"\u0120request":3322,"\u0120required":2910,"\u0120res":546,"\u0120resc":3746,"\u0120rese":2048,"\u0120research":2514,"\u0120reser":3785,"\u0120residents":3855,"\u0120resp":1396,"\u0120respect":2332,"\u0120respectively":3778,"\u0120respond":3965,"\u0120respons":2512,"\u0120response":2925,"\u0120responsible":3779,"\u0120rest":1220,"\u0120result":1184,"\u0120resulted":3841,"\u0120ret":788,"\u0120return":1069,"\u0120returned":1856,"\u0120rev":867,"\u0120reve":2446,"\u0120revealed":3880,"\u0120review":1232,"\u0120reviews":2645,"\u0120revolution":3349,"\u0120rh":3398,"\u0120rhy":3603,"\u0120rich":1749,"\u0120richard":2621,"\u0120ridge":4094,"\u0120rif":3616,"\u0120right":1518,"\u0120rights":3825,"\u0120ris":3743,"\u0120river":1080,"\u0120ro":411,"\u0120road":1119,"\u0120rob":2933,"\u0120robert":2278,"\u0120rock":1519,"\u0120role":1501,"\u0120roles":4001,"\u0120roll":2939,"\u0120rom":1245,"\u0120roman":1703,"\u0120room":2399,"\u0120rose":2323,"\u0120roseber":3592,"\u0120rosebery":3883,"\u0120ross":3333,"\u0120rough":3818,"\u0120round":2206,"\u0120route":1616,"\u0120row":3345,"\u0120roy":1631,"\u0120royal":1812,"\u0120ru":2447,"\u0120rul":2265,"\u0120rule":3593,"\u0120run":988,"\u0120running":2839,"\u0120runs":3242,"\u0120russ":3154,"\u0120s":264,"\u0120sa":747,"\u0120sac":3884,"\u0120saf":2338,"\u0120safe":3307,"\u0120said":1043,"\u0120saint":2936,"\u0120sal":2306,"\u0120sales":3832,"\u0120sam":2824,"\u0120same":1077,"\u0120san":2209,"\u0120sand":3657,"\u0120sat":2352,"\u0120sav":3902,"\u0120saw":2258,"\u0120say":1542,"\u0120saying":2493,"\u0120sc":492,"\u0120scale":3974,"\u0120scen":2709,"\u0120scene":2710,"\u0120scenes":3421,"\u0120sch":922,"\u0120sched":3335,"\u0120schol":2978,"\u0120school":1130,"\u0120schools":3321,"\u0120science":2963,"\u0120scient":2024,"\u0120scientology":3068,"\u0120score":2818,"\u0120scored":2112,"\u0120scoring":3773,"\u0120scot":3389,"\u0120scotland":3738,"\u0120scott":2987,"\u0120scre":2642,"\u0120screen":3310,"\u0120script":3257,"\u0120se":357,"\u0120sea":2115,"\u0120search":3697,"\u0120season":741,"\u0120seasons":3935,"\u0120sec":641,"\u0120second":775,"\u0120secret":2417,"\u0120section":2660,"\u0120security":3933,"\u0120see":1573,"\u0120seem":2548,"\u0120seen":1828,"\u0120sele":2205,"\u0120selected":3625,"\u0120self":3000,"\u0120sem":2804,"\u0120sen":2935,"\u0120sense":3984,"\u0120sent":1449,"\u0120separ":2276,"\u0120separate":3896,"\u0120sept":1153,"\u0120september":1163,"\u0120sequ":2426,"\u0120sequence":4060,"\u0120ser":554,"\u0120series":827,"\u0120serious":3318,"\u0120serv":1126,"\u0120served":2233,"\u0120service":1776,"\u0120services":3300,"\u0120set":918,"\u0120sets":3801,"\u0120sett":1982,"\u0120settle":3206,"\u0120sev":3087,"\u0120seven":1819,"\u0120sever":835,"\u0120several":903,"\u0120severe":3669,"\u0120sex":2173,"\u0120sexual":3736,"\u0120sh":410,"\u0120sha":3270,"\u0120she":538,"\u0120shell":3336,"\u0120ship":992,"\u0120ships":1855,"\u0120shiva":3932,"\u0120sho":2481,"\u0120shoot":3642,"\u0120short":1199,"\u0120shortly":3013,"\u0120shot":2626,"\u0120should":1810,"\u0120show":949,"\u0120shown":3003,"\u0120shows":2775,"\u0120shr":3989,"\u0120side":1535,"\u0120sign":980,"\u0120signed":2689,"\u0120signific":1789,"\u0120significant":1905,"\u0120sil":2344,"\u0120silver":3761,"\u0120sim":861,"\u0120similar":1437,"\u0120since":1067,"\u0120sing":842,"\u0120singer":3698,"\u0120single":1306,"\u0120singles":3241,"\u0120sir":3815,"\u0120sister":3781,"\u0120sit":1745,"\u0120site":1747,"\u0120situ":2630,"\u0120situation":3671,"\u0120six":1034,"\u0120sixth":3288,"\u0120size":2767,"\u0120sk":1554,"\u0120sky":3608,"\u0120sl":1145,"\u0120slight":3519,"\u0120slightly":4082,"\u0120slow":2725,"\u0120sm":868,"\u0120small":1122,"\u0120smaller":2998,"\u0120smith":3953,"\u0120sn":2378,"\u0120so":626,"\u0120soc":1346,"\u0120social":2486,"\u0120society":2533,"\u0120sol":1480,"\u0120sold":1586,"\u0120soldiers":3224,"\u0120som":1438,"\u0120somal":3754,"\u0120some":677,"\u0120somerset":3454,"\u0120somet":2501,"\u0120something":3361,"\u0120sometimes":2698,"\u0120son":1922,"\u0120song":632,"\u0120songs":1446,"\u0120soon":2272,"\u0120sou":681,"\u0120sound":1655,"\u0120soundtrack":3776,"\u0120sour":2210,"\u0120source":3352,"\u0120sout":3540,"\u0120south":818,"\u0120southern":1714,"\u0120soviet":3559,"\u0120sp":569,"\u0120space":2499,"\u0120span":2873,"\u0120spanish":3512,"\u0120spe":640,"\u0120spec":768,"\u0120special":2040,"\u0120species":1257,"\u0120specific":2545,"\u0120specim":3888,"\u0120speed":3450,"\u0120spent":2874,"\u0120spir":3360,"\u0120spirit":3898,"\u0120spl":3867,"\u0120sport":2250,"\u0120sports":3808,"\u0120spread":4069,"\u0120spring":3477,"\u0120squ":1513,"\u0120squad":2166,"\u0120squadron":2981,"\u0120square":3096,"\u0120sr":4084,"\u0120st":323,"\u0120stad":3584,"\u0120stadium":3780,"\u0120staff":2771,"\u0120stage":2368,"\u0120stan":4093,"\u0120stand":1445,"\u0120standard":3245,"\u0120star":892,"\u0120stars":2005,"\u0120start":1061,"\u0120started":2000,"\u0120starting":3150,"\u0120stat":1667,"\u0120state":902,"\u0120stated":1839,"\u0120states":1050,"\u0120stating":3871,"\u0120station":2189,"\u0120status":3383,"\u0120stay":2405,"\u0120ste":1133,"\u0120step":2616,"\u0120still":1474,"\u0120stone":2615,"\u0120stop":2348,"\u0120stories":2677,"\u0120storm":1167,"\u0120story":1363,"\u0120str":1022,"\u0120stre":1356,"\u0120street":2043,"\u0120stren":2491,"\u0120streng":2535,"\u0120strength":3689,"\u0120stri":2098,"\u0120strong":1633,"\u0120stru":1285,"\u0120struck":4008,"\u0120struct":1831,"\u0120structure":2723,"\u0120strugg":3978,"\u0120stud":852,"\u0120students":2806,"\u0120studies":3157,"\u0120studio":2600,"\u0120study":2318,"\u0120style":1926,"\u0120su":392,"\u0120sub":808,"\u0120subject":2790,"\u0120subs":3909,"\u0120subsequ":2235,"\u0120subsequently":3034,"\u0120subst":2752,"\u0120suc":3873,"\u0120success":1113,"\u0120successful":1975,"\u0120such":805,"\u0120suff":2015,"\u0120suffered":3538,"\u0120sug":1470,"\u0120suggest":1564,"\u0120suggested":2691,"\u0120sum":1746,"\u0120summer":2463,"\u0120sun":2330,"\u0120sup":819,"\u0120super":1595,"\u0120support":1123,"\u0120supported":2979,"\u0120sur":829,"\u0120surf":2599,"\u0120surface":3036,"\u0120surround":2791,"\u0120surv":2004,"\u0120sus":2564,"\u0120sust":4019,"\u0120sw":1435,"\u0120swe":3767,"\u0120sy":778,"\u0120sym":2259,"\u0120symb":3795,"\u0120syn":2773,"\u0120system":1165,"\u0120t":257,"\u0120ta":1862,"\u0120take":1597,"\u0120taken":2202,"\u0120takes":3213,"\u0120taking":2604,"\u0120tal":2377,"\u0120tar":3019,"\u0120tax":3302,"\u0120tay":3426,"\u0120taylor":3513,"\u0120te":531,"\u0120teach":3802,"\u0120team":930,"\u0120teams":3054,"\u0120tech":1311,"\u0120techn":1860,"\u0120tele":1477,"\u0120television":1757,"\u0120tell":3099,"\u0120tem":1376,"\u0120temper":3016,"\u0120temple":3026,"\u0120ten":1896,"\u0120tenn":3100,"\u0120ter":916,"\u0120term":2745,"\u0120termin":4074,"\u0120terms":3451,"\u0120territ":2162,"\u0120territory":2959,"\u0120tessa":3923,"\u0120test":2021,"\u0120texas":3439,"\u0120text":3681,"\u0120th":303,"\u0120than":750,"\u0120that":349,"\u0120the":261,"\u0120theat":2656,"\u0120theatre":3737,"\u0120their":485,"\u0120them":686,"\u0120theme":3202,"\u0120themes":3775,"\u0120themselves":3078,"\u0120then":886,"\u0120there":703,"\u0120therefore":3907,"\u0120these":847,"\u0120they":508,"\u0120thick":3456,"\u0120things":3280,"\u0120think":2788,"\u0120thir":3648,"\u0120third":1289,"\u0120this":470,"\u0120thom":2414,"\u0120thomas":2754,"\u0120those":1362,"\u0120though":978,"\u0120thought":1890,"\u0120thous":3783,"\u0120threat":2583,"\u0120three":716,"\u0120through":734,"\u0120throughout":1653,"\u0120throw":3490,"\u0120thunder":3660,"\u0120thus":2727,"\u0120tim":532,"\u0120time":624,"\u0120times":1286,"\u0120tit":1185,"\u0120title":1684,"\u0120titles":3940,"\u0120to":296,"\u0120today":2700,"\u0120toget":2080,"\u0120together":2081,"\u0120told":2769,"\u0120tom":2179,"\u0120ton":3922,"\u0120tons":3311,"\u0120too":1853,"\u0120took":1283,"\u0120top":1214,"\u0120tor":1918,"\u0120tot":1500,"\u0120total":1686,"\u0120touch":2921,"\u0120touchdown":3796,"\u0120tour":1479,"\u0120tourn":3192,"\u0120tournament":3980,"\u0120tow":2315,"\u0120towards":2237,"\u0120tower":3126,"\u0120town":1131,"\u0120towns":2120,"\u0120townsend":3879,"\u0120tr":438,"\u0120track":1264,"\u0120tracks":3453,"\u0120trad":1502,"\u0120trade":3023,"\u0120tradition":2028,"\u0120traditional":3304,"\u0120traff":2947,"\u0120traffic":3112,"\u0120training":2681,"\u0120trans":893,"\u0120transfer":2721,"\u0120transl":3699,"\u0120transport":2263,"\u0120trave":1997,"\u0120tre":1761,"\u0120treat":2236,"\u0120tree":4038,"\u0120trees":3275,"\u0120tri":1217,"\u0120trib":2240,"\u0120tro":1651,"\u0120troops":2394,"\u0120tropical":1425,"\u0120true":3237,"\u0120tur":2029,"\u0120turn":1253,"\u0120turned":2784,"\u0120tv":3030,"\u0120tw":486,"\u0120twent":2805,"\u0120twenty":3387,"\u0120two":533,"\u0120ty":1178,"\u0120typ":1900,"\u0120type":2370,"\u0120types":3979,"\u0120typically":3757,"\u0120u":969,"\u0120uk":2629,"\u0120ult":2973,"\u0120ultim":3207,"\u0120ultimately":3999,"\u0120un":432,"\u0120unable":3402,"\u0120und":3527,"\u0120under":727,"\u0120union":2408,"\u0120unit":3090,"\u0120united":945,"\u0120units":2598,"\u0120univers":1340,"\u0120university":1523,"\u0120unlike":3507,"\u0120unt":1031,"\u0120until":1041,"\u0120up":587,"\u0120upon":1990,"\u0120upper":2941,"\u0120us":474,"\u0120use":1101,"\u0120used":825,"\u0120uses":3546,"\u0120using":1868,"\u0120usually":2886,"\u0120ut":2787,"\u0120v":375,"\u0120val":1429,"\u0120valley":3095,"\u0120van":3220,"\u0120var":1010,"\u0120variety":3481,"\u0120various":1898,"\u0120ve":1767,"\u0120vehic":3878,"\u0120ven":2585,"\u0120ver":719,"\u0120vers":3129,"\u0120version":1680,"\u0120very":1368,"\u0120vi":1791,"\u0120via":3492,"\u0120vict":1419,"\u0120victor":3418,"\u0120victory":2364,"\u0120vide":1225,"\u0120video":1320,"\u0120viet":2360,"\u0120vietn":2714,"\u0120vietnam":4035,"\u0120view":1499,"\u0120viewers":4031,"\u0120vill":1414,"\u0120villa":3274,"\u0120village":2391,"\u0120viol":2570,"\u0120vir":1985,"\u0120virgin":2927,"\u0120virginia":3595,"\u0120vis":1295,"\u0120visit":2889,"\u0120vo":2030,"\u0120voc":2169,"\u0120vocal":3759,"\u0120vocals":3578,"\u0120voice":2934,"\u0120vol":2034,"\u0120vot":3292,"\u0120w":267,"\u0120wal":1687,"\u0120wales":2345,"\u0120wall":2055,"\u0120walpole":3914,"\u0120want":1710,"\u0120wanted":2395,"\u0120war":704,"\u0120was":320,"\u0120wash":3986,"\u0120wat":1744,"\u0120water":1213,"\u0120waters":3522,"\u0120wave":3739,"\u0120way":1238,"\u0120we":601,"\u0120weaken":3961,"\u0120weap":3573,"\u0120wear":4016,"\u0120weather":4023,"\u0120webs":3976,"\u0120wee":1103,"\u0120week":1485,"\u0120weeks":2312,"\u0120well":871,"\u0120went":1948,"\u0120were":405,"\u0120west":1072,"\u0120western":1804,"\u0120wh":358,"\u0120what":1179,"\u0120whe":460,"\u0120wheeler":2871,"\u0120when":617,"\u0120where":787,"\u0120whether":3155,"\u0120which":445,"\u0120while":685,"\u0120white":1349,"\u0120who":559,"\u0120whole":3118,"\u0120whom":2505,"\u0120whose":2743,"\u0120wid":3849,"\u0120wide":2016,"\u0120widely":3734,"\u0120wife":2155,"\u0120wil":2529,"\u0120wild":2555,"\u0120will":875,"\u0120william":1924,"\u0120win":770,"\u0120wind":2249,"\u0120window":3777,"\u0120winds":2429,"\u0120wing":3214,"\u0120winning":2797,"\u0120winter":3908,"\u0120wit":3045,"\u0120with":347,"\u0120withd":2826,"\u0120withdra":3523,"\u0120within":1256,"\u0120without":1525,"\u0120wom":1467,"\u0120woman":2792,"\u0120women":2010,"\u0120won":1310,"\u0120wood":1887,"\u0120wor":482,"\u0120word":2050,"\u0120words":3966,"\u0120work":744,"\u0120worked":2524,"\u0120workers":4051,"\u0120working":2389,"\u0120works":1908,"\u0120world":803,"\u0120would":645,"\u0120wound":3581,"\u0120wr":3722,"\u0120writ":755,"\u0120write":4006,"\u0120writer":2610,"\u0120writers":3363,"\u0120writing":1756,"\u0120written":1594,"\u0120wrote":1308,"\u0120x":1458,"\u0120xenon":3107,"\u0120y":394,"\u0120yard":2361,"\u0120yards":2468,"\u0120year":576,"\u0120years":841,"\u0120yellow":3506,"\u0120yet":3103,"\u0120york":1357,"\u0120you":1066,"\u0120youn":1493,"\u0120young":1786,"\u0120your":3116,"\u0120yue":3947,"\u0120z":929,"\u0120ze":2506,"\u0120zealand":2808,"\u0120\u00c2":1488,"\u0120\u00c2\u00a3":2607,"\u0120\u00c2\u00b0":2652,"\u0120\u00c3":3632,"\u0120\u00e2":436,"\u0120\u00e2\u0122":442,"\u0120\u00e2\u0122\u0135":505,"\u0120\u00e2\u0122\u0136":935,"\u0120\u00e2\u0122\u013b":2089,"\u0121":222,"\u0122":223,"\u0123":224,"\u0124":225,"\u0125":226,"\u0126":227,"\u0127":228,"\u0128":229,"\u0129":230,"\u012a":231,"\u012b":232,"\u012c":233,"\u012d":234,"\u012e":235,"\u012f":236,"\u0130":237,"\u0131":238,"\u0132":239,"\u0133":240,"\u0134":241,"\u0135":242,"\u0136":243,"\u0137":244,"\u0138":245,"\u0139":246,"\u013a":247,"\u013b":248,"\u013c":249,"\u013d":250,"\u013e":251,"\u013f":252,"\u0140":253,"\u0141":254,"\u0142":255,"\u0143":256}},"normalizer":null,"padding":null,"post_processor":{"add_prefix_space":true,"trim_offsets":false,"type":"ByteLevel","use_regex":true},"pre_tokenizer":{"add_prefix_space":false,"trim_offsets":true,"type":"ByteLevel","use_regex":true},"truncation":null,"version":"1.0"}